<pad>	0
<unk>	0
<s>	0
</s>	0
<0x00>	0
<0x01>	0
<0x02>	0
<0x03>	0
<0x04>	0
<0x05>	0
<0x06>	0
<0x07>	0
<0x08>	0
<0x09>	0
<0x0A>	0
<0x0B>	0
<0x0C>	0
<0x0D>	0
<0x0E>	0
<0x0F>	0
<0x10>	0
<0x11>	0
<0x12>	0
<0x13>	0
<0x14>	0
<0x15>	0
<0x16>	0
<0x17>	0
<0x18>	0
<0x19>	0
<0x1A>	0
<0x1B>	0
<0x1C>	0
<0x1D>	0
<0x1E>	0
<0x1F>	0
<0x20>	0
<0x21>	0
<0x22>	0
<0x23>	0
<0x24>	0
<0x25>	0
<0x26>	0
<0x27>	0
<0x28>	0
<0x29>	0
<0x2A>	0
<0x2B>	0
<0x2C>	0
<0x2D>	0
<0x2E>	0
<0x2F>	0
<0x30>	0
<0x31>	0
<0x32>	0
<0x33>	0
<0x34>	0
<0x35>	0
<0x36>	0
<0x37>	0
<0x38>	0
<0x39>	0
<0x3A>	0
<0x3B>	0
<0x3C>	0
<0x3D>	0
<0x3E>	0
<0x3F>	0
<0x40>	0
<0x41>	0
<0x42>	0
<0x43>	0
<0x44>	0
<0x45>	0
<0x46>	0
<0x47>	0
<0x48>	0
<0x49>	0
<0x4A>	0
<0x4B>	0
<0x4C>	0
<0x4D>	0
<0x4E>	0
<0x4F>	0
<0x50>	0
<0x51>	0
<0x52>	0
<0x53>	0
<0x54>	0
<0x55>	0
<0x56>	0
<0x57>	0
<0x58>	0
<0x59>	0
<0x5A>	0
<0x5B>	0
<0x5C>	0
<0x5D>	0
<0x5E>	0
<0x5F>	0
<0x60>	0
<0x61>	0
<0x62>	0
<0x63>	0
<0x64>	0
<0x65>	0
<0x66>	0
<0x67>	0
<0x68>	0
<0x69>	0
<0x6A>	0
<0x6B>	0
<0x6C>	0
<0x6D>	0
<0x6E>	0
<0x6F>	0
<0x70>	0
<0x71>	0
<0x72>	0
<0x73>	0
<0x74>	0
<0x75>	0
<0x76>	0
<0x77>	0
<0x78>	0
<0x79>	0
<0x7A>	0
<0x7B>	0
<0x7C>	0
<0x7D>	0
<0x7E>	0
<0x7F>	0
<0x80>	0
<0x81>	0
<0x82>	0
<0x83>	0
<0x84>	0
<0x85>	0
<0x86>	0
<0x87>	0
<0x88>	0
<0x89>	0
<0x8A>	0
<0x8B>	0
<0x8C>	0
<0x8D>	0
<0x8E>	0
<0x8F>	0
<0x90>	0
<0x91>	0
<0x92>	0
<0x93>	0
<0x94>	0
<0x95>	0
<0x96>	0
<0x97>	0
<0x98>	0
<0x99>	0
<0x9A>	0
<0x9B>	0
<0x9C>	0
<0x9D>	0
<0x9E>	0
<0x9F>	0
<0xA0>	0
<0xA1>	0
<0xA2>	0
<0xA3>	0
<0xA4>	0
<0xA5>	0
<0xA6>	0
<0xA7>	0
<0xA8>	0
<0xA9>	0
<0xAA>	0
<0xAB>	0
<0xAC>	0
<0xAD>	0
<0xAE>	0
<0xAF>	0
<0xB0>	0
<0xB1>	0
<0xB2>	0
<0xB3>	0
<0xB4>	0
<0xB5>	0
<0xB6>	0
<0xB7>	0
<0xB8>	0
<0xB9>	0
<0xBA>	0
<0xBB>	0
<0xBC>	0
<0xBD>	0
<0xBE>	0
<0xBF>	0
<0xC0>	0
<0xC1>	0
<0xC2>	0
<0xC3>	0
<0xC4>	0
<0xC5>	0
<0xC6>	0
<0xC7>	0
<0xC8>	0
<0xC9>	0
<0xCA>	0
<0xCB>	0
<0xCC>	0
<0xCD>	0
<0xCE>	0
<0xCF>	0
<0xD0>	0
<0xD1>	0
<0xD2>	0
<0xD3>	0
<0xD4>	0
<0xD5>	0
<0xD6>	0
<0xD7>	0
<0xD8>	0
<0xD9>	0
<0xDA>	0
<0xDB>	0
<0xDC>	0
<0xDD>	0
<0xDE>	0
<0xDF>	0
<0xE0>	0
<0xE1>	0
<0xE2>	0
<0xE3>	0
<0xE4>	0
<0xE5>	0
<0xE6>	0
<0xE7>	0
<0xE8>	0
<0xE9>	0
<0xEA>	0
<0xEB>	0
<0xEC>	0
<0xED>	0
<0xEE>	0
<0xEF>	0
<0xF0>	0
<0xF1>	0
<0xF2>	0
<0xF3>	0
<0xF4>	0
<0xF5>	0
<0xF6>	0
<0xF7>	0
<0xF8>	0
<0xF9>	0
<0xFA>	0
<0xFB>	0
<0xFC>	0
<0xFD>	0
<0xFE>	0
<0xFF>	0
▁t	-0
ার	-1
he	-2
য়	-3
▁স	-4
▁ক	-5
▁a	-6
্র	-7
▁প	-8
ের	-9
▁ব	-10
্য	-11
in	-12
▁এ	-13
er	-14
▁the	-15
is	-16
on	-17
ান	-18
an	-19
en	-20
▁ম	-21
or	-22
▁হ	-23
al	-24
্ত	-25
▁অ	-26
▁ত	-27
es	-28
▁কর	-29
▁|	-30
▁w	-31
▁s	-32
▁আ	-33
▁o	-34
ar	-35
টি	-36
▁ন	-37
at	-38
ed	-39
যা	-40
▁দ	-41
েন	-42
র্	-43
াল	-44
িক	-45
it	-46
িত	-47
▁জ	-48
▁of	-49
▁প্র	-50
▁c	-51
re	-52
▁||	-53
nd	-54
▁b	-55
▁f	-56
িন	-57
▁in	-58
▁(	-59
য়ে	-60
as	-61
যা়	-62
▁p	-63
▁S	-64
ic	-65
ou	-66
▁B	-67
িল	-68
▁1	-69
▁র	-70
▁m	-71
▁and	-72
▁T	-73
্ব	-74
▁A	-75
কে	-76
▁শ	-77
ing	-78
াম	-79
্ট	-80
ro	-81
▁E	-82
▁বি	-83
le	-84
▁d	-85
▁গ	-86
বং	-87
▁উ	-88
▁এবং	-89
▁to	-90
▁h	-91
▁য	-92
▁C	-93
▁এক	-94
ion	-95
ায়	-96
াব	-97
▁M	-98
▁I	-99
▁2	-100
▁চ	-101
il	-102
ig	-103
▁পর	-104
াদ	-105
ish	-106
▁১	-107
াস	-108
▁করে	-109
▁ভ	-110
▁ও	-111
▁is	-112
ng	-113
াত	-114
ছিল	-115
om	-116
ন্	-117
লে	-118
us	-119
্ষ	-120
am	-121
ent	-122
▁H	-123
▁ই	-124
ির	-125
ুর	-126
ngl	-127
▁Engl	-128
▁P	-129
িস	-130
▁English	-131
ali	-132
el	-133
াই	-134
্যা	-135
▁The	-136
ছে	-137
ol	-138
েশ	-139
eng	-140
▁n	-141
▁নি	-142
াজ	-143
ুল	-144
▁সম	-145
তে	-146
েল	-147
▁19	-148
থে	-149
▁l	-150
▁L	-151
তি	-152
▁th	-153
▁Beng	-154
▁Bengali	-155
et	-156
াক	-157
▁20	-158
্থ	-159
▁ফ	-160
ac	-161
ad	-162
▁অন	-163
▁was	-164
▁২	-165
্প	-166
▁ল	-167
ay	-168
িযা়	-169
▁সাল	-170
ot	-171
▁হয়	-172
ur	-173
িনি	-174
ec	-175
▁g	-176
▁বা	-177
id	-178
st	-179
বে	-180
▁D	-181
▁জন	-182
ir	-183
▁তার	-184
▁al	-185
▁F	-186
▁R	-187
▁on	-188
iv	-189
▁W	-190
▁খ	-191
্চ	-192
em	-193
▁N	-194
ীয়	-195
▁G	-196
im	-197
্ক	-198
▁একটি	-199
▁for	-200
ড়	-201
ow	-202
ক্ষ	-203
াহ	-204
ক্ত	-205
ut	-206
▁J	-207
▁১৯	-208
▁যা	-209
ers	-210
▁e	-211
ht	-212
▁re	-213
▁তিনি	-214
▁হয়ে	-215
▁-	-216
ly	-217
ch	-218
ধ্য	-219
▁k	-220
দের	-221
▁"	-222
দ্	-223
▁এই	-224
▁করা	-225
▁২০	-226
ist	-227
her	-228
ন্ত	-229
▁থে	-230
▁সং	-231
▁থেকে	-232
||	-233
াপ	-234
ation	-235
un	-236
▁ড	-237
ber	-238
্যান	-239
বি	-240
ষ্	-241
▁O	-242
▁পরি	-243
না	-244
ct	-245
ight	-246
্ড	-247
্ল	-248
▁st	-249
and	-250
▁সা	-251
▁যে	-252
▁ছিল	-253
ov	-254
্ম	-255
▁as	-256
est	-257
নের	-258
op	-259
▁be	-260
av	-261
ag	-262
▁করেন	-263
os	-264
th	-265
▁K	-266
ীর	-267
▁জন্য	-268
▁r	-269
ce	-270
▁উপ	-271
াগ	-272
ul	-273
▁—	-274
্দ	-275
▁দে	-276
▁সালে	-277
োগ	-278
ter	-279
▁এর	-280
কার	-281
স্থ	-282
ith	-283
▁ধ	-284
ওযা়	-285
▁ট	-286
াবে	-287
▁wh	-288
rom	-289
oc	-290
নি	-291
িয়ে	-292
um	-293
▁ব্য	-294
▁y	-295
▁an	-296
ৃত	-297
্গ	-298
নে	-299
মি	-300
দ্ধ	-301
্স	-302
র্ব	-303
ak	-304
▁he	-305
ill	-306
্রে	-307
▁200	-308
ign	-309
▁by	-310
ian	-311
▁that	-312
জন	-313
রে	-314
od	-315
গুল	-316
▁are	-317
মান	-318
ঙ্গ	-319
ain	-320
all	-321
▁with	-322
▁অব	-323
ুক্ত	-324
রা	-325
▁U	-326
▁বিশ	-327
▁It	-328
▁from	-329
াশ	-330
▁He	-331
▁কো	-332
ap	-333
ষ্ট	-334
art	-335
▁it	-336
ডা	-337
র্ত	-338
▁সে	-339
▁হিস	-340
ess	-341
ষ্ঠ	-342
ri	-343
িম	-344
তা	-345
ন্দ	-346
্ন	-347
▁at	-348
▁মধ্য	-349
▁v	-350
▁প্রতি	-351
ডা়	-352
াদের	-353
ুন	-354
ep	-355
ারণ	-356
ia	-357
▁পার	-358
রি	-359
▁থ	-360
াকে	-361
▁In	-362
ity	-363
ত্ত	-364
▁com	-365
ld	-366
▁রাজ	-367
▁অনু	-368
ানে	-369
্যাল	-370
ারা	-371
00	-372
গ্র	-373
right	-374
▁নাম	-375
▁ঘ	-376
▁ছ	-377
▁মা	-378
▁or	-379
▁না	-380
ev	-381
ew	-382
▁km	-383
চ্চ	-384
ছেন	-385
ies	-386
িকে	-387
if	-388
েম	-389
থম	-390
▁,	-391
our	-392
িতে	-393
েক	-394
স্ত	-395
▁align	-396
ab	-397
▁অভ	-398
োর	-399
..	-400
▁–	-401
ংশ	-402
্রি	-403
),	-404
▁আম	-405
▁St	-406
▁201	-407
▁V	-408
▁সাথে	-409
োল	-410
▁কি	-411
▁pl	-412
▁এটি	-413
ary	-414
▁মধ্যে	-415
▁আর	-416
ছিলেন	-417
ember	-418
ard	-419
স্ট	-420
র্ম	-421
▁২০১	-422
▁ব্যব	-423
ংল	-424
ুরু	-425
ant	-426
mer	-427
▁ভার	-428
বার	-429
▁pro	-430
▁দ্ব	-431
▁গ্র	-432
ust	-433
ort	-434
ud	-435
▁Ch	-436
ate	-437
ear	-438
িত্র	-439
▁সালের	-440
▁পা	-441
▁con	-442
▁আল	-443
▁মু	-444
িশ	-445
▁স্ব	-446
ধান	-447
19	-448
ave	-449
ame	-450
up	-451
ীন	-452
ong	-453
ত্র	-454
▁3	-455
oun	-456
▁সম্প	-457
স্ক	-458
ich	-459
ip	-460
▁বিশ্ব	-461
ভাবে	-462
মে	-463
▁প্রথম	-464
▁ইউ	-465
▁you	-466
্জ	-467
াচ	-468
রণ	-469
▁ch	-470
▁199	-471
খন	-472
▁not	-473
▁his	-474
▁দু	-475
▁কা	-476
রের	-477
েবে	-478
▁হল	-479
ast	-480
ell	-481
ore	-482
০০	-483
িজ	-484
টা	-485
▁নে	-486
ge	-487
▁ভারত	-488
▁বাংল	-489
ub	-490
▁বিভ	-491
▁স্থ	-492
end	-493
ive	-494
og	-495
▁চল	-496
▁Y	-497
▁হিসেবে	-498
ঞ্চ	-499
প্র	-500
▁সু	-501
র্ণ	-502
▁sh	-503
াণ	-504
▁ক্র	-505
se	-506
▁Th	-507
েষ	-508
ost	-509
ran	-510
▁us	-511
যোগ	-512
orn	-513
ican	-514
ানের	-515
িং	-516
য়ের	-517
ie	-518
ord	-519
ment	-520
িব	-521
▁প্রক	-522
বর্ত	-523
র্থ	-524
ere	-525
qu	-526
লের	-527
▁পরিচ	-528
▁সর	-529
▁has	-530
ok	-531
াঁ	-532
টার	-533
▁Al	-534
সে	-535
হার	-536
so	-537
▁তাদের	-538
য়েছে	-539
▁ছিলেন	-540
ount	-541
ুম	-542
▁Un	-543
▁হয়েছিল	-544
য়ন	-545
ান্ত	-546
াদেশ	-547
▁যায়	-548
▁করতে	-549
ুদ্ধ	-550
ound	-551
ra	-552
rit	-553
্ঞ	-554
▁le	-555
িপ	-556
▁.	-557
▁have	-558
ug	-559
▁মহ	-560
out	-561
ine	-562
ীব	-563
লা	-564
ন্ত্র	-565
ack	-566
্যান্ড	-567
eop	-568
োট	-569
ver	-570
▁অবস্থ	-571
ial	-572
ry	-573
ome	-574
ূল	-575
▁মার	-576
টির	-577
▁রয়েছে	-578
▁de	-579
চ্	-580
▁ex	-581
▁একজন	-582
োন	-583
োক	-584
ীত	-585
▁sp	-586
▁they	-587
▁হয়েছে	-588
িক্ষ	-589
ect	-590
eople	-591
EA	-592
োম	-593
▁করার	-594
▁রা	-595
▁মে	-596
খানে	-597
▁খেল	-598
▁Amer	-599
▁were	-600
▁18	-601
টে	-602
▁২০০	-603
ated	-604
▁4	-605
মন	-606
▁দেখ	-607
▁Soc	-608
any	-609
ik	-610
▁বছ	-611
own	-612
▁also	-613
▁অংশ	-614
uc	-615
বিদ	-616
▁চলচ্চ	-617
সল	-618
▁বেশ	-619
▁বাংলাদেশ	-620
▁অধ	-621
াধ	-622
দি	-623
ther	-624
▁Mar	-625
ue	-626
▁se	-627
▁স্ট	-628
ক্র	-629
▁কার	-630
▁কাজ	-631
ঞ্জ	-632
ang	-633
▁ক্ষ	-634
যা়র	-635
▁পর্য	-636
▁ab	-637
হণ	-638
▁ar	-639
ছু	-640
hen	-641
▁মান	-642
▁পূ	-643
ure	-644
িকা	-645
ন্ড	-646
▁সাম	-647
▁কোন	-648
▁সহ	-649
ork	-650
▁who	-651
res	-652
াত্র	-653
্বর	-654
োপ	-655
▁ব্যা	-656
▁দিয়ে	-657
▁নিয়ে	-658
্যের	-659
IN	-660
orro	-661
▁play	-662
ide	-663
▁আই	-664
▁আস	-665
▁can	-666
▁প্রত	-667
ern	-668
irst	-669
ical	-670
eb	-671
লেখ	-672
▁people	-673
াষ	-674
▁American	-675
▁সময়	-676
age	-677
▁5	-678
েন্ট	-679
20	-680
েন্দ	-681
▁পুর	-682
▁which	-683
দেশ	-684
EAR	-685
▁LIN	-686
▁Socorro	-687
▁LINEAR	-688
▁৩	-689
▁জাত	-690
ন্ম	-691
ারে	-692
ire	-693
oug	-694
▁bec	-695
▁জেল	-696
শন	-697
ey	-698
জাত	-699
).	-700
তার	-701
পর	-702
্টি	-703
▁their	-704
ড়ে	-705
▁করেছিলেন	-706
িযা়র	-707
▁কিছু	-708
িন্ন	-709
▁বে	-710
ah	-711
ous	-712
চে	-713
াভ	-714
▁শহ	-715
জ্ঞ	-716
র্ক	-717
▁করেছেন	-718
ime	-719
▁জান	-720
ff	-721
ice	-722
uary	-723
▁চলচ্চিত্র	-724
ass	-725
▁kn	-726
১৯	-727
সম	-728
পুর	-729
ond	-730
ions	-731
▁।	-732
▁un	-733
জি	-734
▁this	-735
▁প্রতিষ্ঠ	-736
ন্ধ	-737
▁আগ	-738
▁বলে	-739
man	-740
▁সরকার	-741
িড	-742
▁শুরু	-743
▁one	-744
িস্ট	-745
ষণ	-746
স্য	-747
▁j	-748
▁first	-749
াডা়	-750
▁হিসাবে	-751
▁উত্ত	-752
▁সব	-753
▁দ্বারা	-754
▁ব্যবহার	-755
াকা	-756
▁Ar	-757
েন্দ্র	-758
িন্ত	-759
িকার	-760
ach	-761
চার	-762
▁comp	-763
▁সদ	-764
▁হন	-765
ates	-766
োযা়	-767
ould	-768
▁(19	-769
ric	-770
কাল	-771
গুলি	-772
...	-773
▁'	-774
▁7	-775
fter	-776
খে	-777
বাদ	-778
▁act	-779
▁বল	-780
▁কারণ	-781
▁198	-782
ind	-783
কের	-784
▁বিদ	-785
ল্প	-786
▁6	-787
▁অভিন	-788
▁them	-789
▁লি	-790
বা	-791
▁তারা	-792
্যার	-793
ood	-794
to	-795
▁mov	-796
||0	-797
▁me	-798
▁কে	-799
▁শিক্ষ	-800
▁মাধ্য	-801
▁ইউনি	-802
ited	-803
▁te	-804
▁মত	-805
ace	-806
ied	-807
amp	-808
aw	-809
ade	-810
▁do	-811
ন্ন	-812
▁had	-813
িউ	-814
শ্চ	-815
ুব	-816
র্ড	-817
ক্ষে	-818
land	-819
iz	-820
▁পর্যন্ত	-821
▁part	-822
▁বছর	-823
▁দক্ষ	-824
ational	-825
▁১৮	-826
per	-827
▁পারে	-828
▁প্রধান	-829
ens	-830
▁but	-831
▁all	-832
▁8	-833
ওযা়র	-834
aus	-835
▁Sp	-836
ূপ	-837
িণ	-838
ake	-839
ob	-840
এর	-841
ষ্ট্র	-842
ুক	-843
িস্ত	-844
ater	-845
াতে	-846
▁আব	-847
ory	-848
▁ভাষ	-849
▁cl	-850
ress	-851
গুলো	-852
▁রে	-853
▁দেশ	-854
▁তাকে	-855
▁প্রকাশ	-856
cl	-857
ুযা়	-858
িত্ব	-859
▁১৯৯	-860
▁other	-861
▁টি	-862
▁her	-863
▁অন্য	-864
▁নির্ব	-865
▁থাকে	-866
ree	-867
ধারণ	-868
▁এল	-869
োধ	-870
▁She	-871
sp	-872
▁তৈ	-873
▁্	-874
▁197	-875
▁will	-876
▁৫	-877
▁জাতীয়	-878
জে	-879
▁আমি	-880
ীদের	-881
নার	-882
থা	-883
ib	-884
্যাম	-885
▁প্রায়	-886
্যালয়	-887
▁সি	-888
▁কিন্ত	-889
ুট	-890
▁সর্ব	-891
তিক	-892
্যাস	-893
▁tr	-894
▁অনেক	-895
েশন	-896
ts	-897
বর্তী	-898
পূ	-899
ook	-900
▁ag	-901
▁9	-902
গত	-903
pp	-904
row	-905
lect	-906
▁tw	-907
ত্ব	-908
▁তু	-909
orld	-910
one	-911
ঙ্ক	-912
দান	-913
ept	-914
ite	-915
ence	-916
▁বিষ	-917
▁জীব	-918
▁gr	-919
তম	-920
▁যুক্ত	-921
▁An	-922
les	-923
▁কিন্তু	-924
▁দক্ষিণ	-925
▁about	-926
▁৪	-927
▁নামে	-928
▁বিভিন্ন	-929
▁উৎ	-930
▁This	-931
▁কম	-932
োস	-933
▁অঞ্চ	-934
200	-935
▁মূল	-936
▁কেন্দ্র	-937
▁পরিচাল	-938
তিহ	-939
▁নির্	-940
▁year	-941
te	-942
▁Le	-943
ose	-944
ানি	-945
েত	-946
ober	-947
old	-948
▁থাক	-949
und	-950
্যাক	-951
ever	-952
▁পরে	-953
ath	-954
িযা়ন	-955
ত্য	-956
▁there	-957
ally	-958
্ভ	-959
ans	-960
▁pol	-961
২০	-962
▁They	-963
▁ক্রিকে	-964
স্কার	-965
চ্ছে	-966
▁অর্থ	-967
▁And	-968
▁স্ক	-969
▁ওযা়	-970
▁দল	-971
▁On	-972
খ্যা	-973
▁উল	-974
▁পে	-975
োব	-976
োজ	-977
▁স্থান	-978
যুক্ত	-979
িও	-980
▁অবস্থিত	-981
ild	-982
▁মাধ্যমে	-983
▁নির্বাচ	-984
▁ভূ	-985
দার	-986
▁call	-987
বাহ	-988
গ্রহণ	-989
orm	-990
িন্দ	-991
▁we	-992
▁United	-993
নী	-994
ough	-995
▁ser	-996
▁comm	-997
act	-998
▁জন্ম	-999
fer	-1000
ুদ	-1001
সং	-1002
▁তাঁ	-1003
▁হার	-1004
ুপ	-1005
uch	-1006
▁বার	-1007
▁সাধারণ	-1008
▁up	-1009
▁উপর	-1010
▁সদস্য	-1011
▁New	-1012
eptember	-1013
▁dis	-1014
ণ্ড	-1015
io	-1016
বল	-1017
াইন	-1018
▁বৃ	-1019
▁Sh	-1020
ings	-1021
াব্দ	-1022
েস	-1023
কারী	-1024
▁সঙ্গ	-1025
▁পাল	-1026
▁হবে	-1027
▁তবে	-1028
োহ	-1029
▁ব্র	-1030
▁শেষ	-1031
▁17	-1032
▁বির	-1033
▁১৯৭	-1034
▁196	-1035
▁September	-1036
▁অন্ত	-1037
▁হতে	-1038
▁আছে	-1039
▁ইন	-1040
▁As	-1041
ক্তি	-1042
ile	-1043
▁সাহ	-1044
লি	-1045
েম্বর	-1046
pt	-1047
ুত	-1048
oh	-1049
port	-1050
শ্চিম	-1051
▁ঐ	-1052
▁তা	-1053
ানা	-1054
ীল	-1055
ult	-1056
▁কর্ম	-1057
▁নার	-1058
▁ro	-1059
ren	-1060
▁বিশ্ববিদ	-1061
▁ভারতের	-1062
ivers	-1063
ভার	-1064
▁যোগ	-1065
▁যার	-1066
াট	-1067
une	-1068
hed	-1069
▁বৈ	-1070
ুগ	-1071
াউ	-1072
াস্ত	-1073
ark	-1074
ons	-1075
ubl	-1076
oot	-1077
▁been	-1078
্যাপ	-1079
▁চে	-1080
ations	-1081
ident	-1082
ike	-1083
▁many	-1084
▁অভি	-1085
▁মাস	-1086
▁work	-1087
▁অর্	-1088
▁আন্ত	-1089
rop	-1090
্যে	-1091
▁ad	-1092
▁its	-1093
▁অফ	-1094
িতা	-1095
▁after	-1096
সি	-1097
▁১৯৮	-1098
সের	-1099
▁when	-1100
▁ভারতীয়	-1101
ail	-1102
ুষ	-1103
ors	-1104
ick	-1105
▁cont	-1106
▁10	-1107
▁used	-1108
▁count	-1109
▁All	-1110
we	-1111
▁made	-1112
▁Jan	-1113
ince	-1114
িল্প	-1115
▁two	-1116
ড়ি	-1117
▁sc	-1118
▁নির্ম	-1119
▁him	-1120
▁out	-1121
▁৬	-1122
ষ্টি	-1123
▁করেছে	-1124
ward	-1125
▁known	-1126
▁উত্তর	-1127
বেশ	-1128
▁বিভাগ	-1129
▁ক্ল	-1130
দিন	-1131
▁প্রশ	-1132
▁পূর্ব	-1133
▁she	-1134
▁ধর্ম	-1135
▁উই	-1136
▁Ind	-1137
▁পরিচিত	-1138
oy	-1139
▁পুরস্কার	-1140
▁যদি	-1141
্যান্য	-1142
▁2000	-1143
▁res	-1144
1,	-1145
▁উচ্চ	-1146
ery	-1147
▁অন্যান্য	-1148
tern	-1149
▁Fran	-1150
iss	-1151
▁তৈরি	-1152
▁উদ	-1153
▁বর্ত	-1154
▁so	-1155
ভা	-1156
▁pr	-1157
▁লাভ	-1158
সলাম	-1159
▁চার	-1160
pr	-1161
▁1.	-1162
ays	-1163
ased	-1164
▁অপ	-1165
ctober	-1166
▁দলের	-1167
▁more	-1168
▁time	-1169
েব	-1170
▁called	-1171
ৃত্য	-1172
▁শত	-1173
||1	-1174
ause	-1175
are	-1176
▁বর্তমান	-1177
▁হত	-1178
hy	-1179
ীক	-1180
এস	-1181
ভূ	-1182
▁কল	-1183
▁নিয়	-1184
িদ	-1185
ition	-1186
pl	-1187
▁বেশি	-1188
▁আপ	-1189
▁মন	-1190
▁16	-1191
erm	-1192
▁most	-1193
▁উদ্	-1194
▁October	-1195
▁যুদ্ধ	-1196
▁)	-1197
▁পাক	-1198
র্শ	-1199
ারের	-1200
ball	-1201
▁ac	-1202
oll	-1203
য়ী	-1204
সব	-1205
▁দুই	-1206
▁15	-1207
দী	-1208
▁im	-1209
▁স্প	-1210
wn	-1211
▁অনুষ্ঠ	-1212
জ্ঞান	-1213
▁দিকে	-1214
ents	-1215
▁bl	-1216
▁Z	-1217
্লেখ	-1218
▁ইসলাম	-1219
র্গ	-1220
outh	-1221
▁বিশেষ	-1222
র্জাত	-1223
▁মার্ক	-1224
orth	-1225
খ্য	-1226
here	-1227
▁উল্লেখ	-1228
▁পশ্চিম	-1229
াইল	-1230
▁ট্র	-1231
clud	-1232
="	-1233
▁ev	-1234
▁March	-1235
ugust	-1236
▁into	-1237
ock	-1238
▁আন্তর্জাত	-1239
▁States	-1240
▁ডি	-1241
4,	-1242
ics	-1243
itt	-1244
▁মি	-1245
▁194	-1246
▁off	-1247
▁ম্যা	-1248
als	-1249
ll	-1250
িত্ত	-1251
▁May	-1252
▁৭	-1253
▁জেলার	-1254
born	-1255
সা	-1256
ict	-1257
reat	-1258
রিক	-1259
▁ne	-1260
▁per	-1261
▁কাছে	-1262
▁লেখ	-1263
▁শ্র	-1264
ician	-1265
erson	-1266
▁12	-1267
▁195	-1268
uring	-1269
ft	-1270
তুন	-1271
ina	-1272
েট	-1273
▁January	-1274
চনা	-1275
▁মৌ	-1276
▁তিন	-1277
▁We	-1278
াইট	-1279
▁বিপ	-1280
▁August	-1281
▁Is	-1282
▁কলে	-1283
▁দায়	-1284
▁গঠ	-1285
গুলির	-1286
▁১৯৬	-1287
▁চাল	-1288
▁করেছিল	-1289
▁Com	-1290
az	-1291
তিহাস	-1292
ton	-1293
্টার	-1294
িতীয়	-1295
ানো	-1296
▁some	-1297
▁আন্তর্জাতিক	-1298
স্থা	-1299
কল	-1300
িনী	-1301
ase	-1302
▁আদ	-1303
▁মুক্ত	-1304
▁Dec	-1305
▁লোক	-1306
নিক	-1307
জের	-1308
ছি	-1309
ম্ব	-1310
▁পাকিস্ত	-1311
▁Nov	-1312
মা	-1313
▁অন্তর্	-1314
ছাডা়	-1315
ভাব	-1316
ক্রম	-1317
▁কারণে	-1318
াতা	-1319
▁includ	-1320
▁bet	-1321
uct	-1322
▁তোম	-1323
urn	-1324
▁হচ্ছে	-1325
▁rec	-1326
▁over	-1327
▁পরবর্তী	-1328
▁:	-1329
য়েক	-1330
র্ষ	-1331
aid	-1332
▁দ্বিতীয়	-1333
▁go	-1334
ten	-1335
oin	-1336
▁polit	-1337
▁new	-1338
▁ফুট	-1339
▁ধর	-1340
▁You	-1341
▁app	-1342
▁মানুষ	-1343
▁পদ	-1344
▁born	-1345
▁দেখা	-1346
▁than	-1347
ৃতি	-1348
▁বিক	-1349
▁নতুন	-1350
▁found	-1351
▁চর	-1352
▁দ্য	-1353
▁মাল	-1354
overn	-1355
▁স্ত	-1356
▁অনুস	-1357
▁সেন	-1358
▁আন	-1359
▁বাংলাদেশের	-1360
োর্	-1361
oup	-1362
্রিয়	-1363
▁নিউ	-1364
িত্রে	-1365
ool	-1366
ont	-1367
▁তাঁর	-1368
▁ঢ	-1369
▁তাল	-1370
ডি	-1371
ebr	-1372
▁যেখানে	-1373
▁রাখ	-1374
▁সেই	-1375
▁193	-1376
▁writ	-1377
▁Re	-1378
ision	-1379
▁সার	-1380
ann	-1381
▁মিল	-1382
son	-1383
▁mus	-1384
enc	-1385
ীপ	-1386
▁কয়েক	-1387
▁যখন	-1388
▁num	-1389
াক্ষ	-1390
▁2001	-1391
▁only	-1392
ক্স	-1393
▁2.	-1394
▁আমার	-1395
▁৮	-1396
3,	-1397
ance	-1398
▁Q	-1399
▁দশ	-1400
▁Pr	-1401
▁গণ	-1402
▁শহর	-1403
▁sing	-1404
▁December	-1405
▁ব্রি	-1406
▁বড়	-1407
gan	-1408
াফ	-1409
hes	-1410
▁November	-1411
▁Sc	-1412
)।	-1413
▁দেয়	-1414
▁ঘট	-1415
pril	-1416
▁পুন	-1417
▁Wh	-1418
সু	-1419
ash	-1420
▁দিন	-1421
▁মতো	-1422
olog	-1423
াধীন	-1424
▁years	-1425
▁বহ	-1426
▁আফ	-1427
▁died	-1428
▁মার্কিন	-1429
▁এছাডা়	-1430
▁ওয়ে	-1431
ৈতিক	-1432
▁reg	-1433
িযা়ম	-1434
▁লে	-1435
ames	-1436
▁রাষ্ট্র	-1437
▁গে	-1438
▁১৯৫	-1439
িয়ন	-1440
▁কাল	-1441
ars	-1442
াপ্ত	-1443
▁খ্র	-1444
ale	-1445
ener	-1446
ix	-1447
"|	-1448
জেল	-1449
▁গুরু	-1450
ুরুষ	-1451
span	-1452
ebruary	-1453
hip	-1454
িষ্ট	-1455
কা	-1456
ife	-1457
▁=	-1458
18	-1459
ক্ষণ	-1460
ুই	-1461
▁গ্রাম	-1462
ily	-1463
▁পি	-1464
▁পরিবর্ত	-1465
▁আয়	-1466
মাণ	-1467
▁ইউনিয়ন	-1468
▁would	-1469
▁এমন	-1470
▁like	-1471
ram	-1472
▁fl	-1473
▁কথা	-1474
▁city	-1475
▁পৃ	-1476
▁বয়	-1477
▁April	-1478
ne	-1479
▁your	-1480
ootball	-1481
▁Ju	-1482
ীতে	-1483
ks	-1484
▁বাহ	-1485
▁রেল	-1486
irect	-1487
resident	-1488
ষণা	-1489
▁দেওযা়	-1490
▁শু	-1491
▁আহ	-1492
▁শিল্প	-1493
▁মৃত্য	-1494
ese	-1495
▁নয়	-1496
▁পাশ	-1497
iversity	-1498
▁বো	-1499
▁pop	-1500
ভাগ	-1501
ম্প	-1502
▁ফলে	-1503
▁sec	-1504
▁name	-1505
ier	-1506
▁এখন	-1507
▁February	-1508
▁movie	-1509
▁Joh	-1510
চিত	-1511
iver	-1512
াজার	-1513
▁des	-1514
▁Aust	-1515
||2	-1516
igh	-1517
কি	-1518
▁শব	-1519
ভুক্ত	-1520
▁again	-1521
েড	-1522
fore	-1523
▁what	-1524
▁শ্রে	-1525
▁Pro	-1526
▁ঘো	-1527
▁উপজেল	-1528
▁fam	-1529
▁বিষয়	-1530
able	-1531
আই	-1532
▁There	-1533
▁খ্রিস্ট	-1534
▁পান	-1535
ক্ষা	-1536
েরা	-1537
▁জার	-1538
▁কর্ত	-1539
▁এখানে	-1540
▁“	-1541
▁দায়িত্ব	-1542
েত্রে	-1543
▁পু	-1544
ely	-1545
▁Br	-1546
ওয়ে	-1547
eth	-1548
নৈতিক	-1549
ফল	-1550
anc	-1551
টের	-1552
▁উন্ন	-1553
▁দেব	-1554
▁সংস্ক	-1555
প্ত	-1556
গর	-1557
▁পাওযা়	-1558
▁যেমন	-1559
▁became	-1560
ভি	-1561
েন্স	-1562
▁ব্ল	-1563
ক্ট	-1564
other	-1565
▁মহিল	-1566
▁গ্রহণ	-1567
imes	-1568
▁att	-1569
▁সম্ম	-1570
ার্থ	-1571
▁বর্ণ	-1572
▁সূ	-1573
▁Brit	-1574
ঁচ	-1575
uss	-1576
▁অ্যা	-1577
ween	-1578
ত্ত্ব	-1579
েই	-1580
▁World	-1581
atch	-1582
▁ear	-1583
aj	-1584
inn	-1585
▁cent	-1586
ason	-1587
▁১০	-1588
র্ঘ	-1589
সভা	-1590
▁liv	-1591
mp	-1592
ution	-1593
▁বন্ধ	-1594
▁dif	-1595
▁then	-1596
▁mon	-1597
ুযা়রি	-1598
0,	-1599
▁অভিনয়	-1600
োজন	-1601
ুজ	-1602
inist	-1603
পূর্ণ	-1604
্লে	-1605
▁প্রা	-1606
▁elect	-1607
চ্ছ	-1608
▁৯	-1609
▁তখন	-1610
▁আইন	-1611
att	-1612
▁because	-1613
ve	-1614
▁খেলোযা়	-1615
▁১৯৪	-1616
্রিক	-1617
ather	-1618
▁team	-1619
ূহ	-1620
াকার	-1621
ert	-1622
▁একই	-1623
▁ভাল	-1624
▁ছোট	-1625
ower	-1626
▁col	-1627
▁এটা	-1628
air	-1629
▁no	-1630
▁মুসল	-1631
▁হিন্দ	-1632
টিশ	-1633
▁বলা	-1634
স্ট্র	-1635
াম্ম	-1636
▁where	-1637
▁start	-1638
iet	-1639
মিক	-1640
lev	-1641
▁বাস	-1642
▁সির	-1643
▁bel	-1644
red	-1645
▁1999	-1646
▁কার্য	-1647
টিতে	-1648
নাম	-1649
iev	-1650
▁গো	-1651
▁মনে	-1652
▁am	-1653
▁man	-1654
▁number	-1655
▁sy	-1656
▁John	-1657
▁Cl	-1658
▁und	-1659
▁()	-1660
▁bu	-1661
▁গা	-1662
▁dist	-1663
▁পুরুষ	-1664
▁popul	-1665
rib	-1666
▁202	-1667
2,	-1668
▁খেলোযা়ড়	-1669
ুদ্ধে	-1670
▁ক্ষেত্রে	-1671
▁সম্পর্ক	-1672
▁At	-1673
▁প্রদান	-1674
ex	-1675
সর	-1676
ায়ের	-1677
oth	-1678
▁stud	-1679
▁দূ	-1680
েস্ট	-1681
▁ক্রিকেট	-1682
স্ব	-1683
▁লক্ষ	-1684
▁দেন	-1685
form	-1686
ন্দির	-1687
way	-1688
▁গবে	-1689
তির	-1690
▁qu	-1691
enn	-1692
▁পালন	-1693
▁পরিবার	-1694
ism	-1695
▁বিদ্যালয়	-1696
cess	-1697
ague	-1698
▁July	-1699
▁Count	-1700
েলে	-1701
▁তারি	-1702
▁may	-1703
▁between	-1704
▁ব্যক্তি	-1705
▁স্থাপ	-1706
ণের	-1707
▁মিশ	-1708
রী	-1709
▁১৫	-1710
▁For	-1711
▁did	-1712
ered	-1713
▁কন	-1714
▁Car	-1715
▁ধারণ	-1716
▁নির	-1717
▁pre	-1718
াখ	-1719
ন্থ	-1720
apan	-1721
োড	-1722
ins	-1723
র্বে	-1724
▁Bl	-1725
যোগ্য	-1726
ৃষ্টি	-1727
5,	-1728
তেন	-1729
▁get	-1730
▁আরও	-1731
▁ডিস	-1732
ink	-1733
▁সম্প্র	-1734
▁ঠ	-1735
▁rele	-1736
▁কর্তৃ	-1737
▁প্রয়	-1738
▁যিনি	-1739
▁পৌ	-1740
▁direct	-1741
▁মোট	-1742
ai	-1743
▁said	-1744
মাত্র	-1745
▁তুমি	-1746
▁prod	-1747
".	-1748
▁কমি	-1749
চেয়ে	-1750
6,	-1751
ious	-1752
▁নামক	-1753
▁University	-1754
ংরে	-1755
ouse	-1756
▁আগে	-1757
▁কলেজ	-1758
▁dep	-1759
▁সম্ভ	-1760
্রম	-1761
▁lar	-1762
▁192	-1763
গ্রহ	-1764
ুস	-1765
▁হলে	-1766
▁প্রদ	-1767
eak	-1768
▁Gr	-1769
ীরা	-1770
",	-1771
থমিক	-1772
▁;	-1773
pen	-1774
▁এম	-1775
▁ind	-1776
10	-1777
▁আক	-1778
ury	-1779
▁any	-1780
iam	-1781
▁দুটি	-1782
ন্য	-1783
▁br	-1784
ংস	-1785
▁ঝ	-1786
▁সবচেয়ে	-1787
ley	-1788
7,	-1789
০০০	-1790
ement	-1791
▁&	-1792
নায়	-1793
▁played	-1794
াদা	-1795
▁আশ	-1796
▁13	-1797
▁প্রাথমিক	-1798
▁পাঠ	-1799
9,	-1800
▁১৭	-1801
▁Japan	-1802
▁form	-1803
▁3.	-1804
পি	-1805
▁মস	-1806
▁football	-1807
▁song	-1808
▁পরিষ	-1809
▁His	-1810
্যাম্প	-1811
▁শব্দ	-1812
▁cre	-1813
ists	-1814
▁স্বাধীন	-1815
▁show	-1816
▁14	-1817
ise	-1818
▁সঙ্গে	-1819
▁very	-1820
chool	-1821
▁সংস	-1822
▁গোল	-1823
▁জেলা	-1824
▁Can	-1825
জার	-1826
▁rel	-1827
▁মাদ	-1828
▁সংখ্যা	-1829
▁thr	-1830
ublic	-1831
8,	-1832
▁ধরনের	-1833
▁বিশ্ববিদ্যালয়	-1834
▁King	-1835
▁গুরুত্ব	-1836
▁রান	-1837
লিক	-1838
▁differ	-1839
▁world	-1840
োভ	-1841
▁Ph	-1842
▁Col	-1843
ন্দ্র	-1844
▁রূপ	-1845
▁group	-1846
▁বিরুদ্ধে	-1847
▁ফ্র	-1848
▁ব্রিটিশ	-1849
▁অভিনে	-1850
াবাহ	-1851
▁অন্যতম	-1852
ities	-1853
▁যুক্তরা	-1854
||3	-1855
▁খুব	-1856
▁হলো	-1857
urr	-1858
▁প্রতিষ্ঠিত	-1859
▁মুক্তি	-1860
rap	-1861
▁my	-1862
ষ্ণ	-1863
▁June	-1864
িফ	-1865
iel	-1866
▁সী	-1867
uk	-1868
▁How	-1869
▁if	-1870
▁such	-1871
▁2002	-1872
▁কু	-1873
ph	-1874
▁ফিল	-1875
▁Austr	-1876
্ধ	-1877
▁যান	-1878
র্শন	-1879
▁‘	-1880
▁ever	-1881
▁under	-1882
ঠে	-1883
resent	-1884
▁মন্দির	-1885
▁(200	-1886
▁end	-1887
দে	-1888
▁during	-1889
পাত	-1890
পার	-1891
▁sup	-1892
ুমার	-1893
▁কৃ	-1894
▁France	-1895
▁Be	-1896
▁ইতিহাস	-1897
▁fe	-1898
▁Pal	-1899
▁অংশগ্রহণ	-1900
ালি	-1901
ালী	-1902
▁politician	-1903
▁জল	-1904
▁ফুটবল	-1905
▁War	-1906
▁উৎপ	-1907
হৃত	-1908
▁sm	-1909
▁আমের	-1910
▁ভিত্ত	-1911
▁অর্জন	-1912
000	-1913
til	-1914
1)	-1915
নীতি	-1916
▁হওযা়র	-1917
াড	-1918
▁make	-1919
▁আত	-1920
erman	-1921
ন্দর	-1922
▁টেস্ট	-1923
▁বর্তমানে	-1924
▁back	-1925
র্কে	-1926
▁dec	-1927
দ্ব	-1928
্রিযা়	-1929
oman	-1930
▁শাস	-1931
িভ	-1932
▁অস্ট্র	-1933
▁Con	-1934
▁ইউর	-1935
ality	-1936
▁ঘটে	-1937
▁জনসং	-1938
▁বিমান	-1939
▁বাই	-1940
▁যৌ	-1941
▁gu	-1942
▁Ad	-1943
emb	-1944
bum	-1945
বর	-1946
2)	-1947
▁প্রভাব	-1948
overnment	-1949
▁player	-1950
▁বিল	-1951
▁long	-1952
ient	-1953
▁spec	-1954
▁Par	-1955
▁অঞ্চল	-1956
▁$	-1957
▁Sw	-1958
▁গান	-1959
▁জু	-1960
ালে	-1961
োদ	-1962
▁ব্যবহৃত	-1963
str	-1964
▁বু	-1965
ech	-1966
▁মসজি	-1967
ative	-1968
▁প্রচ	-1969
▁সংগ	-1970
য়নের	-1971
▁১২	-1972
▁প্রাচ	-1973
inal	-1974
ually	-1975
ুণ	-1976
▁British	-1977
yp	-1978
▁ধরে	-1979
▁তুল	-1980
▁three	-1981
ought	-1982
▁Ed	-1983
▁১৯৩	-1984
▁সময়ে	-1985
▁চিত্র	-1986
ন্ত্রণ	-1987
র্জ	-1988
▁won	-1989
▁County	-1990
ros	-1991
সার	-1992
els	-1993
rict	-1994
▁co	-1995
ean	-1996
▁এসে	-1997
▁তথ	-1998
ica	-1999
িট	-2000
াইড	-2001
্রাস	-2002
▁হাস	-2003
▁বিজ	-2004
▁আমরা	-2005
এম	-2006
তু	-2007
▁বই	-2008
ম্যান	-2009
oss	-2010
▁প্রাক	-2011
▁অনুষ্ঠিত	-2012
টিকে	-2013
লার	-2014
▁নির্মাণ	-2015
der	-2016
▁dr	-2017
াযা়	-2018
ank	-2019
▁[	-2020
▁know	-2021
▁বর	-2022
▁rem	-2023
▁মাঝ	-2024
ures	-2025
4)	-2026
▁right	-2027
0.	-2028
ূলক	-2029
▁তাই	-2030
▁চলে	-2031
▁art	-2032
▁en	-2033
▁Allah	-2034
▁১৬	-2035
ন্ত্রী	-2036
▁পৃথ	-2037
াও	-2038
▁বিধান	-2039
▁second	-2040
▁ছে	-2041
▁প্রস্ত	-2042
col	-2043
ful	-2044
▁state	-2045
▁ইংরে	-2046
▁এস	-2047
▁before	-2048
ংক	-2049
ital	-2050
শীল	-2051
▁Ge	-2052
icial	-2053
▁প্রতিযোগ	-2054
শ্ব	-2055
ন্স	-2056
ished	-2057
ব্য	-2058
7)	-2059
▁জন্মগ্রহণ	-2060
5)	-2061
▁বাব	-2062
▁অন্তর্ভুক্ত	-2063
▁serv	-2064
ax	-2065
▁শে	-2066
▁ভাই	-2067
▁how	-2068
3)	-2069
▁আমাদের	-2070
rans	-2071
র্ধ	-2072
my	-2073
▁আন্দ	-2074
▁পো	-2075
▁ছবি	-2076
▁Or	-2077
1.	-2078
▁those	-2079
▁আজ	-2080
▁প্রকাশিত	-2081
erv	-2082
▁তারিখে	-2083
প্ট	-2084
কালে	-2085
ants	-2086
াগুল	-2087
যায়ী	-2088
▁বিশ্ববিদ্যাল	-2089
▁নদী	-2090
▁মার্চ	-2091
শ্য	-2092
▁str	-2093
▁ক্লাব	-2094
ove	-2095
▁until	-2096
▁নিজে	-2097
▁যদিও	-2098
▁through	-2099
▁উপস্থ	-2100
▁এন	-2101
ূর্ণ	-2102
icip	-2103
▁জুল	-2104
2.	-2105
▁মুহ	-2106
▁সেখানে	-2107
rist	-2108
▁কোনো	-2109
amed	-2110
ject	-2111
▁বৃহ	-2112
uth	-2113
▁সাক্ষ	-2114
মার	-2115
▁জীবন	-2116
▁সাধারণত	-2117
▁খান	-2118
▁different	-2119
ird	-2120
▁2020	-2121
ual	-2122
▁Ab	-2123
▁album	-2124
aint	-2125
alian	-2126
6)	-2127
▁শতাব্দ	-2128
▁ফির	-2129
▁ph	-2130
▁সম্পর্কে	-2131
artment	-2132
▁এছাডা়ও	-2133
ান্স	-2134
▁রাজ্যের	-2135
▁child	-2136
▁Tr	-2137
▁টেল	-2138
au	-2139
▁সাং	-2140
ional	-2141
angu	-2142
▁lead	-2143
▁South	-2144
▁National	-2145
▁স্কুল	-2146
ott	-2147
▁11	-2148
▁পায়	-2149
▁kill	-2150
ট্র	-2151
▁জয়	-2152
ried	-2153
hem	-2154
▁যারা	-2155
ollow	-2156
▁নাট	-2157
▁series	-2158
▁hel	-2159
▁cap	-2160
▁mar	-2161
▁char	-2162
▁released	-2163
গ্রাম	-2164
িহ	-2165
omen	-2166
ung	-2167
▁ফর	-2168
▁Rep	-2169
▁League	-2170
||0||0	-2171
▁বিন	-2172
ull	-2173
ট্ট	-2174
▁ডে	-2175
দ্র	-2176
▁২০২	-2177
▁Pl	-2178
▁med	-2179
rench	-2180
▁আধ	-2181
রাজ	-2182
পূর্ব	-2183
কালীন	-2184
▁against	-2185
▁York	-2186
▁ret	-2187
▁পড়ে	-2188
▁অনুযায়ী	-2189
stem	-2190
াড়	-2191
▁car	-2192
ble	-2193
▁শিক্ষা	-2194
আর	-2195
▁Eu	-2196
▁ব্যাপ	-2197
▁ইন্ড	-2198
urg	-2199
▁শিশ	-2200
▁use	-2201
ium	-2202
rowspan	-2203
▁অস্ট্রেল	-2204
েজ	-2205
its	-2206
▁prov	-2207
▁নারী	-2208
১৮	-2209
elf	-2210
▁দ্র	-2211
▁সরকারি	-2212
এন	-2213
কো	-2214
akes	-2215
▁কাউ	-2216
▁being	-2217
ুখ	-2218
▁হিন্দু	-2219
▁person	-2220
মিটার	-2221
ines	-2222
াব্দে	-2223
▁অনুসারে	-2224
▁যেতে	-2225
▁মুসলিম	-2226
3.	-2227
▁Se	-2228
▁১৪	-2229
▁El	-2230
কর	-2231
িৎ	-2232
▁মাত্র	-2233
ages	-2234
▁Mus	-2235
মের	-2236
▁same	-2237
▁শহরের	-2238
প্রিয়	-2239
▁ধার	-2240
5.	-2241
▁মূলত	-2242
let	-2243
▁later	-2244
▁4.	-2245
▁(20	-2246
▁গিয়ে	-2247
▁well	-2248
ating	-2249
8)	-2250
▁উভ	-2251
▁inv	-2252
▁God	-2253
ett	-2254
▁আত্ম	-2255
▁মো	-2256
▁একটা	-2257
ষ্ক	-2258
▁স্ম	-2259
▁cons	-2260
বী	-2261
▁sub	-2262
▁নেত	-2263
▁রাজ্য	-2264
িকভাবে	-2265
▁১৩	-2266
▁President	-2267
লী	-2268
ায	-2269
▁ভাষা	-2270
▁১১	-2271
9)	-2272
▁ed	-2273
্যান্ডের	-2274
▁গুরুত্বপূর্ণ	-2275
াসের	-2276
="2	-2277
▁নেই	-2278
iew	-2279
ek	-2280
▁French	-2281
4.	-2282
▁কর্তৃক	-2283
▁নির্বাচিত	-2284
▁নিক	-2285
▁loc	-2286
▁প্রজাত	-2287
▁সাহিত	-2288
ox	-2289
বন্ধ	-2290
গান	-2291
▁own	-2292
ান্তর	-2293
▁নভ	-2294
▁স্থানীয়	-2295
▁সিন	-2296
▁তথ্য	-2297
▁La	-2298
▁অবস্থান	-2299
7.	-2300
ষ্টা	-2301
▁German	-2302
▁কখন	-2303
▁ইউরোপ	-2304
▁dev	-2305
▁এশ	-2306
▁২০১১	-2307
ains	-2308
="2"|	-2309
▁cr	-2310
শেষ	-2311
সমূহ	-2312
▁নাগ	-2313
▁old	-2314
▁পেয়ে	-2315
্লাহ	-2316
টন	-2317
াম্মদ	-2318
▁অক্ট	-2319
▁শুধ	-2320
ilm	-2321
hern	-2322
▁আক্রম	-2323
▁মাসে	-2324
ets	-2325
▁four	-2326
▁day	-2327
▁age	-2328
ামী	-2329
ুঁ	-2330
▁বিপক্ষে	-2331
াশি	-2332
িকান	-2333
▁দী	-2334
▁জনপ্রিয়	-2335
▁After	-2336
ায়ক	-2337
▁প্রাচীন	-2338
▁De	-2339
ives	-2340
▁town	-2341
▁government	-2342
▁Fl	-2343
াবাদ	-2344
▁these	-2345
▁now	-2346
▁ইংল	-2347
▁book	-2348
▁main	-2349
▁actor	-2350
তের	-2351
▁স্টেশন	-2352
ret	-2353
ternational	-2354
▁help	-2355
sh	-2356
6.	-2357
▁বাংলা	-2358
▁could	-2359
▁অথ	-2360
গের	-2361
▁Canad	-2362
▁গঠিত	-2363
▁কলক	-2364
▁follow	-2365
levision	-2366
▁যুক্তরাষ্ট্র	-2367
ন্ট	-2368
▁each	-2369
com	-2370
▁Gu	-2371
▁Russ	-2372
▁রহ	-2373
▁II	-2374
▁মহিলা	-2375
তন	-2376
ড়িয়ে	-2377
▁West	-2378
েব্র	-2379
▁চরিত্রে	-2380
প্রিল	-2381
ries	-2382
▁বছরের	-2383
▁def	-2384
▁পদ্ধ	-2385
▁area	-2386
▁অক্টোব	-2387
গণ	-2388
ounc	-2389
▁music	-2390
▁small	-2391
▁Am	-2392
▁ক্ষম	-2393
▁Af	-2394
গঞ্জ	-2395
▁আন্দোল	-2396
সন	-2397
▁(199	-2398
▁ঘোষণা	-2399
টিং	-2400
▁member	-2401
ত্রী	-2402
ograp	-2403
▁শাহ	-2404
খ্যাত	-2405
cc	-2406
▁?	-2407
▁rep	-2408
xt	-2409
ভূত	-2410
▁পরী	-2411
ামা	-2412
uck	-2413
gy	-2414
▁হওযা়	-2415
▁রাজনৈতিক	-2416
istory	-2417
▁Europ	-2418
alk	-2419
ুদ্র	-2420
▁সুর	-2421
▁inter	-2422
8.	-2423
▁Will	-2424
▁মুখ	-2425
▁bro	-2426
▁North	-2427
▁সফ	-2428
▁সমাজ	-2429
▁every	-2430
▁এপ্রিল	-2431
▁তালিকা	-2432
হত	-2433
ourn	-2434
▁প্রদেশ	-2435
▁প্ল	-2436
াবি	-2437
▁পূর্বে	-2438
▁পুনর	-2439
arn	-2440
টিক	-2441
▁ইর	-2442
▁বৃদ্ধ	-2443
▁need	-2444
▁সেপ্ট	-2445
২০০	-2446
েনের	-2447
▁Comm	-2448
িসি	-2449
▁অল	-2450
▁ছাডা়	-2451
▁ভূম	-2452
ইন	-2453
▁মর	-2454
olution	-2455
▁সকল	-2456
▁ফেব্র	-2457
▁#	-2458
▁But	-2459
ats	-2460
▁Pol	-2461
▁আলো	-2462
্যাট	-2463
▁জুলাই	-2464
বন	-2465
▁just	-2466
▁বিজ্ঞান	-2467
▁When	-2468
্‌	-2469
বেন	-2470
af	-2471
aug	-2472
▁দেশের	-2473
▁উপজেলার	-2474
▁অ্যাল	-2475
▁down	-2476
গুলোর	-2477
▁national	-2478
পতি	-2479
▁City	-2480
কেট	-2481
▁আবার	-2482
শিষ্ট	-2483
ৃত্ব	-2484
▁সঙ্গীত	-2485
▁met	-2486
17	-2487
▁এরপর	-2488
▁সৈ	-2489
▁ent	-2490
▁কয়েকটি	-2491
▁Her	-2492
িনিধ	-2493
ck	-2494
▁গ্রে	-2495
ালা	-2496
gest	-2497
▁স্ন	-2498
▁জার্ম	-2499
▁মসজিদ	-2500
▁কোম্প	-2501
▁সমর্থ	-2502
▁আগস্ট	-2503
▁1,	-2504
▁Man	-2505
িনীর	-2506
▁place	-2507
▁ভাগ	-2508
9.	-2509
ীনে	-2510
▁জুন	-2511
শে	-2512
▁বিস্ত	-2513
▁সংস্থা	-2514
▁নিম	-2515
গার	-2516
ology	-2517
get	-2518
▁খ্রি	-2519
▁কেন	-2520
▁ass	-2521
▁Christ	-2522
▁Har	-2523
▁|200	-2524
▁রাম	-2525
াধিক	-2526
▁ছাত্র	-2527
ator	-2528
▁অ্যান্ড	-2529
▁১৯২	-2530
unicip	-2531
▁পুল	-2532
▁langu	-2533
▁started	-2534
▁শ্রেণ	-2535
▁par	-2536
ালের	-2537
▁পেশ	-2538
▁লাই	-2539
▁গেছে	-2540
ody	-2541
▁former	-2542
ange	-2543
▁দ্বীপ	-2544
াঙ্গ	-2545
োনা	-2546
▁good	-2547
15	-2548
▁family	-2549
ায়ী	-2550
▁!	-2551
▁mod	-2552
▁Cent	-2553
▁country	-2554
▁If	-2555
কদের	-2556
▁say	-2557
িনা	-2558
▁তোমার	-2559
▁বিষয়ে	-2560
▁চৌ	-2561
▁air	-2562
বেদ	-2563
▁পাঁচ	-2564
ger	-2565
▁পরিচালনা	-2566
▁প্রতিনিধ	-2567
োচ্চ	-2568
▁ঢাকা	-2569
day	-2570
stit	-2571
▁ডিসেম্বর	-2572
▁সমস্ত	-2573
▁water	-2574
elop	-2575
▁চিক	-2576
▁তর	-2577
▁since	-2578
▁ব্যক্ত	-2579
▁জেন	-2580
▁গ্রন্থ	-2581
ata	-2582
াদার	-2583
ৃহ	-2584
▁অঞ্চলে	-2585
িলো	-2586
▁চেয়ে	-2587
ces	-2588
omet	-2589
reen	-2590
▁সাহায	-2591
াৎ	-2592
The	-2593
199	-2594
▁Qu	-2595
ক্ষম	-2596
▁প্রয়োজন	-2597
▁believ	-2598
▁best	-2599
▁does	-2600
দিকে	-2601
▁পরিচালিত	-2602
▁যুগ	-2603
ific	-2604
oint	-2605
র্ন	-2606
||||	-2607
amb	-2608
▁ভাষায়	-2609
12	-2610
২০১	-2611
▁পরিবর্তন	-2612
জন্ম	-2613
▁law	-2614
▁বিশ্বাস	-2615
▁সিং	-2616
▁So	-2617
arm	-2618
▁often	-2619
▁life	-2620
ral	-2621
OS	-2622
▁near	-2623
▁অধিকার	-2624
ony	-2625
ৃতিক	-2626
িল্ল	-2627
▁singer	-2628
▁অথবা	-2629
গা	-2630
্রী	-2631
্রাজ	-2632
▁দেযা়	-2633
▁record	-2634
জা	-2635
▁উৎস	-2636
▁X	-2637
▁game	-2638
▁television	-2639
সহ	-2640
▁Part	-2641
▁En	-2642
ural	-2643
fess	-2644
িপি	-2645
▁পক্ষে	-2646
▁around	-2647
▁তৃত	-2648
▁তিনটি	-2649
▁system	-2650
ধার	-2651
▁বিবে	-2652
ield	-2653
▁Geor	-2654
াদি	-2655
▁নিজ	-2656
16	-2657
▁want	-2658
ene	-2659
ae	-2660
াকায়	-2661
▁ব্যবস্থা	-2662
াত্ম	-2663
aly	-2664
▁trans	-2665
inister	-2666
▁সম্পাদ	-2667
▁কাছ	-2668
▁দীর্ঘ	-2669
িয়	-2670
▁শক্ত	-2671
▁মোহ	-2672
াপাশি	-2673
▁named	-2674
▁তো	-2675
▁sign	-2676
াজিক	-2677
▁death	-2678
▁হাম	-2679
ৌশ	-2680
illion	-2681
▁way	-2682
▁বিধানসভা	-2683
▁খেলায়	-2684
▁সম্ভব	-2685
▁department	-2686
▁পাশাপাশি	-2687
এফ	-2688
ায়ন	-2689
▁রাজা	-2690
aking	-2691
ald	-2692
▁উল্লেখযোগ্য	-2693
▁পডা়	-2694
োর্ট	-2695
▁আরব	-2696
ালো	-2697
খান	-2698
▁সৌ	-2699
onom	-2700
▁নিজের	-2701
▁sl	-2702
▁land	-2703
▁পার্	-2704
▁নির্মিত	-2705
▁জাপ	-2706
▁hum	-2707
▁region	-2708
ham	-2709
ুনিক	-2710
▁মানব	-2711
▁সর্বোচ্চ	-2712
ুলে	-2713
▁min	-2714
▁ঐতিহ	-2715
▁last	-2716
ison	-2717
▁প্রবেশ	-2718
▁আর্	-2719
ron	-2720
▁সভ	-2721
▁প্রাণ	-2722
▁সংসদ	-2723
ampions	-2724
▁অধ্য	-2725
▁উৎপাদ	-2726
▁তৃতীয়	-2727
dom	-2728
app	-2729
▁acc	-2730
▁both	-2731
বহ	-2732
▁em	-2733
▁অক্টোবর	-2734
▁মারা	-2735
▁Bar	-2736
▁আক্রমণ	-2737
0)	-2738
▁Some	-2739
▁produc	-2740
▁word	-2741
▁পরবর্তীতে	-2742
ধর্ম	-2743
▁mil	-2744
্ডার	-2745
▁কাপ	-2746
▁ইন্টার	-2747
▁বাদ	-2748
ature	-2749
তো	-2750
▁band	-2751
োগ্র	-2752
eneral	-2753
▁প্রশাস	-2754
দা	-2755
উট	-2756
ular	-2757
▁আবি	-2758
▁while	-2759
14	-2760
িযা়য়	-2761
▁চ্যাম্প	-2762
▁সেন্ট	-2763
িকল্প	-2764
▁নব	-2765
▁ইব	-2766
ty	-2767
মিত	-2768
ara	-2769
▁জনসংখ্যা	-2770
▁নির্দেশ	-2771
▁জাহ	-2772
▁খ্রিষ্ট	-2773
োপা	-2774
▁Award	-2775
জীব	-2776
▁ইউনিয়নের	-2777
ুশ	-2778
তী	-2779
led	-2780
▁পরিস	-2781
তায়	-2782
alif	-2783
▁/	-2784
সূ	-2785
্যু	-2786
▁ob	-2787
ুরি	-2788
িতার	-2789
▁শির	-2790
▁সিরিজ	-2791
▁সৃষ্টি	-2792
▁২০১৮	-2793
ute	-2794
▁কব	-2795
▁শী	-2796
▁সিদ্ধ	-2797
▁much	-2798
▁run	-2799
▁নভেম্বর	-2800
▁উদ্দেশ	-2801
ze	-2802
▁prot	-2803
▁Lord	-2804
সাম	-2805
▁1998	-2806
▁ফিরে	-2807
করণ	-2808
িশন	-2809
▁Sy	-2810
▁US	-2811
▁po	-2812
▁করবে	-2813
▁করতেন	-2814
fl	-2815
▁add	-2816
▁সেরা	-2817
্সি	-2818
ille	-2819
ধা	-2820
িযা়ল	-2821
▁পর্ব	-2822
▁inc	-2823
▁রো	-2824
ible	-2825
েও	-2826
নাথ	-2827
na	-2828
▁বেশির	-2829
by	-2830
13	-2831
ফা	-2832
▁রোগ	-2833
এই	-2834
▁হলেন	-2835
▁My	-2836
▁see	-2837
▁রাজনীতি	-2838
▁school	-2839
স্প	-2840
▁কী	-2841
▁অধীনে	-2842
▁মাই	-2843
▁দিক	-2844
▁web	-2845
▁No	-2846
▁সেপ্টেম্বর	-2847
ments	-2848
."	-2849
rest	-2850
▁পুলিশ	-2851
▁চিকিৎ	-2852
▁5.	-2853
▁বের	-2854
▁actress	-2855
gr	-2856
▁উভয়	-2857
▁২০১৪	-2858
েক্স	-2859
co	-2860
শা	-2861
▁Char	-2862
▁Indian	-2863
াতি	-2864
িলোমিটার	-2865
▁north	-2866
▁বেল	-2867
omar	-2868
ross	-2869
▁গড়ে	-2870
▁পাকিস্তান	-2871
▁অফিস	-2872
▁জাম	-2873
▁সরকারের	-2874
▁ফার	-2875
▁typ	-2876
চের	-2877
▁including	-2878
▁চলচ্চিত্রে	-2879
▁অনুম	-2880
cept	-2881
▁বাণ	-2882
▁নেতৃত্ব	-2883
▁সন্ত	-2884
everal	-2885
্যাশন	-2886
▁created	-2887
▁ফেব্রুযা়রি	-2888
পথ	-2889
ৃত্ত	-2890
▁অঞ্চলের	-2891
▁high	-2892
▁এলাকা	-2893
▁গঠন	-2894
▁রেখে	-2895
গুলিতে	-2896
▁অ্যান	-2897
che	-2898
ana	-2899
▁exp	-2900
▁অভিষ	-2901
▁এতে	-2902
▁চুক্ত	-2903
▁হাই	-2904
▁পরিকল্প	-2905
▁এক্স	-2906
▁আরো	-2907
▁বাক	-2908
বান	-2909
iven	-2910
ক্রান্ত	-2911
▁appear	-2912
▁Palomar	-2913
▁গুল	-2914
▁sk	-2915
▁Me	-2916
▁orig	-2917
▁কাম	-2918
াসী	-2919
▁আধুনিক	-2920
riend	-2921
▁নদ	-2922
▁ডিগ্র	-2923
▁একে	-2924
▁বিভাগের	-2925
▁পারেন	-2926
▁সংগঠ	-2927
াতার	-2928
▁বোল	-2929
াওযা়	-2930
ode	-2931
▁ঠিক	-2932
▁Te	-2933
্যাগ	-2934
▁দৈ	-2935
▁চ্যাম্পিয়ন	-2936
▁বোঝ	-2937
ীতি	-2938
▁children	-2939
▁মের	-2940
▁sim	-2941
▁population	-2942
▁২৫	-2943
▁মানুষের	-2944
রাধ	-2945
▁নেন	-2946
▁আসে	-2947
▁২০১৩	-2948
কম	-2949
▁বস	-2950
▁করছে	-2951
▁পরিণ	-2952
▁আট	-2953
▁প্রতিষ্ঠান	-2954
▁Em	-2955
▁ঘটনা	-2956
aught	-2957
▁import	-2958
▁কোনও	-2959
▁সাই	-2960
▁খেলার	-2961
▁বান	-2962
▁বলেন	-2963
▁disc	-2964
ষ্ঠান	-2965
int	-2966
▁বাল	-2967
▁রেলওয়ে	-2968
ues	-2969
্দের	-2970
▁ইত্য	-2971
▁ম্যান	-2972
▁২০১২	-2973
▁২০১৯	-2974
ino	-2975
▁Peak	-2976
▁est	-2977
াটি	-2978
স্ত্র	-2979
▁Kitt	-2980
50	-2981
▁শিশু	-2982
▁জার্মান	-2983
▁বৃহত্ত	-2984
▁organ	-2985
▁left	-2986
কটি	-2987
াস্থ	-2988
▁ফেল	-2989
▁গভ	-2990
ones	-2991
দার্থ	-2992
▁take	-2993
্যাব	-2994
▁টেলিভ	-2995
▁পৃথিব	-2996
cer	-2997
িগ	-2998
side	-2999
▁One	-3000
▁even	-3001
▁bas	-3002
▁কাঠ	-3003
▁head	-3004
ষি	-3005
াত্ত	-3006
▁জানুযা়রি	-3007
▁>	-3008
aul	-3009
ience	-3010
▁তুলে	-3011
rem	-3012
ling	-3013
▁পরিচালক	-3014
▁Germ	-3015
▁India	-3016
ondon	-3017
দিষ্ট	-3018
▁2,	-3019
▁...	-3020
▁These	-3021
alia	-3022
▁দিতে	-3023
▁সামাজিক	-3024
ows	-3025
ajor	-3026
oon	-3027
▁২০১০	-3028
▁Spac	-3029
ices	-3030
▁৩০	-3031
▁সম্প্রদ	-3032
lands	-3033
▁বংশ	-3034
▁Ex	-3035
▁সংর	-3036
▁190	-3037
▁প্রচার	-3038
▁ফল	-3039
ীরে	-3040
▁দার	-3041
▁বর্ণনা	-3042
ness	-3043
▁সংবাদ	-3044
▁ইয়	-3045
▁বেশিরভাগ	-3046
▁বৌ	-3047
▁ব্যবস্থ	-3048
ler	-3049
ুরী	-3050
▁চট্ট	-3051
▁২০১৫	-3052
▁পরিবেশ	-3053
▁বন্দ	-3054
মন্ত্রী	-3055
সী	-3056
uction	-3057
বঙ্গ	-3058
▁Ass	-3059
▁সাক্ষর	-3060
▁বিশ্বের	-3061
ুপ্ত	-3062
▁bus	-3063
▁England	-3064
▁soc	-3065
▁২০১৬	-3066
এল	-3067
▁বিভাগে	-3068
▁municip	-3069
▁চালু	-3070
ived	-3071
▁River	-3072
▁home	-3073
▁attack	-3074
রূপ	-3075
িহ্ন	-3076
েক্ষ	-3077
ala	-3078
▁মিটার	-3079
▁মতে	-3080
▁বাজ	-3081
▁ইযা়	-3082
ংগ	-3083
urch	-3084
স্থান	-3085
▁Germany	-3086
▁power	-3087
▁সংগ্রহ	-3088
▁Spacew	-3089
▁সাম্রাজ	-3090
বিজ্ঞান	-3091
▁Spacewatch	-3092
idd	-3093
▁পুত্র	-3094
▁2003	-3095
▁live	-3096
▁anim	-3097
▁সামরিক	-3098
gram	-3099
▁commun	-3100
ke	-3101
eter	-3102
▁commune	-3103
▁লেখক	-3104
ales	-3105
▁শ্রেষ্ঠ	-3106
▁got	-3107
▁টু	-3108
▁আপনি	-3109
ster	-3110
▁build	-3111
▁অভিষেক	-3112
the	-3113
▁একাড	-3114
▁William	-3115
▁আনু	-3116
▁জায়	-3117
▁গবেষণা	-3118
cent	-3119
▁Mc	-3120
তর	-3121
ady	-3122
de	-3123
▁বয়সে	-3124
▁ক্রিকেটে	-3125
▁examp	-3126
ানোর	-3127
istan	-3128
▁ফ্ল	-3129
▁season	-3130
▁still	-3131
rown	-3132
▁গল্প	-3133
oard	-3134
▁London	-3135
িতি	-3136
▁পত্র	-3137
▁লী	-3138
yn	-3139
▁বাড়	-3140
site	-3141
শ্রে	-3142
▁caus	-3143
▁প্রতিষ্ঠা	-3144
▁সাহিত্য	-3145
▁মনোন	-3146
▁সিল	-3147
▁জো	-3148
▁যাতে	-3149
▁should	-3150
ideo	-3151
▁develop	-3152
াস্ট	-3153
াতের	-3154
চিত্র	-3155
que	-3156
▁বাণিজ	-3157
স্টি	-3158
▁কিলোমিটার	-3159
ama	-3160
▁ডান	-3161
▁ঐতিহ্য	-3162
lex	-3163
▁রাজধান	-3164
▁several	-3165
ন্যাস	-3166
▁int	-3167
▁রেক	-3168
▁তাহ	-3169
▁সম্পূর্ণ	-3170
▁মাদ্রাস	-3171
▁ঈ	-3172
EAT	-3173
টেড	-3174
▁sur	-3175
▁বিখ্যাত	-3176
ided	-3177
▁Air	-3178
▁কর্মক	-3179
▁কম্প	-3180
▁ভূমিকা	-3181
▁আলী	-3182
▁তত্ত্ব	-3183
▁এদের	-3184
▁বৌদ্ধ	-3185
iation	-3186
ুটি	-3187
▁care	-3188
▁২০১৭	-3189
▁নিম্ন	-3190
▁official	-3191
▁পদার্থ	-3192
ডেল	-3193
ole	-3194
▁বিচার	-3195
ring	-3196
ner	-3197
▁যৌন	-3198
▁open	-3199
▁went	-3200
▁আকার	-3201
▁NEAT	-3202
for	-3203
tal	-3204
▁look	-3205
ল্যান্ড	-3206
▁কোর	-3207
eed	-3208
▁come	-3209
||0||	-3210
▁Minister	-3211
umb	-3212
▁সত্য	-3213
▁রহমান	-3214
ুযা়র	-3215
সুমে	-3216
▁lived	-3217
ারি	-3218
▁সিদ্ধান্ত	-3219
ামের	-3220
▁vers	-3221
▁কেউ	-3222
▁আফ্র	-3223
▁Gl	-3224
▁উন্নয়ন	-3225
১৯৯	-3226
hys	-3227
ক্ষিত	-3228
▁women	-3229
▁based	-3230
ampionship	-3231
্যন্ত	-3232
ilt	-3233
▁usually	-3234
▁Roman	-3235
▁সংঘ	-3236
রত	-3237
▁স্বাধীনতা	-3238
abl	-3239
▁pass	-3240
▁বহু	-3241
aster	-3242
lymp	-3243
rog	-3244
urrent	-3245
▁district	-3246
▁ভারতে	-3247
▁ব্যাপক	-3248
োলা	-3249
াজিত	-3250
ides	-3251
▁list	-3252
▁ওয়েব	-3253
স্টার	-3254
iness	-3255
▁ডিজ	-3256
াসি	-3257
িনের	-3258
ired	-3259
▁প্রকল্প	-3260
▁কেবল	-3261
▁চী	-3262
▁Dav	-3263
▁বিরোধ	-3264
াহী	-3265
ms	-3266
▁another	-3267
▁১৯১	-3268
omb	-3269
▁times	-3270
▁হয়েছিলেন	-3271
র্তি	-3272
▁That	-3273
ians	-3274
▁পঞ্চ	-3275
▁ann	-3276
▁fin	-3277
ste	-3278
▁করলে	-3279
▁দৃ	-3280
▁শিব	-3281
▁Per	-3282
▁century	-3283
▁পরিণত	-3284
▁লিখে	-3285
▁here	-3286
▁means	-3287
▁পরিমাণ	-3288
▁Bel	-3289
▁(;	-3290
▁suc	-3291
যুদ্ধ	-3292
জ্জ	-3293
▁term	-3294
াব্য	-3295
▁রাখা	-3296
rew	-3297
▁father	-3298
▁হাজার	-3299
over	-3300
▁সাক্ষরতার	-3301
▁war	-3302
▁important	-3303
্ফ	-3304
্রেস	-3305
▁রাশ	-3306
▁শাখ	-3307
▁began	-3308
osed	-3309
▁Mon	-3310
ার্থী	-3311
▁profess	-3312
▁find	-3313
▁মৌসুমে	-3314
▁কিং	-3315
▁(198	-3316
aur	-3317
▁সীমান	-3318
▁স্থাপন	-3319
▁অতি	-3320
ane	-3321
30	-3322
vent	-3323
▁সক	-3324
▁Olymp	-3325
▁চেষ্টা	-3326
দুল	-3327
▁এলাকায়	-3328
▁অ্যাস	-3329
▁ভাষার	-3330
▁mat	-3331
▁দি	-3332
▁অত	-3333
▁লাল	-3334
▁দলে	-3335
▁film	-3336
▁However	-3337
▁শেখ	-3338
ple	-3339
▁দর	-3340
▁চিহ্ন	-3341
য়েল	-3342
▁২০০৮	-3343
▁oper	-3344
যোজ	-3345
▁আরে	-3346
▁বাস্ত	-3347
▁large	-3348
▁পাকিস্তানের	-3349
▁common	-3350
ান্দ	-3351
▁সমালো	-3352
40	-3353
▁তাম	-3354
▁বৃদ্ধি	-3355
▁সংস্করণ	-3356
▁million	-3357
▁Med	-3358
▁সদর	-3359
▁ext	-3360
▁মৃত্যু	-3361
omin	-3362
▁সপ্ত	-3363
atic	-3364
াযোগ	-3365
▁Party	-3366
▁div	-3367
▁ধর্মীয়	-3368
▁ধ্ব	-3369
▁sent	-3370
▁উপাদ	-3371
▁স্নাত	-3372
▁ভে	-3373
াবেক	-3374
▁থাকা	-3375
▁রেকর্ড	-3376
▁ধারণা	-3377
▁রাজনীতিবিদ	-3378
▁ভিত্তি	-3379
▁অভিনেত্রী	-3380
line	-3381
▁10,	-3382
▁শীর্ষ	-3383
▁total	-3384
▁নদীর	-3385
▁তাপ	-3386
▁came	-3387
ারেল	-3388
zer	-3389
▁চাই	-3390
▁ইংরেজ	-3391
▁শহরে	-3392
▁Dr	-3393
াহরণ	-3394
▁নিয়ন্ত্রণ	-3395
▁২১	-3396
▁What	-3397
▁সুযোগ	-3398
▁2004	-3399
▁২০০৯	-3400
▁লেখা	-3401
্যাশনাল	-3402
▁বৈশিষ্ট	-3403
▁south	-3404
ised	-3405
aces	-3406
▁উদ্ব	-3407
▁Phil	-3408
▁Tw	-3409
ৃতির	-3410
▁বাবা	-3411
han	-3412
▁বিবাহ	-3413
বো	-3414
েম্ব	-3415
▁গ্রুপ	-3416
্যায়ে	-3417
▁সেনাবাহ	-3418
▁ড্র	-3419
▁প্রযুক্ত	-3420
▁Japanese	-3421
▁Sec	-3422
▁২৪	-3423
▁support	-3424
▁men	-3425
শিল্প	-3426
▁বর্গ	-3427
burg	-3428
▁ঐতিহাস	-3429
▁writer	-3430
NE	-3431
▁5,	-3432
▁rev	-3433
rol	-3434
▁লাগ	-3435
াবার	-3436
▁শি	-3437
ipp	-3438
▁অন্তর্গত	-3439
▁ইত্যাদি	-3440
uff	-3441
▁chang	-3442
▁ফ্রান্স	-3443
▁সময়ের	-3444
▁সহায়	-3445
▁চলচ্চিত্রের	-3446
▁ক্যা	-3447
▁কেন্দ্রীয়	-3448
্তন	-3449
inc	-3450
▁popular	-3451
▁বাহিনী	-3452
▁শক্তি	-3453
▁ডাক	-3454
▁রাজধানী	-3455
▁30	-3456
তান	-3457
শ্রেণ	-3458
▁গ্ল	-3459
▁জমি	-3460
▁নেয়	-3461
▁things	-3462
istor	-3463
▁county	-3464
alt	-3465
▁সক্ষম	-3466
attle	-3467
গো	-3468
▁Ser	-3469
ুড	-3470
▁১৯০	-3471
▁Anderson	-3472
িম্প	-3473
▁মৃত্যুর	-3474
▁প্রক্রিযা়	-3475
ief	-3476
▁language	-3477
raz	-3478
▁House	-3479
eder	-3480
▁দূর	-3481
মেন্ট	-3482
▁took	-3483
▁পড়	-3484
▁Cup	-3485
▁রায়	-3486
▁নিশ্চ	-3487
সুম	-3488
েপ	-3489
▁Italian	-3490
▁leg	-3491
▁ষ	-3492
▁ধারাবাহ	-3493
ush	-3494
colspan	-3495
▁7,	-3496
▁our	-3497
rid	-3498
▁পথ	-3499
▁প্রতিনিধিত্ব	-3500
র্দ	-3501
▁প্রতির	-3502
▁পল	-3503
▁given	-3504
▁publ	-3505
▁বাঁ	-3506
▁People	-3507
▁ইবনে	-3508
▁4,	-3509
▁public	-3510
্লিউ	-3511
াপন	-3512
খল	-3513
acter	-3514
েনে	-3515
–19	-3516
▁Sup	-3517
▁বাণিজ্য	-3518
▁ক্ষমতা	-3519
ves	-3520
▁শৈ	-3521
▁example	-3522
ল্ড	-3523
▁Mes	-3524
▁son	-3525
▁আসন	-3526
uthor	-3527
▁bre	-3528
▁মেয়ে	-3529
ভাষ	-3530
alth	-3531
▁বন	-3532
▁Do	-3533
▁Sch	-3534
▁লক্ষ্য	-3535
াংশ	-3536
▁সুল	-3537
ال	-3538
▁নির্বাচনে	-3539
="2"|-	-3540
▁নিরাপ	-3541
▁fr	-3542
িজ্ঞ	-3543
▁don	-3544
▁let	-3545
▁২০০১	-3546
▁সাহায্য	-3547
▁countries	-3548
▁turn	-3549
▁থাকেন	-3550
▁3,	-3551
▁তৎ	-3552
প্রাপ্ত	-3553
▁189	-3554
aut	-3555
খ্যার	-3556
%।	-3557
▁স্বীক	-3558
▁বসব	-3559
▁প্রস্তাব	-3560
▁সম্মান	-3561
র্ষণ	-3562
▁rece	-3563
োষ	-3564
ভর	-3565
▁সম্পর্কিত	-3566
▁যুক্তরাষ্ট্রের	-3567
▁+	-3568
▁Off	-3569
▁আমাকে	-3570
ক্ষেপ	-3571
▁Mich	-3572
▁উদাহরণ	-3573
ized	-3574
স্যা	-3575
▁International	-3576
▁টেলিভিশন	-3577
▁নির্দিষ্ট	-3578
aliforn	-3579
▁মাঝে	-3580
embers	-3581
র্য	-3582
নো	-3583
▁প্রমাণ	-3584
ittle	-3585
▁single	-3586
ৌশল	-3587
গে	-3588
▁পদ্ধতি	-3589
▁president	-3590
ummer	-3591
েন্ড	-3592
▁প্রাপ্ত	-3593
▁হাত	-3594
▁early	-3595
াইম	-3596
িয়েত	-3597
▁দ্রুত	-3598
▁State	-3599
▁পশ্চিমবঙ্গ	-3600
াপতি	-3601
▁আমেরিকান	-3602
িক্ত	-3603
▁hand	-3604
▁বিপর	-3605
▁Day	-3606
▁program	-3607
60	-3608
▁সংযুক্ত	-3609
ained	-3610
▁America	-3611
▁Don	-3612
▁24,	-3613
পরি	-3614
▁বিত	-3615
ee	-3616
▁জে	-3617
▁Ang	-3618
▁resp	-3619
▁month	-3620
anish	-3621
yl	-3622
80	-3623
▁শতাব্দীর	-3624
alifornia	-3625
▁become	-3626
▁100	-3627
▁set	-3628
ches	-3629
▁জ্ঞ	-3630
ব্র	-3631
▁চৌধ	-3632
▁অভিনেতা	-3633
▁খাদ	-3634
ometimes	-3635
11	-3636
ij	-3637
লিত	-3638
▁প্রেস	-3639
▁রাস্ত	-3640
▁2005	-3641
ffect	-3642
▁পত	-3643
▁Kingdom	-3644
ford	-3645
▁পৌর	-3646
কর্ম	-3647
▁California	-3648
▁প্রতিটি	-3649
কাপ	-3650
▁আসেন	-3651
osp	-3652
ney	-3653
▁বায়	-3654
▁স্ত্রী	-3655
▁design	-3656
rod	-3657
ourt	-3658
▁সাত	-3659
▁হত্যা	-3660
rote	-3661
▁শান্ত	-3662
▁short	-3663
▁think	-3664
▁Rober	-3665
▁away	-3666
।"	-3667
▁যোগাযোগ	-3668
▁গৃহ	-3669
▁নাগরিক	-3670
শিপ	-3671
▁ছয়	-3672
▁ছেলে	-3673
▁হয়নি	-3674
▁করছেন	-3675
▁current	-3676
▁Ear	-3677
▁sold	-3678
irl	-3679
25	-3680
▁খেলা	-3681
med	-3682
▁প্রদর্শন	-3683
▁Ac	-3684
▁নেপ	-3685
▁Australia	-3686
▁নির্বাচন	-3687
▁var	-3688
ius	-3689
▁মিড	-3690
▁২০২০	-3691
▁mean	-3692
▁বলতে	-3693
▁দেখে	-3694
▁প্রাক্তন	-3695
▁website	-3696
পত্র	-3697
েক্ট	-3698
শ্র	-3699
▁মিলিয়ন	-3700
▁ত্রি	-3701
▁হাতে	-3702
ope	-3703
▁কার্যক্রম	-3704
▁সফল	-3705
▁written	-3706
▁চরিত্র	-3707
▁Ag	-3708
ইউ	-3709
▁west	-3710
lin	-3711
▁যুদ্ধের	-3712
▁capital	-3713
▁ছিলো	-3714
পু	-3715
▁big	-3716
▁উপন্যাস	-3717
▁সাবেক	-3718
aving	-3719
▁রাষ্ট্রপতি	-3720
▁eng	-3721
▁পুনরায়	-3722
▁9,	-3723
▁friend	-3724
▁class	-3725
ris	-3726
বায়	-3727
▁compet	-3728
▁আবিষ্ক	-3729
পক্ষ	-3730
িরা	-3731
▁একমাত্র	-3732
▁ভাবে	-3733
িকায়	-3734
"।	-3735
▁প্রশিক্ষ	-3736
মু	-3737
▁include	-3738
▁২০০৬	-3739
▁দেখতে	-3740
▁বস্ত	-3741
▁নক	-3742
▁২২	-3743
▁রঙ	-3744
adem	-3745
eep	-3746
▁পর্যায়ে	-3747
ours	-3748
বির	-3749
▁রচনা	-3750
▁চট্টগ্রাম	-3751
ড়িত	-3752
earch	-3753
▁চতু	-3754
ency	-3755
▁২৩	-3756
▁25	-3757
aced	-3758
▁James	-3759
▁San	-3760
▁contin	-3761
▁ep	-3762
ফার	-3763
▁শর	-3764
▁স্থানে	-3765
▁join	-3766
বের	-3767
▁Co	-3768
▁পরিবারের	-3769
▁club	-3770
iter	-3771
berg	-3772
▁ইংল্যান্ড	-3773
▁Comp	-3774
▁২০০৭	-3775
▁উঠে	-3776
▁নিকট	-3777
ission	-3778
ানী	-3779
ocr	-3780
েমন	-3781
▁Lou	-3782
▁Mor	-3783
ীডা়	-3784
▁great	-3785
▁municipality	-3786
▁ইত	-3787
▁স্বাস্থ	-3788
▁ইংরেজি	-3789
▁একক	-3790
▁ভিন্ন	-3791
▁০	-3792
▁শার	-3793
▁la	-3794
েন্টি	-3795
▁Hol	-3796
▁major	-3797
মশ	-3798
ournal	-3799
▁নর	-3800
▁অ্যাক	-3801
▁history	-3802
west	-3803
ior	-3804
▁activ	-3805
ael	-3806
rick	-3807
▁দেশে	-3808
▁wrote	-3809
▁বসবাস	-3810
রণের	-3811
self	-3812
▁পৌঁ	-3813
▁species	-3814
▁অগ্র	-3815
▁পূর্ণ	-3816
▁অধ্যাপ	-3817
▁shall	-3818
তন্ত্র	-3819
ured	-3820
▁proble	-3821
▁Sm	-3822
▁নৌ	-3823
▁পরিকল্পনা	-3824
itary	-3825
ুমাত্র	-3826
▁video	-3827
iety	-3828
▁নামের	-3829
▁directed	-3830
▁যাত্র	-3831
▁ঐতিহাসিক	-3832
▁ঘর	-3833
▁সারা	-3834
▁সাব	-3835
▁মৌসুম	-3836
▁সিস্ট	-3837
ades	-3838
▁Ber	-3839
▁উইকেট	-3840
▁দাবি	-3841
sc	-3842
▁দাঁ	-3843
▁অপর	-3844
▁sw	-3845
▁বিজয়ী	-3846
▁6.	-3847
70	-3848
ঙ্	-3849
▁Park	-3850
▁Paul	-3851
▁light	-3852
▁put	-3853
▁পের	-3854
▁সমর্থন	-3855
▁ভালো	-3856
▁শ্রী	-3857
ka	-3858
▁সুবি	-3859
uel	-3860
▁পাব	-3861
):	-3862
▁বিব	-3863
▁return	-3864
▁পরাজিত	-3865
▁Mesa	-3866
▁young	-3867
ico	-3868
▁বিশ্বকাপ	-3869
হের	-3870
-19	-3871
েমি	-3872
ya	-3873
▁১৮৯	-3874
বেদন	-3875
ায়ে	-3876
র্ধ্ব	-3877
▁2010	-3878
▁গবেষণ	-3879
▁married	-3880
hel	-3881
▁জিন	-3882
ivil	-3883
▁নিউজ	-3884
▁rest	-3885
বিক	-3886
iod	-3887
সময়	-3888
ria	-3889
▁16,	-3890
ensus	-3891
▁বিশিষ্ট	-3892
টো	-3893
ago	-3894
াপুর	-3895
▁ভবন	-3896
▁days	-3897
▁কংগ	-3898
estion	-3899
▁top	-3900
▁Rec	-3901
য়র	-3902
▁উপাদান	-3903
▁company	-3904
▁জুড়ে	-3905
িতায়	-3906
েশনের	-3907
epend	-3908
▁members	-3909
▁কোম্পানি	-3910
ঙ্গল	-3911
▁সমস্যা	-3912
শ্রেণীর	-3913
▁School	-3914
িডিও	-3915
isc	-3916
▁অধিক	-3917
▁Ev	-3918
▁few	-3919
ories	-3920
▁ব্যবস	-3921
▁killed	-3922
স্বর	-3923
্বিক	-3924
▁অনুর	-3925
▁ডিগ্রি	-3926
ky	-3927
▁To	-3928
ত্রে	-3929
▁famous	-3930
▁প্রযোজ	-3931
▁expl	-3932
▁East	-3933
▁cond	-3934
▁গার	-3935
কেল	-3936
▁ক্রিকেটার	-3937
ena	-3938
▁ক্যাল	-3939
▁গড়	-3940
▁third	-3941
▁জাহাজ	-3942
▁বাইরে	-3943
ma	-3944
খিত	-3945
▁তারপর	-3946
▁রেড	-3947
▁অভিযোগ	-3948
▁তাহলে	-3949
▁বৈশিষ্ট্য	-3950
alf	-3951
▁heart	-3952
ামে	-3953
ধি	-3954
lege	-3955
▁(18	-3956
▁Many	-3957
ington	-3958
rov	-3959
formation	-3960
▁জন্যে	-3961
▁ঋ	-3962
▁built	-3963
▁desc	-3964
echn	-3965
▁Russian	-3966
▁ব্যক্তিগত	-3967
of	-3968
ots	-3969
ared	-3970
▁মুহাম্মদ	-3971
▁শিক্ষক	-3972
▁ref	-3973
▁tit	-3974
▁হলেও	-3975
▁প্রত্য	-3976
▁ম্যাক	-3977
▁success	-3978
▁George	-3979
▁Most	-3980
▁শুধুমাত্র	-3981
খ্যান	-3982
▁বিয়ে	-3983
▁তে	-3984
▁LO	-3985
▁দৃষ্টি	-3986
▁14,	-3987
▁Nor	-3988
▁star	-3989
▁থেকেই	-3990
পা	-3991
১৭	-3992
▁ec	-3993
▁establ	-3994
▁vill	-3995
ival	-3996
▁prom	-3997
▁খ্রিস্টাব্দে	-3998
ape	-3999
24	-4000
গুলিকে	-4001
ণ্ডিত	-4002
hi	-4003
▁বুঝ	-4004
▁নং	-4005
বাদী	-4006
▁@	-4007
ষ্য	-4008
▁movies	-4009
েলা	-4010
▁মূ	-4011
▁কলকাতা	-4012
▁যুদ্ধে	-4013
▁সমুদ্র	-4014
cy	-4015
▁20,	-4016
▁human	-4017
▁দশকে	-4018
▁toget	-4019
▁body	-4020
▁together	-4021
▁tell	-4022
▁stop	-4023
▁উইল	-4024
▁(197	-4025
এইচ	-4026
▁report	-4027
▁held	-4028
▁সেল	-4029
▁সহযোগ	-4030
▁অনুষ্ঠান	-4031
▁ক্রীডা়	-4032
oe	-4033
▁নিযুক্ত	-4034
orp	-4035
▁উপজেলা	-4036
বরাহ	-4037
▁বিদ্য	-4038
▁অবস্থায়	-4039
১৯৮	-4040
ility	-4041
▁গেম	-4042
orts	-4043
বাস	-4044
▁দিব	-4045
▁political	-4046
▁জানা	-4047
বারের	-4048
▁রস	-4049
▁শতা	-4050
্যান্ট	-4051
১০	-4052
▁নেট	-4053
▁imp	-4054
▁Dem	-4055
work	-4056
▁Act	-4057
▁আফগান	-4058
▁ভিডিও	-4059
িযা়স	-4060
▁|199	-4061
▁এড	-4062
ting	-4063
▁সম্পন্ন	-4064
োঁ	-4065
▁চ্যান	-4066
▁red	-4067
▁বৃহত্তম	-4068
ged	-4069
eal	-4070
▁মাম	-4071
নীত	-4072
▁ম্যাচ	-4073
▁সিস্টেম	-4074
▁Its	-4075
▁ব্যাংক	-4076
▁ত্র	-4077
▁Res	-4078
▁ব্যাট	-4079
▁six	-4080
▁camp	-4081
মেদ	-4082
▁largest	-4083
ন্টি	-4084
▁২৬	-4085
▁fight	-4086
▁গু	-4087
▁author	-4088
▁mag	-4089
▁thought	-4090
▁24	-4091
▁কখনও	-4092
▁মডেল	-4093
িত্তিক	-4094
▁Jos	-4095
োপাধ্য	-4096
▁বিমানব	-4097
▁চারটি	-4098
NEOS	-4099
▁তৎকালীন	-4100
▁Championship	-4101
▁LONEOS	-4102
▁অভিয	-4103
▁যাবে	-4104
23	-4105
orthern	-4106
▁12,	-4107
▁ইন্দ	-4108
ায়িত	-4109
ণ্য	-4110
ম্ভ	-4111
▁five	-4112
▁Swed	-4113
াত্মক	-4114
৫০	-4115
overnor	-4116
▁among	-4117
▁কবি	-4118
ump	-4119
illa	-4120
▁Rich	-4121
yle	-4122
লেক	-4123
ases	-4124
▁Saint	-4125
▁China	-4126
lear	-4127
writ	-4128
bert	-4129
▁Bro	-4130
ক্ল	-4131
▁Tur	-4132
▁রি	-4133
▁কঠ	-4134
▁gl	-4135
খা	-4136
ফি	-4137
ream	-4138
▁পিতা	-4139
▁Jack	-4140
▁David	-4141
astern	-4142
▁moved	-4143
ন্দ্ব	-4144
▁সুই	-4145
▁জি	-4146
▁অনূ	-4147
▁8,	-4148
▁জীবনের	-4149
aken	-4150
▁রাস	-4151
▁equ	-4152
স্টিটি	-4153
ection	-4154
▁চৌধুরী	-4155
▁দিল্ল	-4156
▁আবদুল	-4157
eg	-4158
▁along	-4159
▁কাজের	-4160
▁রক্ত	-4161
▁17,	-4162
জর	-4163
▁ইম	-4164
িনে	-4165
▁মহাস	-4166
▁স্বাস্থ্য	-4167
edy	-4168
সিং	-4169
▁পাহ	-4170
▁যাওযা়	-4171
▁post	-4172
▁mother	-4173
ীকার	-4174
▁সুপার	-4175
ha	-4176
কু	-4177
▁Port	-4178
বাহিত	-4179
▁কর্মকর্ত	-4180
▁উপস্থিত	-4181
▁আলাদা	-4182
▁business	-4183
▁লন্ড	-4184
▁সরবরাহ	-4185
▁বাড়ি	-4186
▁অর্থনৈতিক	-4187
▁living	-4188
▁Ob	-4189
wards	-4190
ড়ক	-4191
▁তেল	-4192
iving	-4193
▁occ	-4194
ences	-4195
▁কাহ	-4196
ঘাত	-4197
▁Cat	-4198
াইজ	-4199
▁অত্য	-4200
▁নিশ্চিত	-4201
▁যাওযা়র	-4202
ander	-4203
▁হাসপাত	-4204
ত্তা	-4205
▁রোমান	-4206
lam	-4207
▁ডেভ	-4208
▁উৎপাদন	-4209
||4	-4210
▁Sen	-4211
▁By	-4212
▁Then	-4213
▁never	-4214
▁অপরাধ	-4215
▁beg	-4216
▁আব্দ	-4217
চি	-4218
mon	-4219
▁সন্তান	-4220
▁ইনস্টিটি	-4221
▁অবশ্য	-4222
▁পরীক্ষ	-4223
▁কথ	-4224
▁Art	-4225
ত্তি	-4226
ording	-4227
▁মহাক	-4228
▁সান	-4229
▁NY	-4230
▁ভূমিক	-4231
গু	-4232
▁পেশাদার	-4233
িলের	-4234
iol	-4235
▁দখল	-4236
▁যেটি	-4237
▁টেস্টে	-4238
men	-4239
era	-4240
▁পৃষ্ঠ	-4241
▁নির্ভর	-4242
▁using	-4243
▁pos	-4244
▁Robert	-4245
ertain	-4246
ically	-4247
িলা	-4248
▁মাহ	-4249
▁ঘন	-4250
▁give	-4251
▁Canada	-4252
▁বাত	-4253
▁Dist	-4254
▁বন্ধু	-4255
▁Canadian	-4256
▁আপনার	-4257
▁খেলে	-4258
▁money	-4259
▁উপরে	-4260
▁19,	-4261
▁দেওযা়র	-4262
")	-4263
▁সংশ	-4264
▁Europe	-4265
▁ইনি	-4266
ডা়ই	-4267
▁২৭	-4268
▁Pak	-4269
▁চিন্ত	-4270
্যো	-4271
▁মোহাম্মদ	-4272
িপ্ত	-4273
▁অলিম্প	-4274
▁প্রযুক্তি	-4275
দ্দিন	-4276
sel	-4277
▁Go	-4278
▁2006	-4279
▁গ্রী	-4280
▁footballer	-4281
▁শুধু	-4282
▁director	-4283
▁rul	-4284
দ্দ	-4285
াগত	-4286
▁২০২১	-4287
▁Republic	-4288
▁হোস	-4289
▁নামকরণ	-4290
▁আন্দোলন	-4291
▁ide	-4292
▁২৮	-4293
▁নগর	-4294
▁games	-4295
সিক	-4296
▁next	-4297
▁কণ	-4298
▁গাছ	-4299
▁সংস্থ	-4300
▁পাখ	-4301
▁দশকের	-4302
▁worked	-4303
▁প্রভ	-4304
▁ইউনিভার	-4305
ef	-4306
itar	-4307
razil	-4308
িসের	-4309
▁গোপ	-4310
▁house	-4311
▁published	-4312
বাদিক	-4313
▁ধ্বংস	-4314
ক্য	-4315
বু	-4316
োর্ড	-4317
▁২০০৫	-4318
েত্র	-4319
▁চিহ্নিত	-4320
▁188	-4321
▁বিভক্ত	-4322
ote	-4323
▁ধারাবাহিক	-4324
▁present	-4325
▁During	-4326
ways	-4327
▁gen	-4328
▁without	-4329
▁রচিত	-4330
ওযা়র্ড	-4331
err	-4332
োটি	-4333
apt	-4334
▁প্রশাসনিক	-4335
▁fem	-4336
▁করত	-4337
oul	-4338
▁ال	-4339
▁Que	-4340
▁জড়িত	-4341
যা়ন	-4342
▁বাজার	-4343
▁কুর	-4344
▁es	-4345
▁অধ্যাপক	-4346
▁বর্ষ	-4347
▁stand	-4348
▁vis	-4349
▁খুঁ	-4350
▁6,	-4351
ored	-4352
▁কম্পিউ	-4353
oice	-4354
▁চাক	-4355
িক্স	-4356
▁বোর্ড	-4357
▁Gre	-4358
▁জেলায়	-4359
র্ভ	-4360
▁earth	-4361
ki	-4362
▁av	-4363
▁event	-4364
াস্ত্র	-4365
্যায়	-4366
▁Union	-4367
▁11,	-4368
▁must	-4369
28	-4370
▁Book	-4371
▁ভ্রম	-4372
reek	-4373
▁Mex	-4374
26	-4375
▁tem	-4376
▁ফুল	-4377
▁২০০০	-4378
▁brother	-4379
চক	-4380
ests	-4381
▁মনো	-4382
aves	-4383
▁European	-4384
ize	-4385
▁এফ	-4386
▁following	-4387
▁উপক	-4388
▁ফেলে	-4389
▁Red	-4390
▁From	-4391
মহ	-4392
▁সাংবাদিক	-4393
▁rock	-4394
ারী	-4395
▁Brazil	-4396
▁দিয়েছিলেন	-4397
ilar	-4398
▁থাকতে	-4399
▁বিস্তৃত	-4400
▁নেতা	-4401
মূলক	-4402
▁কৃষ্ণ	-4403
▁character	-4404
স্বরূপ	-4405
হীন	-4406
▁আও	-4407
ument	-4408
▁hap	-4409
ধ্যে	-4410
▁dest	-4411
▁29,	-4412
▁cult	-4413
▁মেড	-4414
▁too	-4415
সাধ	-4416
▁]	-4417
uted	-4418
▁sol	-4419
▁Net	-4420
োদ্ধ	-4421
▁উৎসব	-4422
্নে	-4423
▁som	-4424
▁উদ্ভ	-4425
▁believe	-4426
▁শাসন	-4427
লাভ	-4428
▁ম্যাচে	-4429
▁নীতি	-4430
.,	-4431
▁চাপ	-4432
▁আহমেদ	-4433
▁শিকার	-4434
▁নারীদের	-4435
▁মাদ্রাসা	-4436
লেন	-4437
ক্ক	-4438
▁seen	-4439
▁Val	-4440
১৫	-4441
▁food	-4442
▁বিপ্ল	-4443
াত্ত্বিক	-4444
▁story	-4445
▁ask	-4446
90	-4447
ডা়র	-4448
▁beh	-4449
▁Australian	-4450
▁relig	-4451
▁manag	-4452
▁going	-4453
▁প্রত্যা	-4454
ids	-4455
▁কান	-4456
▁রিপ	-4457
▁dem	-4458
▁২০০৪	-4459
▁উত	-4460
শের	-4461
▁অঙ্গ	-4462
▁del	-4463
▁rad	-4464
উন	-4465
ait	-4466
▁mark	-4467
▁compos	-4468
১৯৭	-4469
▁বয়স	-4470
ভিত্তিক	-4471
ান্তরিত	-4472
িকাংশ	-4473
▁প্রয়োগ	-4474
▁প্রতিক	-4475
▁186	-4476
▁role	-4477
uz	-4478
▁Reg	-4479
▁সক্রিয়	-4480
্টা	-4481
▁বীর	-4482
▁Sam	-4483
▁বিদ্র	-4484
▁বুদ্ধ	-4485
োতে	-4486
▁বিজ্ঞ	-4487
itions	-4488
br	-4489
▁গ্রামে	-4490
even	-4491
▁চেযা়র	-4492
▁Chin	-4493
নিবেশ	-4494
outhern	-4495
থি	-4496
27	-4497
াদু	-4498
▁একাধিক	-4499
▁সহায়তা	-4500
aim	-4501
▁Prime	-4502
thing	-4503
▁জেনারেল	-4504
▁Thom	-4505
▁High	-4506
▁আর্থ	-4507
▁Mount	-4508
▁15,	-4509
▁ব্যাখ্যা	-4510
▁হ্যা	-4511
▁works	-4512
▁বাঙ	-4513
▁শ্রীল	-4514
▁শতকের	-4515
▁দেবী	-4516
▁ওপর	-4517
▁phot	-4518
▁শব্দটি	-4519
▁kind	-4520
▁শতাংশ	-4521
▁ওয়েস্ট	-4522
▁নিজস্ব	-4523
▁চো	-4524
▁Best	-4525
▁deb	-4526
▁কোর্	-4527
▁version	-4528
▁Kore	-4529
▁ফরাসি	-4530
াগর	-4531
inning	-4532
▁Pri	-4533
▁অধিকাংশ	-4534
শাল	-4535
▁gener	-4536
হিত	-4537
▁announc	-4538
▁৫০	-4539
শোর	-4540
১৬	-4541
বণ	-4542
▁NYS	-4543
াণ্ড	-4544
ially	-4545
কৃত	-4546
▁Black	-4547
▁অনূর্ধ্ব	-4548
▁বিনি	-4549
▁স্নাতক	-4550
▁অনুবাদ	-4551
▁আবু	-4552
▁জগ	-4553
লেও	-4554
▁লাহ	-4555
omes	-4556
eum	-4557
▁নিবন্ধ	-4558
▁Spanish	-4559
▁এটিকে	-4560
েরি	-4561
▁Hen	-4562
▁ইঞ্জ	-4563
▁দুর্গ	-4564
▁period	-4565
▁সম্পাদক	-4566
▁তামিল	-4567
▁trad	-4568
▁কানা	-4569
▁making	-4570
▁Im	-4571
▁("	-4572
▁জৈ	-4573
▁18,	-4574
▁ওয়েবস	-4575
▁প্রচলিত	-4576
▁Great	-4577
▁১০০	-4578
▁blog	-4579
ography	-4580
acy	-4581
▁২৯	-4582
▁ফিল্ম	-4583
▁ওঠে	-4584
▁Press	-4585
rica	-4586
raft	-4587
ায়ণ	-4588
▁Alex	-4589
▁career	-4590
াসরি	-4591
▁happen	-4592
▁13,	-4593
▁opp	-4594
ued	-4595
roy	-4596
▁সূত্র	-4597
▁১৮৮	-4598
▁খ্রিষ্টাব্দে	-4599
▁মূল্য	-4600
ত্তর	-4601
▁less	-4602
শ্বর	-4603
▁lev	-4604
▁চলচ্চিত্রটি	-4605
▁Mart	-4606
▁দর্শ	-4607
▁parts	-4608
▁চতুর্থ	-4609
iber	-4610
▁Mr	-4611
▁others	-4612
▁el	-4613
▁পানি	-4614
▁ইস	-4615
▁বিদেশ	-4616
▁মুসলমান	-4617
▁Mil	-4618
▁ইউরোপীয়	-4619
aine	-4620
ালয়	-4621
▁ক্ষেত্র	-4622
▁vol	-4623
uit	-4624
▁order	-4625
১২	-4626
▁heav	-4627
▁পৃথক	-4628
▁সিটি	-4629
irc	-4630
ards	-4631
পশ্চিম	-4632
ানার	-4633
▁নীল	-4634
/0	-4635
াসন	-4636
uter	-4637
▁26,	-4638
▁অ্যাড	-4639
▁খাদ্য	-4640
াব্দের	-4641
▁23	-4642
্রেড	-4643
▁চুক্তি	-4644
▁কম্পিউটার	-4645
AS	-4646
▁মিনি	-4647
29	-4648
▁নিতে	-4649
▁caused	-4650
▁তুলনায়	-4651
জনের	-4652
ari	-4653
▁প্রদেশের	-4654
▁professional	-4655
now	-4656
oad	-4657
াশে	-4658
▁জর্জ	-4659
▁পরিষদ	-4660
gypt	-4661
▁অসম	-4662
▁Pakistan	-4663
off	-4664
45	-4665
▁First	-4666
ান্ত্রিক	-4667
▁served	-4668
▁প্রেম	-4669
াক্ত	-4670
▁Bas	-4671
ges	-4672
▁অভ্যন্ত	-4673
rael	-4674
▁যন্ত্র	-4675
দন্ত	-4676
▁পণ্ডিত	-4677
বাহী	-4678
▁Dep	-4679
▁এন্ড	-4680
▁কাউন্স	-4681
ূডা়	-4682
▁১৯৭১	-4683
কোন	-4684
▁বাম	-4685
▁phys	-4686
▁পডা়শ	-4687
োপাধ্যায়	-4688
▁কাজে	-4689
ষ্ঠী	-4690
▁repl	-4691
iddle	-4692
▁makes	-4693
মির	-4694
▁census	-4695
▁হাল	-4696
▁প্রোগ্র	-4697
গ্ন	-4698
ন্ধান	-4699
▁gave	-4700
▁election	-4701
▁epis	-4702
▁Mad	-4703
▁বঙ্গ	-4704
▁founded	-4705
II	-4706
্প্র	-4707
udd	-4708
▁মাধ্যমিক	-4709
ula	-4710
▁খেলেন	-4711
▁Roy	-4712
ন্ব	-4713
ুতে	-4714
icle	-4715
দিনের	-4716
▁বিদ্রোহ	-4717
▁অর্থাৎ	-4718
▁সরাসরি	-4719
ওযা়র্ক	-4720
ected	-4721
unn	-4722
▁উদ্দেশ্যে	-4723
aining	-4724
▁হে	-4725
▁পার্শ্ব	-4726
স্কৃতিক	-4727
▁better	-4728
▁line	-4729
75	-4730
▁পরীক্ষা	-4731
▁মিউ	-4732
▁সংগঠন	-4733
চন্দ্র	-4734
▁বিবেচনা	-4735
▁লাইন	-4736
▁consid	-4737
▁ঔ	-4738
writer	-4739
▁নিজেদের	-4740
ouncil	-4741
ething	-4742
▁det	-4743
ানির	-4744
▁ছেড়ে	-4745
▁king	-4746
াশের	-4747
▁প্রায়শ	-4748
ীদ	-4749
োফ	-4750
▁Sov	-4751
▁30,	-4752
▁মিস	-4753
▁হতো	-4754
▁cancer	-4755
▁province	-4756
▁বদ	-4757
most	-4758
oo	-4759
▁অস্ট্রেলিযা়	-4760
BC	-4761
▁শ্রীলঙ্ক	-4762
▁hig	-4763
▁থাকার	-4764
▁perform	-4765
▁সর্বাধিক	-4766
েকে	-4767
▁Mal	-4768
▁করো	-4769
▁Italy	-4770
পরে	-4771
▁কুমার	-4772
▁crit	-4773
▁অত্যন্ত	-4774
▁Cr	-4775
▁ভোট	-4776
▁আনুষ্ঠান	-4777
হর	-4778
▁2014	-4779
▁Charles	-4780
▁21	-4781
▁2017	-4782
▁প্রস	-4783
▁Louis	-4784
থায়	-4785
▁যুব	-4786
▁Pat	-4787
▁প্রধানমন্ত্রী	-4788
▁sometimes	-4789
ম্ম	-4790
▁Ne	-4791
▁পার্টি	-4792
▁১৯৯০	-4793
াং	-4794
▁Prov	-4795
▁পার্থ	-4796
▁প্যার	-4797
▁Michael	-4798
▁গ্রীষ্	-4799
ule	-4800
▁frog	-4801
ida	-4802
ania	-4803
▁কখনো	-4804
ense	-4805
▁ওযা়র্	-4806
দ্য	-4807
▁poss	-4808
▁এযা়র	-4809
▁25,	-4810
▁অর	-4811
▁Des	-4812
ele	-4813
টাই	-4814
▁aged	-4815
▁Kar	-4816
▁২০০৩	-4817
▁Chinese	-4818
▁নিজেকে	-4819
▁adm	-4820
▁কাশ	-4821
ান্ড	-4822
শিল্পী	-4823
▁পারি	-4824
▁চূডা়	-4825
▁Mont	-4826
ced	-4827
সমান	-4828
াঞ্চ	-4829
▁টার	-4830
oph	-4831
▁চ্যানেল	-4832
ization	-4833
িন্স	-4834
▁lot	-4835
▁grow	-4836
▁নেওযা়	-4837
▁ভাব	-4838
▁party	-4839
▁military	-4840
ভূমি	-4841
▁বাধ্য	-4842
▁refer	-4843
▁Sl	-4844
33	-4845
utes	-4846
iec	-4847
▁Rev	-4848
▁allow	-4849
▁জনসংখ্যার	-4850
▁বলেছেন	-4851
not	-4852
হা	-4853
▁Angel	-4854
▁যত	-4855
্ণ	-4856
▁Emp	-4857
মশুমার	-4858
ude	-4859
▁বোলিং	-4860
ঙ্গা	-4861
ামূলক	-4862
reed	-4863
▁রোড	-4864
▁change	-4865
78	-4866
▁received	-4867
▁21,	-4868
ract	-4869
ociation	-4870
লাইন	-4871
▁Div	-4872
▁সম্ভবত	-4873
▁এসেছে	-4874
▁মালিক	-4875
▁Sing	-4876
▁stat	-4877
aper	-4878
▁28,	-4879
▁pat	-4880
▁Scott	-4881
▁অ্যাপ	-4882
▁সমন্ব	-4883
▁represent	-4884
নীয়	-4885
▁কর্প	-4886
▁আদমশুমার	-4887
ti	-4888
লো	-4889
me	-4890
▁প্রতীক	-4891
ার্স	-4892
ified	-4893
▁Ben	-4894
▁Arab	-4895
▁দক্ষিণে	-4896
▁Kh	-4897
▁mount	-4898
▁Mary	-4899
▁50	-4900
▁Tom	-4901
▁Egypt	-4902
ering	-4903
▁Miss	-4904
▁সপ্তাহ	-4905
▁History	-4906
▁Sal	-4907
▁জ্ঞান	-4908
▁District	-4909
ুতি	-4910
▁exper	-4911
▁Flor	-4912
▁প্রাকৃতিক	-4913
▁With	-4914
▁keep	-4915
▁type	-4916
▁daught	-4917
ounds	-4918
▁অস্ত্র	-4919
িলে	-4920
ামো	-4921
▁musician	-4922
▁মনোনীত	-4923
▁Grand	-4924
ূর	-4925
▁বিদ্যমান	-4926
ini	-4927
▁টাকা	-4928
▁econom	-4929
▁এমনকি	-4930
্যাপী	-4931
▁প্রশিক্ষণ	-4932
▁host	-4933
▁2018	-4934
▁che	-4935
▁সংরক্ষণ	-4936
▁nov	-4937
ux	-4938
▁histor	-4939
চর	-4940
্জন	-4941
lection	-4942
iron	-4943
▁special	-4944
▁মাছ	-4945
▁lost	-4946
ites	-4947
▁ম্যাগ	-4948
▁ব্যর্থ	-4949
ither	-4950
টস	-4951
ched	-4952
▁7.	-4953
াবিদ	-4954
▁বাংলাদেশে	-4955
▁টুই	-4956
বার্ট	-4957
িশালী	-4958
▁আলোচনা	-4959
▁এটির	-4960
▁Soviet	-4961
▁নিয়োগ	-4962
▁নাটক	-4963
▁(,	-4964
▁side	-4965
▁23,	-4966
LO	-4967
raw	-4968
▁plays	-4969
▁সাংস্কৃতিক	-4970
হ্ম	-4971
▁পরাম	-4972
ano	-4973
▁leader	-4974
▁জীবনে	-4975
▁সমগ্র	-4976
মী	-4977
মাস	-4978
▁Iran	-4979
▁arch	-4980
▁তোমাকে	-4981
utch	-4982
▁সভাপতি	-4983
ended	-4984
▁ময়	-4985
্যান্স	-4986
▁এইচ	-4987
্টিক	-4988
▁এলাকার	-4989
▁প্রণ	-4990
▁Vir	-4991
্না	-4992
▁প্রথমে	-4993
▁wife	-4994
▁বিদ্যাল	-4995
▁যাদের	-4996
▁seat	-4997
▁feat	-4998
ডার	-4999
▁প্রস্তুত	-5000
▁Israel	-5001
রির	-5002
▁নিউজিল	-5003
be	-5004
▁social	-5005
▁শো	-5006
▁সোভ	-5007
▁আফ্রিক	-5008
48	-5009
reet	-5010
gin	-5011
▁পছ	-5012
▁দর্শন	-5013
উল	-5014
রূপে	-5015
atural	-5016
▁কর্তৃপক্ষ	-5017
avel	-5018
▁২০২২	-5019
▁Mag	-5020
াঙ্ক	-5021
▁arr	-5022
▁সম্প্রদায়ের	-5023
যুদ্ধের	-5024
গুলোতে	-5025
িলি	-5026
▁mer	-5027
▁similar	-5028
sy	-5029
▁Bec	-5030
য়্যার	-5031
▁Sim	-5032
less	-5033
▁প্রতিযোগিতা	-5034
▁data	-5035
▁engine	-5036
▁কৃত	-5037
▁stars	-5038
ীকরণ	-5039
▁গৌ	-5040
▁Mer	-5041
▁val	-5042
▁অনুমতি	-5043
জ্ঞানিক	-5044
েম্বরে	-5045
াউন	-5046
▁Richard	-5047
▁বাংলাদেশী	-5048
▁রং	-5049
overed	-5050
▁river	-5051
▁আয়োজন	-5052
▁কমান	-5053
▁night	-5054
▁1990	-5055
১৩	-5056
▁Africa	-5057
হু	-5058
াউন্ড	-5059
▁Democr	-5060
▁ইঞ্জিন	-5061
ৃদ্ধ	-5062
▁general	-5063
▁Oh	-5064
▁পদক	-5065
▁চন্দ্র	-5066
▁control	-5067
urt	-5068
olic	-5069
▁conf	-5070
▁করি	-5071
▁hold	-5072
াস্ক	-5073
▁কৃষ	-5074
১৯৬	-5075
োধন	-5076
১৪	-5077
▁২০০২	-5078
▁Arch	-5079
ষ্ট্রে	-5080
▁প্রতিষ্ঠাতা	-5081
▁মহিলাদের	-5082
▁international	-5083
urs	-5084
rip	-5085
▁পৃথিবীর	-5086
ধর	-5087
▁fire	-5088
▁ক্ষতি	-5089
▁অক্স	-5090
▁বিমানবন্দর	-5091
▁1997	-5092
▁সৈন্য	-5093
▁মন্ত্রণ	-5094
▁পাথ	-5095
▁কোষ	-5096
▁হ্রাস	-5097
▁বোম	-5098
্ষিক	-5099
▁Bill	-5100
iers	-5101
▁origin	-5102
ুয়ে	-5103
াগার	-5104
▁দান	-5105
▁transl	-5106
iction	-5107
ধানে	-5108
▁books	-5109
ords	-5110
রাস	-5111
▁strong	-5112
▁says	-5113
▁পার্ক	-5114
▁2015	-5115
▁বছরে	-5116
▁শক্তিশালী	-5117
65	-5118
FA	-5119
▁সফর	-5120
ys	-5121
▁সিংহ	-5122
নেট	-5123
াকি	-5124
বার্গ	-5125
uce	-5126
▁দেহ	-5127
▁hard	-5128
▁জাতি	-5129
▁Other	-5130
▁inf	-5131
▁point	-5132
াগুলি	-5133
▁শীত	-5134
ockey	-5135
▁ইউনিভার্সি	-5136
▁সাম্রাজ্যের	-5137
▁চ্যাম্পিয়নশিপ	-5138
▁ক্যার	-5139
▁জানুযা়র	-5140
য়েড	-5141
▁2011	-5142
▁read	-5143
যুগ	-5144
ani	-5145
্যোগ	-5146
35	-5147
াচার	-5148
▁প্লে	-5149
▁উঠ	-5150
▁Tex	-5151
▁উত্তরে	-5152
▁আহম	-5153
▁বিস	-5154
▁black	-5155
▁Academ	-5156
▁মিন	-5157
99	-5158
দানের	-5159
▁চেযা়রম্যান	-5160
liam	-5161
▁সার্ভ	-5162
▁গতি	-5163
ঘর	-5164
▁সুলতান	-5165
▁এখনও	-5166
▁ছড়িয়ে	-5167
▁Frank	-5168
সাধারণ	-5169
▁স্টেড	-5170
▁চক্র	-5171
mb	-5172
▁প্রায়শই	-5173
▁অর্ধ	-5174
ুরা	-5175
▁local	-5176
▁পরামর্শ	-5177
▁Del	-5178
গোল	-5179
▁লিখেছেন	-5180
ভে	-5181
াহিত	-5182
▁2007	-5183
▁জিতে	-5184
▁Peter	-5185
▁যুক্তরাজ	-5186
▁TV	-5187
▁যাই	-5188
উই	-5189
▁পাঞ্জ	-5190
St	-5191
arch	-5192
▁প্রেসিড	-5193
rican	-5194
▁এরা	-5195
▁plan	-5196
▁god	-5197
▁due	-5198
বিধান	-5199
▁অতির	-5200
itional	-5201
▁Just	-5202
▁১৯৯৬	-5203
▁journal	-5204
াধিকার	-5205
▁পুরো	-5206
▁আদাল	-5207
▁station	-5208
▁মুদ্র	-5209
উন্ড	-5210
▁2019	-5211
▁village	-5212
েতু	-5213
▁বিশাল	-5214
▁অস্ব	-5215
▁Mos	-5216
▁Christian	-5217
▁22	-5218
▁উপল	-5219
▁অম	-5220
▁ফলা	-5221
▁ন্যাশনাল	-5222
দেব	-5223
▁Hall	-5224
▁প্রতিযোগিতায়	-5225
▁cor	-5226
▁ইসলামী	-5227
▁বক্ত	-5228
▁something	-5229
olv	-5230
▁half	-5231
▁চাঁ	-5232
selves	-5233
▁হিম	-5234
▁অনুমোদ	-5235
▁সোভিয়েত	-5236
্রাট	-5237
▁led	-5238
urb	-5239
▁উচিত	-5240
liament	-5241
কারীদের	-5242
▁ইয়র্ক	-5243
▁ফেড	-5244
ura	-5245
▁বাস্তব	-5246
▁Lat	-5247
▁পাকিস্তানি	-5248
▁adv	-5249
ville	-5250
▁পরিষে	-5251
▁বিতর্ক	-5252
▁হক	-5253
▁টেক	-5254
▁পরিবর্তে	-5255
ুকে	-5256
াভাব	-5257
▁done	-5258
▁নিচে	-5259
though	-5260
▁22,	-5261
্যুৎ	-5262
ister	-5263
▁গত	-5264
.)	-5265
▁28	-5266
▁নেটওযা়র্ক	-5267
irth	-5268
▁describ	-5269
▁ইনস্টিটিউট	-5270
ষিত	-5271
▁আমির	-5272
▁taken	-5273
▁বাঙালি	-5274
▁Reason	-5275
▁সংস্কৃতি	-5276
▁ফের	-5277
▁স্বাক্ষ	-5278
▁দূরে	-5279
lic	-5280
▁songs	-5281
ময়	-5282
োসিয়ে	-5283
▁প্রান্ত	-5284
▁Question	-5285
▁নিয়মিত	-5286
▁সৃ	-5287
▁27,	-5288
্যাঙ্ক	-5289
view	-5290
▁মাইল	-5291
amm	-5292
▁সীমান্ত	-5293
▁fail	-5294
▁শেষে	-5295
▁Church	-5296
▁আব্দুল	-5297
▁লা	-5298
▁General	-5299
▁*	-5300
▁দাব	-5301
▁Met	-5302
▁win	-5303
ript	-5304
▁অধ্যয়ন	-5305
▁তাপমাত্র	-5306
▁ক্রম	-5307
▁পরবর্তীকালে	-5308
▁কুম	-5309
▁Gold	-5310
68	-5311
পদ	-5312
▁খাবার	-5313
▁পদে	-5314
▁little	-5315
▁অনুসরণ	-5316
▁পণ্য	-5317
▁পরিবহ	-5318
▁গ্যাস	-5319
▁located	-5320
▁১৯৮০	-5321
▁2008	-5322
read	-5323
▁সাদা	-5324
▁গুণ	-5325
▁fun	-5326
▁উদ্দেশ্য	-5327
lim	-5328
াজা	-5329
▁fact	-5330
▁information	-5331
ঙ্গে	-5332
▁রাখে	-5333
ograph	-5334
্যাত	-5335
stead	-5336
▁ওয়েবসাইট	-5337
ুরে	-5338
▁অবদান	-5339
▁187	-5340
▁comes	-5341
▁সবাই	-5342
▁Islam	-5343
রো	-5344
▁sex	-5345
▁একাডেমি	-5346
াচ্	-5347
ব্যাপী	-5348
▁পুরুষদের	-5349
ket	-5350
▁dise	-5351
▁modern	-5352
unt	-5353
িস্থ	-5354
▁১৯৯৯	-5355
কাশ	-5356
▁site	-5357
হেতু	-5358
ration	-5359
▁সামনে	-5360
▁Solution	-5361
▁বিশ্ববিদ্যালয়ে	-5362
াইপ	-5363
▁Dan	-5364
▁cell	-5365
▁award	-5366
▁সংখ্য	-5367
▁নেতৃত্বে	-5368
টু	-5369
▁সংযোগ	-5370
▁নৃত্য	-5371
cient	-5372
▁speak	-5373
▁try	-5374
৩০	-5375
▁দিয়েছে	-5376
শেষে	-5377
▁সংস্কৃত	-5378
▁|19	-5379
▁অংশে	-5380
▁might	-5381
▁অতিরিক্ত	-5382
▁ইংল্যান্ডের	-5383
▁আফগানিস্ত	-5384
▁বাহিনীর	-5385
▁African	-5386
▁artist	-5387
▁প্রকৃত	-5388
ills	-5389
টেন	-5390
▁পরের	-5391
াবল	-5392
▁di	-5393
▁ধীরে	-5394
stand	-5395
38	-5396
ops	-5397
▁week	-5398
ental	-5399
▁ভ্রমণ	-5400
▁talk	-5401
▁Wash	-5402
▁মিশ্র	-5403
▁2016	-5404
ached	-5405
▁কন্যা	-5406
aff	-5407
▁lives	-5408
▁groups	-5409
▁আইস	-5410
িসং	-5411
ারেশন	-5412
▁পক্ষ	-5413
▁Acc	-5414
▁যোগদান	-5415
▁Reasoning	-5416
▁ফিফ	-5417
▁দৃশ্য	-5418
▁হোসেন	-5419
▁আন্দোলনের	-5420
বিষ্য	-5421
▁original	-5422
▁iss	-5423
ত্ত্বেও	-5424
তল	-5425
▁ট্রেন	-5426
▁Summer	-5427
▁educ	-5428
▁নামেও	-5429
জান	-5430
▁island	-5431
21	-5432
go	-5433
▁1960	-5434
ন্দে	-5435
▁পশ্চিমে	-5436
47	-5437
gar	-5438
▁বজ	-5439
▁free	-5440
▁গভীর	-5441
ID	-5442
রম	-5443
িকের	-5444
নাট	-5445
▁জোর	-5446
▁et	-5447
▁Ir	-5448
ction	-5449
▁announced	-5450
▁Inter	-5451
দ্বীপ	-5452
▁সঠ	-5453
▁লডা়ই	-5454
▁আরেকটি	-5455
াধি	-5456
AR	-5457
▁Er	-5458
▁চিকিৎসা	-5459
▁স্বামী	-5460
▁ইন্ডিযা়	-5461
▁chem	-5462
▁Chic	-5463
▁Franc	-5464
পাল	-5465
▁সংজ্ঞ	-5466
▁চিকিৎস	-5467
itor	-5468
াপ্র	-5469
▁ভুল	-5470
▁শাখা	-5471
▁তৈরী	-5472
চন	-5473
িংস	-5474
নং	-5475
SS	-5476
tt	-5477
▁Sant	-5478
▁27	-5479
▁building	-5480
▁জানিয়ে	-5481
▁Cath	-5482
▁FLO	-5483
▁Stud	-5484
▁Law	-5485
▁Earth	-5486
▁produced	-5487
▁Vol	-5488
▁দৈর্ঘ	-5489
▁সিনেম	-5490
▁হেল	-5491
▁১৯৭০	-5492
সভার	-5493
eace	-5494
▁ধরা	-5495
▁1996	-5496
ention	-5497
▁সংগীত	-5498
ীকে	-5499
লস	-5500
itzer	-5501
তাবাদ	-5502
▁east	-5503
peror	-5504
▁একাডেম	-5505
▁College	-5506
▁40	-5507
ined	-5508
▁সমান	-5509
্নি	-5510
▁2013	-5511
▁স্ল	-5512
▁সরকারী	-5513
ুরের	-5514
▁%	-5515
▁মর্য	-5516
▁upon	-5517
ঞ্চলিক	-5518
▁পার্টির	-5519
▁ইতাল	-5520
▁Spain	-5521
দ্বন্দ্ব	-5522
▁Av	-5523
▁bi	-5524
▁নম	-5525
▁cost	-5526
▁মন্ত্র	-5527
▁সেনাবাহিনী	-5528
oz	-5529
odes	-5530
▁হাজ	-5531
▁Bang	-5532
▁able	-5533
▁১৮৭	-5534
▁problems	-5535
▁girl	-5536
atory	-5537
▁ভবিষ্য	-5538
▁ওযা়র্ড	-5539
শাক	-5540
37	-5541
ল্ল	-5542
▁Turk	-5543
▁কমিশন	-5544
াদী	-5545
▁স্থায়ী	-5546
▁নির্ধারণ	-5547
▁pain	-5548
▁করুন	-5549
▁producer	-5550
▁পরিচয়	-5551
▁mult	-5552
stitution	-5553
সান	-5554
rama	-5555
▁তুর্ক	-5556
▁পর্যবে	-5557
▁process	-5558
্ঠ	-5559
aud	-5560
াসে	-5561
▁হাউ	-5562
্লেষণ	-5563
াকাল	-5564
▁real	-5565
তিক্রম	-5566
board	-5567
atives	-5568
▁১৯৯১	-5569
▁Him	-5570
Ch	-5571
▁viol	-5572
▁rights	-5573
▁ব্যাপারে	-5574
▁সংস্কার	-5575
ibr	-5576
ender	-5577
আন	-5578
▁নিহত	-5579
▁late	-5580
▁রাজবং	-5581
▁independ	-5582
ayer	-5583
▁উক্ত	-5584
▁পোস্ট	-5585
▁স্বীকৃতি	-5586
▁Paris	-5587
▁Official	-5588
▁x	-5589
▁Thomas	-5590
ীরের	-5591
lected	-5592
▁title	-5593
মত	-5594
্কে	-5595
ights	-5596
▁মিশর	-5597
েলের	-5598
▁Island	-5599
দর্শন	-5600
▁সৌদি	-5601
▁Governor	-5602
▁সম্রাট	-5603
▁wanted	-5604
67	-5605
eds	-5606
ফে	-5607
eph	-5608
▁অবসর	-5609
errit	-5610
▁প্রতিরোধ	-5611
▁সম্প্রদায়	-5612
▁বিরোধী	-5613
▁প্রচে	-5614
ঠি	-5615
▁Cong	-5616
ona	-5617
▁police	-5618
lant	-5619
▁রু	-5620
▁effect	-5621
▁সাধ	-5622
▁কৃষি	-5623
য়েন্ট	-5624
েনীয়	-5625
▁joined	-5626
95	-5627
▁বাগ	-5628
▁Cast	-5629
olf	-5630
▁1980	-5631
▁এসব	-5632
adu	-5633
াদশ	-5634
▁পাত	-5635
▁(201	-5636
▁প্রয়োজনীয়	-5637
cher	-5638
▁চূডা়ন্ত	-5639
ming	-5640
▁ব্রহ্ম	-5641
▁শিল্পী	-5642
▁changed	-5643
▁Washington	-5644
সম্যান	-5645
wood	-5646
▁আচ	-5647
▁অবস্থা	-5648
22	-5649
▁লিগ	-5650
▁আয়তন	-5651
োগ্রাফ	-5652
▁বেগ	-5653
▁অভিনয়ের	-5654
▁Dutch	-5655
য়িক	-5656
▁বিষয়ক	-5657
▁আবিষ্কার	-5658
▁৪০	-5659
▁Mov	-5660
▁দুইটি	-5661
98	-5662
▁জ্যো	-5663
yr	-5664
▁শিক্ষার	-5665
▁formed	-5666
▁অধিন	-5667
▁জমিদার	-5668
▁আফ্রিকা	-5669
▁মন্ত	-5670
imate	-5671
▁অক্ষ	-5672
▁ins	-5673
▁প্রোগ্রাম	-5674
▁Cal	-5675
▁sure	-5676
▁Academy	-5677
▁কালো	-5678
▁সড়ক	-5679
▁আঞ্চলিক	-5680
aker	-5681
▁Russia	-5682
▁গভর্ন	-5683
াহ্ম	-5684
▁স্টি	-5685
চ্ছিন্ন	-5686
▁white	-5687
▁Empire	-5688
▁certain	-5689
▁কবিতা	-5690
▁পিছ	-5691
▁Chicago	-5692
▁চীন	-5693
মেন	-5694
▁full	-5695
▁হো	-5696
▁match	-5697
▁ra	-5698
াযা়র	-5699
▁আওযা়	-5700
▁নাট্য	-5701
শনের	-5702
ক্ষিপ্ত	-5703
ogn	-5704
করা	-5705
▁26	-5706
▁উদ্ধ	-5707
গাঁ	-5708
টিল	-5709
▁সুন্দর	-5710
▁poet	-5711
▁elected	-5712
▁উন্নত	-5713
▁Dis	-5714
iga	-5715
▁চীনা	-5716
▁জায়গ	-5717
▁sett	-5718
িদের	-5719
▁non	-5720
▁having	-5721
▁2012	-5722
la	-5723
▁প্রতিদ্বন্দ্ব	-5724
▁learn	-5725
▁185	-5726
▁বিধ	-5727
ently	-5728
▁z	-5729
cast	-5730
▁Jew	-5731
▁খুঁজে	-5732
▁দিয়েছেন	-5733
▁hon	-5734
▁pun	-5735
ভেন	-5736
▁cal	-5737
▁ফাইন	-5738
▁পাস	-5739
▁পোল	-5740
oud	-5741
য়েশ	-5742
ita	-5743
▁খাল	-5744
▁scient	-5745
▁গ্রামের	-5746
▁Greek	-5747
ably	-5748
order	-5749
▁shows	-5750
ems	-5751
ada	-5752
ength	-5753
ফোর্ড	-5754
▁today	-5755
▁স্বাক্ষর	-5756
্রমে	-5757
uke	-5758
▁মজ	-5759
▁তাঁকে	-5760
▁incre	-5761
▁মুহাম্ম	-5762
▁যুক্তরাষ্ট্রে	-5763
▁উন্ম	-5764
▁মিথ	-5765
সাথে	-5766
▁প্যা	-5767
▁states	-5768
▁কেন্দ্রের	-5769
বাম	-5770
▁কোটি	-5771
গুলোকে	-5772
▁খার	-5773
▁Since	-5774
ঢ়	-5775
▁Dev	-5776
▁হয়েছেন	-5777
gian	-5778
য়নে	-5779
▁Army	-5780
▁Henry	-5781
▁মেডিক	-5782
▁Che	-5783
▁paint	-5784
▁প্রজাতির	-5785
াব্লিউ	-5786
iding	-5787
▁মাসের	-5788
▁কৌশল	-5789
▁i	-5790
▁woman	-5791
▁এশিযা়	-5792
ston	-5793
▁Year	-5794
▁words	-5795
্বল	-5796
▁মঞ্চ	-5797
▁নিরাপত্তা	-5798
▁though	-5799
▁পাহাড়	-5800
টিভ	-5801
▁Not	-5802
▁ব্যবহারের	-5803
▁বী	-5804
▁কোযা়	-5805
▁daughter	-5806
নির	-5807
▁আসলে	-5808
alls	-5809
▁রক্ষা	-5810
▁Mac	-5811
▁community	-5812
▁infl	-5813
▁love	-5814
▁শিল	-5815
হাট	-5816
▁বিজয়	-5817
ropical	-5818
aps	-5819
li	-5820
খণ্ড	-5821
ination	-5822
▁media	-5823
▁2009	-5824
▁port	-5825
▁pay	-5826
ডে	-5827
নিষ্ঠ	-5828
▁প্রকার	-5829
▁ডলার	-5830
▁হুম	-5831
চনার	-5832
▁তোমাদের	-5833
▁civil	-5834
▁সর্বশেষ	-5835
▁Who	-5836
▁result	-5837
▁within	-5838
▁বেন	-5839
▁dead	-5840
▁field	-5841
oms	-5842
▁যথে	-5843
▁আয়োজ	-5844
▁অভিজ্ঞ	-5845
▁সোন	-5846
▁আদর্শ	-5847
▁যেহেতু	-5848
bel	-5849
▁playing	-5850
▁মাত	-5851
▁ক্যাপ	-5852
▁মন্ত্রী	-5853
▁hours	-5854
▁ক্যাম্প	-5855
▁guitar	-5856
▁যাচ্ছে	-5857
োরে	-5858
▁বিস্তার	-5859
▁ভর্তি	-5860
ying	-5861
▁Cont	-5862
▁capt	-5863
ands	-5864
▁Olympics	-5865
ima	-5866
ার্ট	-5867
াইস	-5868
▁১৯৯৮	-5869
ning	-5870
ওয়্যার	-5871
▁ey	-5872
▁sea	-5873
▁বোন	-5874
▁পত্রিকা	-5875
▁স্যার	-5876
▁পরিস্থ	-5877
vious	-5878
োকে	-5879
color	-5880
▁আগ্রহ	-5881
idge	-5882
▁এক্সপ	-5883
▁মহান	-5884
▁কের	-5885
▁সংরক্ষিত	-5886
▁Los	-5887
▁ship	-5888
▁৩১	-5889
▁সন	-5890
▁destroy	-5891
াসা	-5892
ately	-5893
▁কলেজে	-5894
▁আক্রান্ত	-5895
▁defe	-5896
46	-5897
▁পছন্দ	-5898
36	-5899
▁ছাডা়ও	-5900
টর	-5901
▁1995	-5902
▁far	-5903
▁প্রভাবিত	-5904
▁Green	-5905
ellow	-5906
▁ব্যবস্থাপ	-5907
▁আফ্রিকার	-5908
▁net	-5909
▁prison	-5910
▁পশ	-5911
▁191	-5912
▁conc	-5913
▁১৯৬০	-5914
বাড়	-5915
▁Wil	-5916
bor	-5917
▁dam	-5918
cle	-5919
কুমার	-5920
▁বাংলার	-5921
▁প্রজাতি	-5922
দর্শ	-5923
াচল	-5924
▁নিয়ন্ত্র	-5925
মিন	-5926
▁অভিব	-5927
মুখ	-5928
▁বন্দর	-5929
▁ব্রাহ্ম	-5930
▁level	-5931
▁স্তর	-5932
▁areas	-5933
▁জয়লাভ	-5934
itch	-5935
▁খ্রিস্টপূর্ব	-5936
▁সংক্রান্ত	-5937
ৈত	-5938
▁style	-5939
১১	-5940
▁স্কুলে	-5941
itter	-5942
▁aut	-5943
–20	-5944
▁eat	-5945
বিত্র	-5946
▁আলোক	-5947
▁মুর	-5948
▁লিঙ্গ	-5949
▁অল্প	-5950
▁Council	-5951
hest	-5952
za	-5953
▁final	-5954
▁সম্মেল	-5955
▁যাকে	-5956
serv	-5957
▁above	-5958
▁Ol	-5959
▁অন্যদিকে	-5960
রাষ্ট্র	-5961
▁চি	-5962
▁tre	-5963
▁Central	-5964
used	-5965
▁সংক্ষিপ্ত	-5966
▁Royal	-5967
▁প্রতিক্রিযা়	-5968
▁কমপ	-5969
াজন	-5970
২৩	-5971
▁মেল	-5972
field	-5973
▁পডা়শোনা	-5974
▁সাম্প্র	-5975
▁রেজ	-5976
▁techn	-5977
epar	-5978
বিজ্ঞ	-5979
)-	-5980
▁working	-5981
▁গ্রীষ্ম	-5982
▁শিরোন	-5983
▁includes	-5984
▁ভি	-5985
▁conn	-5986
▁ইল	-5987
▁দাস	-5988
▁মুক্তিয	-5989
▁যথেষ্ট	-5990
▁তিব	-5991
▁জায়গা	-5992
েরণ	-5993
▁ইউনিভার্সিটি	-5994
▁বিক্ষ	-5995
কান	-5996
▁পাঁচটি	-5997
ators	-5998
ansas	-5999
সভ	-6000
▁requ	-6001
▁bad	-6002
urd	-6003
ান্য	-6004
▁গিয়েছিল	-6005
▁boy	-6006
▁novel	-6007
▁Vict	-6008
▁places	-6009
▁composer	-6010
ফের	-6011
–200	-6012
▁case	-6013
▁animals	-6014
▁পাওযা়র	-6015
▁ভূমিকায়	-6016
▁সেবা	-6017
িমা	-6018
▁উইলিযা়ম	-6019
য়দ	-6020
▁Up	-6021
▁শেষের	-6022
▁অজ	-6023
▁ওযা়র্ল্ড	-6024
▁female	-6025
aign	-6026
্যতা	-6027
▁Rock	-6028
▁পরিষেবা	-6029
বিতে	-6030
hemat	-6031
▁এত	-6032
rong	-6033
▁Mu	-6034
োনেশ	-6035
▁news	-6036
▁আকর্ষণ	-6037
▁squ	-6038
২১	-6039
asons	-6040
▁29	-6041
▁গানের	-6042
ols	-6043
▁যাত্রা	-6044
▁List	-6045
ato	-6046
▁sil	-6047
▁সেক	-6048
▁বেড়ে	-6049
▁except	-6050
gent	-6051
▁চীনের	-6052
▁মেট্র	-6053
▁হস্ত	-6054
49	-6055
▁Ver	-6056
▁Pet	-6057
▁students	-6058
▁শারীর	-6059
শাস	-6060
▁nomin	-6061
▁always	-6062
▁জ্যোতি	-6063
▁অস্ট্রেলিযা়র	-6064
▁১৮৬	-6065
সংখ্য	-6066
▁লম্ব	-6067
▁least	-6068
নগর	-6069
▁যেন	-6070
▁রক্ষণ	-6071
||0||1	-6072
▁লীগ	-6073
িসংঘ	-6074
▁সত	-6075
▁(196	-6076
▁cy	-6077
▁আঘাত	-6078
ডা়য়	-6079
▁প্রার্থী	-6080
▁Rob	-6081
yd	-6082
▁নাই	-6083
▁mostly	-6084
▁কর্পোর	-6085
পন	-6086
▁খুবই	-6087
▁বিহার	-6088
▁Now	-6089
মানের	-6090
▁উসমান	-6091
▁eas	-6092
▁pres	-6093
োসাই	-6094
কারি	-6095
▁Ever	-6096
oto	-6097
39	-6098
▁studio	-6099
▁প্রচুর	-6100
▁cause	-6101
ার্ড	-6102
▁White	-6103
▁উপজাত	-6104
▁office	-6105
icles	-6106
ুরুর	-6107
▁জেম	-6108
▁প্রদর্শ	-6109
তাব	-6110
▁appeared	-6111
fect	-6112
▁মধ	-6113
কীয়	-6114
▁Star	-6115
▁Mic	-6116
▁test	-6117
▁মৌলিক	-6118
▁এজ	-6119
াইভ	-6120
▁মুজ	-6121
▁বলেছিলেন	-6122
▁ব্রাজ	-6123
▁সচ	-6124
োযা়র	-6125
▁থাকবে	-6126
▁১৯৯৭	-6127
itzerland	-6128
▁Association	-6129
▁wind	-6130
▁surv	-6131
▁ওই	-6132
ভাগের	-6133
▁কিমি	-6134
▁included	-6135
▁বার্ষিক	-6136
▁ব্যক্তির	-6137
ষে	-6138
▁বেসর	-6139
▁told	-6140
▁ইতি	-6141
▁mass	-6142
▁লিমি	-6143
▁1993	-6144
▁Zeal	-6145
ta	-6146
▁Texas	-6147
▁উদ্যোগ	-6148
▁কিংবা	-6149
কালের	-6150
াপের	-6151
ত্বের	-6152
জিক	-6153
▁ap	-6154
rial	-6155
▁পেয়েছে	-6156
▁কেন্দ্রটি	-6157
োর্ন	-6158
ón	-6159
▁জাদু	-6160
▁mix	-6161
সারিত	-6162
▁নোব	-6163
▁Super	-6164
▁Western	-6165
▁BC	-6166
দু	-6167
ware	-6168
িরে	-6169
▁ভিত্তিতে	-6170
▁সহজ	-6171
▁শতাব্দীতে	-6172
▁Hum	-6173
▁color	-6174
▁লোকসভা	-6175
▁যথ	-6176
▁ক্যাম	-6177
▁ভিত্তিক	-6178
▁প্রত্যেক	-6179
▁বাড়িতে	-6180
▁sit	-6181
৪০	-6182
▁mess	-6183
▁meet	-6184
▁জাতিসংঘ	-6185
▁ইভ	-6186
▁ইউন	-6187
▁Zealand	-6188
▁Fin	-6189
eh	-6190
▁Switzerland	-6191
্রয়	-6192
lement	-6193
▁Catal	-6194
▁CO	-6195
||5	-6196
sw	-6197
▁পোশাক	-6198
ীযা়	-6199
ণে	-6200
stitute	-6201
▁হিন্দি	-6202
▁জটিল	-6203
▁উদ্ভিদ	-6204
▁অস্ত	-6205
▁ব্যাটসম্যান	-6206
▁Pre	-6207
▁bar	-6208
▁players	-6209
▁0	-6210
▁move	-6211
▁কার্যকর	-6212
ted	-6213
▁নকশা	-6214
▁ক্ষুদ্র	-6215
▁মৃত	-6216
ological	-6217
ota	-6218
▁whom	-6219
▁কংগ্রে	-6220
oor	-6221
▁সুবিধা	-6222
▁Are	-6223
▁Our	-6224
▁Wind	-6225
তত্ত্ব	-6226
▁Tor	-6227
▁জিম	-6228
itan	-6229
রীণ	-6230
▁ঠাক	-6231
ecut	-6232
▁months	-6233
▁কত	-6234
▁amount	-6235
▁cand	-6236
▁disease	-6237
▁Catholic	-6238
▁conv	-6239
gg	-6240
▁Carol	-6241
প্রাণ	-6242
▁ভৌ	-6243
▁কর্মকর্তা	-6244
▁খর	-6245
▁খুল	-6246
▁1994	-6247
▁হাসান	-6248
abor	-6249
▁রয়ে	-6250
▁পরিসং	-6251
▁himself	-6252
▁ফিলিপ	-6253
▁Because	-6254
▁App	-6255
kn	-6256
▁languages	-6257
▁ধর্মের	-6258
▁1970	-6259
ects	-6260
সমূহের	-6261
▁তরুণ	-6262
airs	-6263
▁ফলাফল	-6264
▁সিক	-6265
▁minutes	-6266
▁সম্প্রচার	-6267
জনক	-6268
▁Women	-6269
orpor	-6270
▁job	-6271
acher	-6272
▁piec	-6273
wh	-6274
▁phil	-6275
ternet	-6276
▁অ্যাম	-6277
টল	-6278
▁Virgin	-6279
▁ব্যক্তিত্ব	-6280
▁পৌঁছ	-6281
▁ছবিটি	-6282
▁লিমিটেড	-6283
▁কঠিন	-6284
▁অন্ধ	-6285
▁বিদ্যুৎ	-6286
২২	-6287
▁ব্যবসায়	-6288
iy	-6289
▁Sat	-6290
gcolor	-6291
র্প	-6292
▁ইতিহাসে	-6293
▁Ec	-6294
▁ওঠ	-6295
▁১৯৯২	-6296
▁অনেকে	-6297
▁সাম্রাজ্য	-6298
▁cop	-6299
ends	-6300
▁past	-6301
হে	-6302
▁পার্থক্য	-6303
rd	-6304
▁সার্ব	-6305
▁শ্ব	-6306
লাই	-6307
▁trib	-6308
▁Hel	-6309
▁পেয়েছিলেন	-6310
▁আদমশুমারি	-6311
▁তারিখ	-6312
▁পরিসংখ্যান	-6313
▁এখান	-6314
▁প্রজাতন্ত্র	-6315
▁ঘণ	-6316
ances	-6317
▁sound	-6318
▁friends	-6319
ামার	-6320
প্রথম	-6321
▁হবার	-6322
▁সীম	-6323
েন্টের	-6324
▁takes	-6325
▁themselves	-6326
গণের	-6327
▁কাছাকা	-6328
gen	-6329
▁whe	-6330
▁gold	-6331
সারণ	-6332
▁বৈদ	-6333
▁রাখতে	-6334
mar	-6335
||||||||	-6336
rey	-6337
▁almost	-6338
▁separ	-6339
বীন্দ্র	-6340
▁স্বর্ণ	-6341
▁আদেশ	-6342
বিদ্যা	-6343
▁fish	-6344
▁UK	-6345
▁ওর	-6346
বাদের	-6347
▁টিভি	-6348
▁Their	-6349
roll	-6350
▁considered	-6351
▁শিখ	-6352
▁হ্র	-6353
▁lik	-6354
▁পাশে	-6355
heast	-6356
▁ভো	-6357
Amer	-6358
্কার	-6359
▁হারিয়ে	-6360
▁কাছাকাছি	-6361
''	-6362
▁Ok	-6363
▁তিব্ব	-6364
▁প্রার্থ	-6365
▁Music	-6366
▁শিরোপা	-6367
▁project	-6368
▁জ্যাক	-6369
▁সেনাবাহিনীর	-6370
▁cities	-6371
44	-6372
▁Carl	-6373
itive	-6374
▁রাখার	-6375
▁বিষ্ণ	-6376
▁পৌরসভা	-6377
▁key	-6378
▁সংস্থার	-6379
▁কিশোর	-6380
▁কোড	-6381
▁বেঁ	-6382
▁1992	-6383
▁computer	-6384
▁কাঁ	-6385
ব্লিউ	-6386
▁ঐতিহ্যবাহী	-6387
ube	-6388
▁ang	-6389
▁tour	-6390
▁Sur	-6391
ব্ধ	-6392
ানু	-6393
ederal	-6394
▁Us	-6395
▁ডিভ	-6396
▁Mexico	-6397
▁জনগণ	-6398
▁birth	-6399
থার	-6400
▁cannot	-6401
▁অগ	-6402
iger	-6403
▁prop	-6404
▁সিরিজের	-6405
▁ফিফা	-6406
ique	-6407
▁অনুশীল	-6408
▁কাহিনী	-6409
রিং	-6410
▁বাণিজ্যিক	-6411
▁অধি	-6412
য়েন	-6413
▁পরিম	-6414
▁বিবেচিত	-6415
▁treat	-6416
anda	-6417
▁Francis	-6418
▁Sol	-6419
lor	-6420
▁Mel	-6421
▁পরিবহন	-6422
▁ইলেক	-6423
▁বিক্রি	-6424
▁ice	-6425
▁low	-6426
েশ্বর	-6427
▁বস্তু	-6428
ায়নিক	-6429
সম্প	-6430
▁stay	-6431
och	-6432
gress	-6433
▁কক্ষ	-6434
▁১৯৭২	-6435
▁uses	-6436
▁মুম্ব	-6437
▁গুলি	-6438
▁Je	-6439
iana	-6440
▁আসা	-6441
lete	-6442
▁Jer	-6443
▁সায়	-6444
▁Secret	-6445
▁পবিত্র	-6446
ending	-6447
▁আনন্দ	-6448
ador	-6449
▁একবার	-6450
▁বিপরীতে	-6451
▁সৈয়দ	-6452
▁অ্যাসোসিয়ে	-6453
inner	-6454
▁বোঝায়	-6455
eball	-6456
রস	-6457
▁স্টার	-6458
বর্তমান	-6459
itiz	-6460
ষিদ্ধ	-6461
▁করবেন	-6462
▁Min	-6463
▁bird	-6464
▁সঠিক	-6465
▁ইন্দোনেশ	-6466
▁পথে	-6467
▁eight	-6468
▁পরিব	-6469
▁শুরুতে	-6470
aliz	-6471
▁across	-6472
uf	-6473
urity	-6474
▁কীভাবে	-6475
▁hit	-6476
annel	-6477
ien	-6478
asc	-6479
▁mot	-6480
▁রেডিও	-6481
▁ছবিতে	-6482
acing	-6483
▁পর্যবেক্ষণ	-6484
▁Nob	-6485
▁enough	-6486
▁সত্ত্বেও	-6487
পুরের	-6488
▁ঘরোযা়	-6489
arian	-6490
▁Center	-6491
▁ইসলামি	-6492
▁view	-6493
▁object	-6494
▁অর্থনীতি	-6495
▁বহন	-6496
ড়ের	-6497
▁establish	-6498
▁আহমদ	-6499
২৫	-6500
▁once	-6501
▁সাদ	-6502
ctor	-6503
▁কাউন্সিল	-6504
▁race	-6505
▁Ann	-6506
▁আমেরিকার	-6507
ত্রের	-6508
▁Commun	-6509
▁service	-6510
▁ভয়	-6511
▁সাফল	-6512
▁সম্ব	-6513
▁টাইম	-6514
reland	-6515
▁কাউন্টি	-6516
ams	-6517
ছিলাম	-6518
▁সোসাই	-6519
শব	-6520
▁vot	-6521
▁এগ	-6522
▁Sir	-6523
▁comb	-6524
▁claim	-6525
েক্ষা	-6526
mad	-6527
▁সংবাদপত্র	-6528
▁অধিব	-6529
▁গণিত	-6530
▁আল্লাহ	-6531
enth	-6532
▁coach	-6533
▁center	-6534
▁নিষিদ্ধ	-6535
▁--	-6536
▁চায়	-6537
%,	-6538
▁আঁ	-6539
▁রাখেন	-6540
▁Asia	-6541
দল	-6542
১৯৫	-6543
▁bgcolor	-6544
▁natural	-6545
▁ভূমি	-6546
▁তালিকায়	-6547
▁হোম	-6548
▁প্রব	-6549
▁ইন্টারন	-6550
osop	-6551
uced	-6552
▁Sweden	-6553
iles	-6554
▁শহীদ	-6555
▁তম	-6556
▁ডিম	-6557
▁তুর	-6558
▁ill	-6559
,"	-6560
anton	-6561
cel	-6562
▁becomes	-6563
▁vict	-6564
▁স্ট্র	-6565
▁অবশ্যই	-6566
88	-6567
▁দিল	-6568
ফিল	-6569
হোক	-6570
elling	-6571
▁তোমরা	-6572
▁Province	-6573
▁Ma	-6574
▁প্রশ্ন	-6575
▁কর্মজীব	-6576
▁কাব	-6577
ped	-6578
▁অনুমান	-6579
▁রবীন্দ্র	-6580
▁Victor	-6581
ইল	-6582
ষ্ঠীর	-6583
▁শিক্ষার্থ	-6584
▁Joseph	-6585
American	-6586
kr	-6587
▁leave	-6588
▁Museum	-6589
▁Angeles	-6590
▁পাই	-6591
▁যুগের	-6592
▁জলবায়	-6593
▁According	-6594
▁খে	-6595
▁Ill	-6596
▁Mod	-6597
▁road	-6598
▁broad	-6599
▁Ireland	-6600
ভঙ্গ	-6601
▁পাঞ্জাব	-6602
ামি	-6603
▁Jul	-6604
▁কর্ণ	-6605
▁একত্র	-6606
adesh	-6607
ransp	-6608
চা	-6609
like	-6610
ালার	-6611
▁বৈজ্ঞানিক	-6612
▁কল্প	-6613
iqu	-6614
▁1.5	-6615
▁Bay	-6616
লেট	-6617
val	-6618
▁ঘটনার	-6619
▁আর্ম	-6620
▁blood	-6621
▁বিশ্লেষণ	-6622
bon	-6623
▁তথা	-6624
▁কমে	-6625
▁influ	-6626
ado	-6627
েনা	-6628
▁why	-6629
োরি	-6630
মূহ	-6631
▁জ্ব	-6632
▁দিবস	-6633
ements	-6634
▁অসু	-6635
▁60	-6636
▁distrib	-6637
▁Cor	-6638
▁পাবলিক	-6639
▁army	-6640
▁sour	-6641
োরা	-6642
pec	-6643
=#	-6644
▁হর	-6645
ils	-6646
▁১৯৯৫	-6647
▁ক্লাবের	-6648
▁ট্রান্স	-6649
বাচ	-6650
▁Battle	-6651
▁সিলেট	-6652
▁ফেস	-6653
াকালীন	-6654
স্তি	-6655
▁1991	-6656
▁এগুলো	-6657
ola	-6658
cean	-6659
▁প্রাণী	-6660
▁মিডিযা়	-6661
▁রুশ	-6662
▁চালিয়ে	-6663
ফর্ম	-6664
▁Mass	-6665
▁teams	-6666
▁কলেজের	-6667
▁হ্যার	-6668
পুঞ্জ	-6669
▁খেলোযা়ড়ী	-6670
known	-6671
▁aver	-6672
▁অবি	-6673
▁track	-6674
▁circ	-6675
▁Muslim	-6676
▁indust	-6677
▁Prize	-6678
▁খণ্ড	-6679
াভাবিক	-6680
াক্রমে	-6681
play	-6682
agon	-6683
▁cast	-6684
▁ভর	-6685
het	-6686
▁close	-6687
▁press	-6688
▁রেলপথ	-6689
▁administ	-6690
▁বিচ্ছিন্ন	-6691
▁ত্যাগ	-6692
▁কোচ	-6693
ground	-6694
র্নাম	-6695
▁জায়গায়	-6696
▁Nav	-6697
▁আরবি	-6698
▁radio	-6699
▁brought	-6700
▁বরং	-6701
িন্দু	-6702
▁অভিযান	-6703
▁Fr	-6704
জু	-6705
াধান	-6706
▁Web	-6707
▁ten	-6708
▁কলকাতার	-6709
iro	-6710
▁ইচ্ছ	-6711
▁১৯৯৪	-6712
▁pri	-6713
▁ভিত	-6714
34	-6715
band	-6716
▁সংসদের	-6717
▁নির্মাণের	-6718
▁তাদেরকে	-6719
্টিন	-6720
্যাড	-6721
▁Gar	-6722
▁sug	-6723
▁অণ	-6724
▁মুখ্য	-6725
▁Lo	-6726
▁প্রথমবারের	-6727
▁prob	-6728
▁creat	-6729
ume	-6730
ধীন	-6731
abit	-6732
▁অস্থ	-6733
▁পট	-6734
▁forces	-6735
▁রাসায়নিক	-6736
sych	-6737
▁১৯৫০	-6738
্যুত	-6739
▁রিস	-6740
▁Ap	-6741
▁ইসলামের	-6742
oub	-6743
edia	-6744
েক্টর	-6745
▁নোবেল	-6746
▁Love	-6747
▁১৯৯৩	-6748
ua	-6749
▁proper	-6750
▁মৃত্যুব	-6751
▁গুজ	-6752
িয়েটার	-6753
bers	-6754
▁study	-6755
▁দিনের	-6756
ih	-6757
▁নী	-6758
ready	-6759
াইয়ের	-6760
▁বিষয়টি	-6761
▁গি	-6762
▁যৌথ	-6763
▁journalist	-6764
▁মানে	-6765
প্রকাশ	-6766
▁developed	-6767
▁Two	-6768
▁গোল্ড	-6769
▁arrest	-6770
▁instead	-6771
▁ইন্ডিযা়ন	-6772
▁গ্যাল	-6773
কন	-6774
শি	-6775
▁Ham	-6776
▁Well	-6777
▁Kn	-6778
▁Lee	-6779
▁Mark	-6780
▁lim	-6781
▁রাজশ	-6782
elebr	-6783
▁স্বতন্ত্র	-6784
▁31,	-6785
▁ন্যায়	-6786
▁Division	-6787
ালয়ের	-6788
olk	-6789
▁কর্মী	-6790
▁বৃত্ত	-6791
66	-6792
aka	-6793
▁সাঁ	-6794
▁সম্ভাব	-6795
▁Bo	-6796
▁অস্তিত্ব	-6797
ঠের	-6798
awa	-6799
ুচ	-6800
unk	-6801
▁drama	-6802
ament	-6803
▁various	-6804
▁bring	-6805
55	-6806
▁সমাধান	-6807
সিল	-6808
▁Rad	-6809
▁feel	-6810
▁Awards	-6811
▁বিলুপ্ত	-6812
নাকে	-6813
▁meas	-6814
▁Queen	-6815
▁ব্যাটিং	-6816
োলার	-6817
▁stage	-6818
▁Scot	-6819
▁নিউজিল্যান্ড	-6820
▁plant	-6821
▁অবল	-6822
▁offic	-6823
cul	-6824
াবদ্ধ	-6825
▁মেডিকেল	-6826
▁লীগের	-6827
▁শাস্ত	-6828
▁Film	-6829
77	-6830
হুদি	-6831
পে	-6832
বস্ত	-6833
ulf	-6834
▁Sun	-6835
পাডা়	-6836
▁voc	-6837
▁দলটি	-6838
ketball	-6839
▁নজর	-6840
▁কিনা	-6841
▁jud	-6842
▁Court	-6843
▁মৃত্যুবরণ	-6844
ীব্র	-6845
oke	-6846
▁III	-6847
▁Life	-6848
▁episode	-6849
লায়	-6850
ospital	-6851
▁ব্যবসা	-6852
olved	-6853
▁Argent	-6854
▁Football	-6855
▁কৌ	-6856
▁Democratic	-6857
িডি	-6858
viron	-6859
▁ডার	-6860
▁studied	-6861
▁স্টেডিযা়ম	-6862
ny	-6863
▁শূ	-6864
▁complet	-6865
▁স্ট্রি	-6866
▁চাষ	-6867
▁Prince	-6868
▁Bu	-6869
▁দিনে	-6870
ider	-6871
▁পিত	-6872
itz	-6873
▁ইসরা	-6874
▁বিকাশ	-6875
▁হৃ	-6876
ores	-6877
▁অষ্ট	-6878
▁বার্ত	-6879
▁Olympic	-6880
▁প্রিম	-6881
▁শাসক	-6882
পন্থ	-6883
▁অভ্যন্তরীণ	-6884
▁অস	-6885
প্রদেশ	-6886
▁ইন্ডিজ	-6887
তান্ত্রিক	-6888
য়োগ	-6889
▁ye	-6890
▁ener	-6891
▁এভাবে	-6892
▁Congress	-6893
aterial	-6894
▁Martin	-6895
সিংহ	-6896
▁Your	-6897
▁নাইট	-6898
In	-6899
▁Camp	-6900
▁খ্রিস্টান	-6901
▁ভিক	-6902
ৃণ	-6903
▁exist	-6904
্লি	-6905
▁health	-6906
);	-6907
োদ্ধা	-6908
▁model	-6909
ictures	-6910
▁রক্ষ	-6911
owers	-6912
▁fall	-6913
▁নিয়ম	-6914
oci	-6915
▁either	-6916
▁2021	-6917
▁১৯৮৬	-6918
র্বল	-6919
▁happ	-6920
▁উপত্য	-6921
▁southern	-6922
ella	-6923
orship	-6924
▁Smith	-6925
▁লিখ	-6926
▁নানা	-6927
▁আর্থিক	-6928
▁Tod	-6929
estival	-6930
▁গ্লোব	-6931
▁পারবে	-6932
NA	-6933
▁নাস	-6934
forman	-6935
▁meaning	-6936
▁fear	-6937
মার্ক	-6938
▁idea	-6939
▁successful	-6940
▁Boy	-6941
▁8.	-6942
▁১৯৪৭	-6943
খালী	-6944
যা়ত	-6945
▁box	-6946
▁ঝুঁ	-6947
reg	-6948
▁বাকি	-6949
▁সমাপ্ত	-6950
▁Georg	-6951
▁৬০	-6952
াগুলো	-6953
▁আশা	-6954
সির	-6955
▁শিশুদের	-6956
▁Sar	-6957
▁ম্যাগাজ	-6958
টিত	-6959
▁মনোনয়ন	-6960
্রো	-6961
▁ভেত	-6962
elt	-6963
oma	-6964
ising	-6965
▁আফ্রিকান	-6966
▁শ্রমিক	-6967
▁Den	-6968
▁Ant	-6969
নামূলক	-6970
▁ord	-6971
ression	-6972
89	-6973
▁clear	-6974
▁Let	-6975
▁পদ্	-6976
▁কমিটি	-6977
▁স্টেট	-6978
▁suff	-6979
▁Edward	-6980
▁currently	-6981
▁সাম্প্রতিক	-6982
▁বিক্ষোভ	-6983
▁পঞ্চম	-6984
▁সামগ্র	-6985
▁inside	-6986
▁ফ্রি	-6987
▁instr	-6988
▁opened	-6989
▁Jim	-6990
▁শহরটি	-6991
▁Records	-6992
বাংল	-6993
▁তীব্র	-6994
▁পর্ত	-6995
urrican	-6996
▁Florida	-6997
▁সেতু	-6998
▁সংখ্যক	-6999
▁উদাহরণস্বরূপ	-7000
শার	-7001
jan	-7002
▁Mat	-7003
ively	-7004
▁campaign	-7005
▁cover	-7006
fic	-7007
াকের	-7008
যা়ল	-7009
▁coast	-7010
aria	-7011
▁আকারে	-7012
িটাল	-7013
▁introd	-7014
▁পরিষদের	-7015
▁থিয়েটার	-7016
বাচক	-7017
▁দেবতা	-7018
▁2020,	-7019
▁দত্ত	-7020
▁সাউ	-7021
▁রঙের	-7022
▁১৯৮৮	-7023
▁পুরাণ	-7024
েশনে	-7025
▁পিতার	-7026
▁round	-7027
ridge	-7028
▁সেটা	-7029
etic	-7030
▁|-	-7031
▁সিঙ্গ	-7032
oints	-7033
year	-7034
▁Gen	-7035
▁Jo	-7036
▁বহি	-7037
▁পর্তুগ	-7038
▁মন্দিরের	-7039
▁ended	-7040
▁ধাত	-7041
▁Fred	-7042
▁miles	-7043
lease	-7044
▁প্রাস	-7045
াচার্য	-7046
▁wrong	-7047
প্তর	-7048
▁মিত্র	-7049
▁Atlant	-7050
anger	-7051
▁seven	-7052
▁সূর্য	-7053
▁এখনো	-7054
▁position	-7055
▁নিচের	-7056
▁ক্যাথ	-7057
▁recogn	-7058
▁খোলা	-7059
▁already	-7060
▁আনা	-7061
acters	-7062
▁বজায়	-7063
▁রক	-7064
▁চোখ	-7065
▁যেকোন	-7066
azine	-7067
▁ইনিং	-7068
▁Bus	-7069
র্ধমান	-7070
ugu	-7071
▁যুক্তি	-7072
▁সুন	-7073
▁ক্রিযা়	-7074
▁দ্বীপপুঞ্জ	-7075
▁জানতে	-7076
back	-7077
▁স্মরণ	-7078
াযা়রের	-7079
ampion	-7080
▁লম্বা	-7081
▁Win	-7082
▁ফাঁ	-7083
িবদ্ধ	-7084
ca	-7085
▁Ros	-7086
▁Good	-7087
ults	-7088
▁highest	-7089
▁আসার	-7090
▁Austrian	-7091
▁কাশ্ম	-7092
▁মন্তব্য	-7093
▁প্রেক্ষ	-7094
▁voice	-7095
▁events	-7096
▁ident	-7097
▁Austria	-7098
▁অতিক্রম	-7099
▁northern	-7100
▁টুর্নাম	-7101
▁Society	-7102
▁টা	-7103
কৃ	-7104
obal	-7105
▁Bur	-7106
▁আইনের	-7107
▁180	-7108
▁উচ্চতা	-7109
▁শিক্ষার্থী	-7110
idence	-7111
▁নির্বাচনী	-7112
তিতে	-7113
ৎস	-7114
▁পুরস্কারের	-7115
▁tree	-7116
▁wrest	-7117
▁Ur	-7118
▁১টি	-7119
▁Sil	-7120
▁সাইট	-7121
যেমন	-7122
▁শুরুর	-7123
OR	-7124
yer	-7125
বয়	-7126
ভিল	-7127
▁1.4	-7128
▁plants	-7129
85	-7130
▁উপকূল	-7131
ন্দের	-7132
▁পেতে	-7133
▁outside	-7134
▁নিয়েছিলেন	-7135
▁react	-7136
▁হওযা়য়	-7137
▁Mo	-7138
▁আবাস	-7139
▁প্রেসিডেন্ট	-7140
বর্তন	-7141
▁ইহুদি	-7142
▁রাস্তা	-7143
▁science	-7144
▁pract	-7145
▁সো	-7146
▁Mah	-7147
Al	-7148
▁break	-7149
▁গাজ	-7150
▁ব্যাপকভাবে	-7151
▁Silla	-7152
▁সমৃদ্ধ	-7153
▁সেন্টার	-7154
অন	-7155
ouble	-7156
▁avail	-7157
▁শব্দের	-7158
▁নির্ধার	-7159
আপ	-7160
▁saw	-7161
▁আমেরিকা	-7162
ুধ	-7163
▁Games	-7164
▁কুই	-7165
প্রতি	-7166
▁1981	-7167
▁decided	-7168
▁norm	-7169
▁front	-7170
▁স্বীকৃত	-7171
ওল	-7172
▁Mess	-7173
▁cour	-7174
▁Hung	-7175
▁ঢাকার	-7176
leg	-7177
▁বৃহৎ	-7178
▁বুঝতে	-7179
▁energy	-7180
▁inj	-7181
▁কমিটির	-7182
▁মাইক্র	-7183
▁Northern	-7184
▁কংগ্রেসের	-7185
itte	-7186
▁Emperor	-7187
ডেন	-7188
▁Bob	-7189
▁types	-7190
▁জেমস	-7191
▁হাইড	-7192
▁তাঁদের	-7193
মানিক	-7194
▁court	-7195
▁hot	-7196
▁Institute	-7197
▁জাপানের	-7198
▁1.6	-7199
▁ভ্র	-7200
▁গেলে	-7201
▁movement	-7202
লন	-7203
▁লুই	-7204
▁ডানহ	-7205
▁প্রধানত	-7206
▁গভর্নর	-7207
▁পরিবর্তিত	-7208
▁পৌঁছে	-7209
ologist	-7210
▁শুন	-7211
onia	-7212
32	-7213
▁সিম	-7214
▁খারাপ	-7215
্যালো	-7216
▁ইন্টারন্যাশনাল	-7217
▁writing	-7218
▁Leg	-7219
▁যাইহোক	-7220
▁Fam	-7221
▁Latin	-7222
▁দৈর্ঘ্য	-7223
▁লুক	-7224
pecially	-7225
▁হায়	-7226
▁space	-7227
▁interest	-7228
▁relations	-7229
--	-7230
▁goes	-7231
▁page	-7232
▁সম্পদ	-7233
▁স্বল্প	-7234
onna	-7235
▁comedy	-7236
ashi	-7237
▁Hale	-7238
▁মহাকাশ	-7239
▁কণ্ঠ	-7240
▁কংগ্রেস	-7241
▁average	-7242
▁অনুসন্ধান	-7243
eck	-7244
▁বিশেষত	-7245
▁ইসলামিক	-7246
▁মূর্তি	-7247
▁গ্রিক	-7248
▁স্থাপত্য	-7249
▁অশ	-7250
▁network	-7251
ask	-7252
▁ইয়ে	-7253
▁প্রতিযোগিতার	-7254
oming	-7255
▁আসছে	-7256
▁গোষ্ঠী	-7257
uts	-7258
▁Os	-7259
▁Lake	-7260
▁বিশ্বব্যাপী	-7261
="3	-7262
্লস	-7263
–199	-7264
▁doc	-7265
▁Bh	-7266
▁প্রতিষ্ঠার	-7267
নির্	-7268
enger	-7269
itect	-7270
▁Represent	-7271
aries	-7272
▁গাড়ি	-7273
▁প্রত্ন	-7274
▁thing	-7275
▁দিয়েছিল	-7276
hood	-7277
ুলের	-7278
osaur	-7279
▁মেযা়	-7280
ledge	-7281
▁অ্যালবাম	-7282
iff	-7283
abb	-7284
ষেধ	-7285
▁দৌ	-7286
▁আচরণ	-7287
▁মায়ের	-7288
ইযা়	-7289
র্স	-7290
াম্ব	-7291
▁দাও	-7292
▁ant	-7293
▁প্রতিবাদ	-7294
▁নম্বর	-7295
▁Parliament	-7296
ষদ	-7297
▁দুঃ	-7298
97	-7299
▁স্পষ্ট	-7300
▁Far	-7301
▁আওতা	-7302
▁Kansas	-7303
▁Sea	-7304
▁উপস্থাপন	-7305
▁names	-7306
▁কার্ব	-7307
▁ground	-7308
▁ধন	-7309
▁হান	-7310
তাবাদী	-7311
▁parents	-7312
ঘল	-7313
▁Time	-7314
▁গেল	-7315
▁কমিউন	-7316
ishop	-7317
▁১৯৭৯	-7318
▁fig	-7319
▁mid	-7320
▁travel	-7321
▁1989	-7322
ibrary	-7323
▁product	-7324
▁cat	-7325
▁আচার	-7326
▁গুপ্ত	-7327
87	-7328
▁prim	-7329
use	-7330
ference	-7331
▁শান্তি	-7332
▁১৯৮৯	-7333
▁previous	-7334
▁liter	-7335
rel	-7336
নাট্য	-7337
র্ট	-7338
তুল	-7339
▁screen	-7340
▁দিল্লি	-7341
▁স্বাধীনতার	-7342
কিছু	-7343
ীর্ণ	-7344
▁আওযা়মী	-7345
▁উপস	-7346
vironment	-7347
face	-7348
▁Und	-7349
▁১৯৮৪	-7350
চাল	-7351
▁হরি	-7352
▁হিজ	-7353
ছো	-7354
▁reached	-7355
▁সমালোচনা	-7356
uh	-7357
▁বাচ্চ	-7358
▁temper	-7359
herlands	-7360
য়েন্টি	-7361
▁Bern	-7362
▁এশিযা়র	-7363
▁characters	-7364
▁material	-7365
▁অধিনায়ক	-7366
▁Tim	-7367
▁dog	-7368
▁Jr	-7369
▁বয়সী	-7370
▁শিক	-7371
▁31	-7372
যাত্র	-7373
▁ভব	-7374
তাত্ত্বিক	-7375
ira	-7376
UN	-7377
▁প্রবাহ	-7378
▁কিছুটা	-7379
বেল	-7380
▁1.3	-7381
▁der	-7382
্লা	-7383
error	-7384
▁১৯৭৩	-7385
▁Ukr	-7386
▁ইমাম	-7387
▁বাসিন্দ	-7388
TV	-7389
ফর	-7390
▁পয়েন্ট	-7391
▁pur	-7392
▁helped	-7393
96	-7394
▁ঘোষ	-7395
▁পাখি	-7396
▁Lin	-7397
ranch	-7398
▁possible	-7399
▁Ye	-7400
▁”	-7401
▁(1	-7402
▁Camb	-7403
▁park	-7404
▁ব্যবস্থার	-7405
েমে	-7406
▁দৈনিক	-7407
▁feet	-7408
▁Bangl	-7409
ষ্টির	-7410
ণিক	-7411
▁বৃহত্তর	-7412
ova	-7413
▁আবদ্ধ	-7414
োদ্	-7415
▁মালয়েশ	-7416
LS	-7417
▁believed	-7418
▁true	-7419
||0||2	-7420
▁retired	-7421
aby	-7422
▁জানান	-7423
▁understand	-7424
গড়	-7425
▁মেঘ	-7426
▁Trans	-7427
▁হাঁ	-7428
▁তাপমাত্রা	-7429
▁bo	-7430
জীবী	-7431
▁হেন	-7432
ংসা	-7433
▁Jud	-7434
▁এগিয়ে	-7435
▁অনুষ্ঠানে	-7436
ecutive	-7437
▁established	-7438
="3"|	-7439
hing	-7440
▁rail	-7441
ires	-7442
▁ল্যা	-7443
▁happened	-7444
▁mathemat	-7445
▁এগুলি	-7446
এক	-7447
▁priv	-7448
▁সদস্যদের	-7449
▁EOS	-7450
▁really	-7451
৬০	-7452
hib	-7453
▁vir	-7454
▁আলম	-7455
▁Play	-7456
ূত	-7457
▁Land	-7458
▁অবশেষে	-7459
▁মানসিক	-7460
▁উম	-7461
stant	-7462
ethod	-7463
▁ব্লগ	-7464
▁1988	-7465
▁Cons	-7466
ট্রিক	-7467
▁2.0	-7468
▁laun	-7469
▁conduct	-7470
▁হাসপাতাল	-7471
▁নির্বাচনের	-7472
▁(5	-7473
▁Virginia	-7474
▁একর	-7475
▁1.8	-7476
ublican	-7477
▁জাল	-7478
▁storm	-7479
▁পরিচিতি	-7480
▁জাপান	-7481
▁ঊ	-7482
head	-7483
বিল	-7484
▁হের	-7485
▁recorded	-7486
▁মর্যাদা	-7487
▁ব্রাহ্মণ	-7488
▁তদন্ত	-7489
▁online	-7490
▁struct	-7491
কুম	-7492
গতভাবে	-7493
ডের	-7494
▁রাষ্ট্রীয়	-7495
▁deg	-7496
▁প্রবাহিত	-7497
reme	-7498
▁Step	-7499
▁Hind	-7500
▁behind	-7501
▁প্রায়ই	-7502
▁একদিনের	-7503
▁পাঠ্য	-7504
86	-7505
add	-7506
ফিক	-7507
খানা	-7508
▁hor	-7509
▁ব্যয়	-7510
▁১৯৮৭	-7511
যন্ত্র	-7512
isl	-7513
▁ওযা়ল	-7514
▁cross	-7515
▁Netherlands	-7516
ঙে	-7517
▁দূরত্ব	-7518
ette	-7519
লাম	-7520
িতির	-7521
▁den	-7522
▁celebr	-7523
▁প্রভৃতি	-7524
aith	-7525
▁হিসাব	-7526
anks	-7527
▁জন্মগ্রহণকারী	-7528
োজেন	-7529
▁নেযা়	-7530
সাল	-7531
োমুখ	-7532
▁রাই	-7533
stein	-7534
শত	-7535
▁returned	-7536
মাণবিক	-7537
▁১৮৫	-7538
▁ব্লক	-7539
▁ইলেকট্র	-7540
mark	-7541
▁(195	-7542
▁সম্ভাব্য	-7543
▁Brazilian	-7544
▁ক্যালিফ	-7545
▁ভগ	-7546
▁যুগে	-7547
▁Scottish	-7548
▁ধারা	-7549
▁কমিউনিস্ট	-7550
▁প্রাথমিকভাবে	-7551
rup	-7552
uty	-7553
',	-7554
▁manager	-7555
্শন	-7556
বদ্ধ	-7557
▁ভক্ত	-7558
ণ্ডল	-7559
শিক্ষ	-7560
▁supp	-7561
▁সঞ্চ	-7562
▁১৯৭৫	-7563
time	-7564
▁shown	-7565
▁গান্ধ	-7566
▁উপস্থাপ	-7567
▁সাপ	-7568
uge	-7569
▁Penn	-7570
▁ডেভিড	-7571
▁বাছ	-7572
▁কাট	-7573
সেন	-7574
▁জলবায়ু	-7575
পুরে	-7576
▁সবুজ	-7577
▁Group	-7578
▁development	-7579
▁পেরে	-7580
▁কাগ	-7581
▁central	-7582
▁কোম্পানির	-7583
▁Bi	-7584
▁উত্থ	-7585
▁Pan	-7586
াক্স	-7587
েন্দ্রে	-7588
িথ	-7589
43	-7590
uture	-7591
▁লু	-7592
onn	-7593
▁জের	-7594
▁earn	-7595
▁ইন্টারনেট	-7596
পো	-7597
রব	-7598
▁উপলব্ধ	-7599
▁Brown	-7600
▁especially	-7601
▁appoint	-7602
▁চেন	-7603
urricane	-7604
▁ব্যান্ড	-7605
emp	-7606
▁fre	-7607
azz	-7608
▁লিপ	-7609
▁কার্ড	-7610
্থে	-7611
▁উদ্যান	-7612
iful	-7613
ীতির	-7614
agn	-7615
▁আন্তঃ	-7616
▁release	-7617
আল	-7618
২৪	-7619
ami	-7620
পুরুষ	-7621
▁মুখোমুখ	-7622
▁সমক	-7623
▁জানুযা়রী	-7624
গন	-7625
ঝি	-7626
aph	-7627
org	-7628
▁অনুরূপ	-7629
▁mainly	-7630
্টেন	-7631
১৯৪	-7632
▁force	-7633
▁Big	-7634
▁রাজশাহী	-7635
▁উপাধি	-7636
▁সহকারী	-7637
▁performed	-7638
ivid	-7639
uments	-7640
▁mem	-7641
▁রবার্ট	-7642
▁Vi	-7643
▁তির	-7644
▁নিঃ	-7645
aged	-7646
মিতে	-7647
▁সংবিধান	-7648
▁অফিসার	-7649
▁FI	-7650
▁বেদ	-7651
▁Say	-7652
▁fourth	-7653
▁রাজনীত	-7654
▁জর	-7655
▁Hot	-7656
▁অব্যা	-7657
▁territ	-7658
ko	-7659
টিন	-7660
▁গবেষ	-7661
▁Stan	-7662
▁someone	-7663
▁Korea	-7664
▁ব্যবধানে	-7665
ডা়ন	-7666
Ar	-7667
▁ক্যালিফোর্ন	-7668
▁didn	-7669
▁quick	-7670
▁Es	-7671
iller	-7672
▁Philipp	-7673
ati	-7674
▁doing	-7675
▁রাজ্যে	-7676
ja	-7677
▁নামটি	-7678
▁multip	-7679
%)	-7680
▁মাধ্যম	-7681
▁পশ্চিমবঙ্গের	-7682
▁While	-7683
akala	-7684
্রিযা়র	-7685
▁text	-7686
▁১৯৮২	-7687
▁soon	-7688
▁মুখোমুখি	-7689
▁Cap	-7690
▁সফট	-7691
▁পাতা	-7692
▁Swedish	-7693
▁Luc	-7694
▁belong	-7695
▁মসজিদের	-7696
iano	-7697
রিদ	-7698
▁যথাক্রমে	-7699
▁Show	-7700
nam	-7701
▁ইস্ট	-7702
icular	-7703
ez	-7704
েগ	-7705
ঘাট	-7706
▁ago	-7707
▁১৯৮৩	-7708
▁truth	-7709
▁Serv	-7710
▁বিশেষজ্ঞ	-7711
▁church	-7712
কির	-7713
▁ইনিংসে	-7714
▁coll	-7715
▁উন্মুক্ত	-7716
▁সীমাবদ্ধ	-7717
▁tra	-7718
াম্প	-7719
▁অনুরোধ	-7720
▁আর্জ	-7721
▁block	-7722
||6	-7723
▁শতকে	-7724
▁লন্ডন	-7725
্বার	-7726
heim	-7727
believ	-7728
▁তৈরির	-7729
ification	-7730
▁সাজ	-7731
▁গর্ভ	-7732
▁ইতিহাসের	-7733
াতায়	-7734
▁changes	-7735
িসে	-7736
abeth	-7737
▁তারপরে	-7738
জির	-7739
▁citiz	-7740
▁Before	-7741
▁Dar	-7742
▁প্রসারিত	-7743
▁কিন	-7744
▁চান	-7745
স্যের	-7746
42	-7747
▁1.7	-7748
▁Young	-7749
চ্ছেন	-7750
ধর্মী	-7751
▁আরেক	-7752
পঞ্জ	-7753
▁অলিম্পিক	-7754
▁2020)	-7755
▁বুল	-7756
▁Haleakala	-7757
▁added	-7758
▁আহত	-7759
▁ফাউন্ড	-7760
▁Sk	-7761
▁দেখানো	-7762
▁1.2	-7763
▁১৯৭৭	-7764
▁পর্বত	-7765
▁points	-7766
▁পানির	-7767
▁পরিবেশন	-7768
▁Government	-7769
▁compan	-7770
▁এক্সপ্রেস	-7771
শী	-7772
ওয়ের	-7773
জেন	-7774
bour	-7775
▁ব্যাক	-7776
▁allowed	-7777
▁উইক	-7778
▁আর্ক	-7779
▁সংঘটিত	-7780
▁dig	-7781
▁candid	-7782
▁জনগণের	-7783
▁১৯৮৫	-7784
োনি	-7785
▁বাবার	-7786
▁Street	-7787
▁প্রকৌশল	-7788
las	-7789
▁বৃষ্টি	-7790
▁শতাব্দী	-7791
▁Gh	-7792
▁স্থানান্তরিত	-7793
▁3:	-7794
▁rap	-7795
▁western	-7796
▁পর্যায়ের	-7797
কেই	-7798
▁রশ	-7799
▁অনলাইন	-7800
ateg	-7801
▁activist	-7802
aring	-7803
▁অভিহিত	-7804
▁invest	-7805
ওয়েল	-7806
▁Over	-7807
▁grand	-7808
▁ওয়েল	-7809
▁সম্মুখ	-7810
▁Jackson	-7811
▁শন	-7812
tr	-7813
▁দার্শন	-7814
▁production	-7815
▁সেখান	-7816
ড্র	-7817
▁আনুষ্ঠানিকভাবে	-7818
▁numbers	-7819
▁symb	-7820
▁2022	-7821
▁Hon	-7822
ার্জ	-7823
▁Direct	-7824
▁আওতাধীন	-7825
▁কাত	-7826
▁কুল	-7827
াতন	-7828
▁টুইটার	-7829
▁কয়েকজন	-7830
▁বসতি	-7831
াগুলির	-7832
▁battle	-7833
▁পেন	-7834
▁farm	-7835
▁পারমাণবিক	-7836
▁চাঁদ	-7837
▁কাঠামো	-7838
▁bomb	-7839
▁লক্ষ্ম	-7840
ora	-7841
▁Old	-7842
▁পরিবারে	-7843
▁কর্মসূ	-7844
▁chemical	-7845
৭০	-7846
▁আছেন	-7847
▁available	-7848
▁পালিয়ে	-7849
াগতিক	-7850
▁নেওযা়র	-7851
▁স্বীকার	-7852
৮০	-7853
▁gets	-7854
ামান	-7855
▁Catalina	-7856
▁research	-7857
▁ge	-7858
▁Song	-7859
▁Columb	-7860
▁miss	-7861
▁পড়েন	-7862
▁পিটার	-7863
▁সিন্ধ	-7864
ynast	-7865
▁বংশোদ্	-7866
▁বিবরণ	-7867
▁অসংখ্য	-7868
▁সাক্ষাৎ	-7869
▁protect	-7870
ili	-7871
▁চির	-7872
▁ডেন	-7873
▁নাজ	-7874
▁প্রতিস্থ	-7875
▁Ah	-7876
▁ফুটব	-7877
▁গীত	-7878
▁appro	-7879
▁আলে	-7880
ইংরে	-7881
্নের	-7882
▁Scotland	-7883
oved	-7884
▁News	-7885
▁ঠাকুর	-7886
▁longer	-7887
▁প্রিমিযা়র	-7888
▁Pac	-7889
▁Enter	-7890
▁খবর	-7891
▁মধ্যযুগ	-7892
▁সংল	-7893
HL	-7894
oid	-7895
শিত	-7896
▁astr	-7897
▁নির্ধারিত	-7898
imb	-7899
▁ব্লগার	-7900
▁আউট	-7901
▁পুনঃ	-7902
▁م	-7903
বত	-7904
▁Str	-7905
▁স্বপ	-7906
▁asked	-7907
▁related	-7908
▁ক্যান	-7909
্বান	-7910
0,000	-7911
▁গ্রহণের	-7912
▁gun	-7913
▁Pers	-7914
▁Senate	-7915
বিজ্ঞানী	-7916
▁সাহায্যে	-7917
ios	-7918
▁action	-7919
▁culture	-7920
▁১৯৬২	-7921
▁surr	-7922
▁জিনিস	-7923
ication	-7924
war	-7925
াইনের	-7926
িস্তান	-7927
▁ওপ	-7928
▁Fac	-7929
▁জাপানি	-7930
▁Cam	-7931
টক	-7932
▁1950	-7933
টিয়ে	-7934
▁signed	-7935
▁ওহ	-7936
wa	-7937
▁1.9	-7938
▁About	-7939
▁probably	-7940
বাল	-7941
্টন	-7942
স্থল	-7943
▁clos	-7944
▁Republican	-7945
atter	-7946
▁থানার	-7947
▁মেক্স	-7948
বছ	-7949
embly	-7950
▁১৯৪৮	-7951
▁জানায়	-7952
▁সামান্য	-7953
▁শক্তির	-7954
yo	-7955
▁সচিব	-7956
▁স্মৃতি	-7957
▁দার্শনিক	-7958
▁Secretary	-7959
▁একত্রিত	-7960
▁Later	-7961
▁particip	-7962
▁soft	-7963
▁ভিক্ট	-7964
ণী	-7965
▁Second	-7966
দর	-7967
▁৮০	-7968
▁১৯৭৪	-7969
▁university	-7970
VID	-7971
▁ancient	-7972
▁ডিপ	-7973
▁বক্স	-7974
▁aff	-7975
▁nor	-7976
inois	-7977
▁সহিংস	-7978
▁CSS	-7979
▁সমস্য	-7980
▁saying	-7981
rie	-7982
▁Jean	-7983
▁critic	-7984
▁reported	-7985
মুদ	-7986
▁দশক	-7987
▁ক্রে	-7988
▁chart	-7989
▁Max	-7990
▁needs	-7991
▁পার্ব	-7992
▁fif	-7993
▁৩৫	-7994
▁replaced	-7995
▁hockey	-7996
▁একটু	-7997
▁পূজা	-7998
▁উদ্ভাব	-7999
▁ফিলিস্ত	-8000
aya	-8001
ঞ্জন	-8002
▁board	-8003
iences	-8004
▁প্রেরণ	-8005
isher	-8006
▁বসে	-8007
▁রানের	-8008
well	-8009
ঙ্কর	-8010
▁ভূষিত	-8011
▁চার্চ	-8012
31	-8013
▁নির্যাত	-8014
▁Social	-8015
▁এশিযা়ন	-8016
enced	-8017
▁Irish	-8018
oices	-8019
▁Wood	-8020
▁সীমানা	-8021
▁১৯৬৭	-8022
ias	-8023
▁however	-8024
▁সংগ্রাম	-8025
CA	-8026
▁newsp	-8027
্বে	-8028
▁মিশরীয়	-8029
মূল	-8030
▁sister	-8031
▁প্রতিবেদন	-8032
▁সেনা	-8033
▁পরিমাপ	-8034
ুনের	-8035
FF	-8036
ym	-8037
▁Out	-8038
▁আগের	-8039
▁roles	-8040
▁Spring	-8041
▁Why	-8042
▁wid	-8043
▁বিকল্প	-8044
ises	-8045
▁মুল	-8046
▁Jac	-8047
▁protest	-8048
▁পরিবর্তনের	-8049
নেস	-8050
-1	-8051
▁ধ্র	-8052
▁account	-8053
▁ছাযা়	-8054
▁Middle	-8055
াণী	-8056
▁লিন	-8057
ittee	-8058
▁স্টুড	-8059
shire	-8060
▁র‌	-8061
itted	-8062
▁ball	-8063
▁প্রতিষ্ঠানের	-8064
▁Class	-8065
▁ওযা়র	-8066
▁sports	-8067
াবর	-8068
এসসি	-8069
েন্টে	-8070
ভব	-8071
▁বিপরীত	-8072
▁অর্থনীত	-8073
▁Haw	-8074
্ডিং	-8075
ীভূত	-8076
▁Rh	-8077
▁lab	-8078
▁১৯৩০	-8079
ন্থে	-8080
▁পর্যায়	-8081
▁cut	-8082
ীণ	-8083
▁রোম	-8084
▁Town	-8085
▁সহজে	-8086
ensive	-8087
▁মাঝামা	-8088
▁shoot	-8089
▁whole	-8090
▁বিশ্বযুদ্ধের	-8091
্ট্র	-8092
▁rank	-8093
▁Ha	-8094
টিস	-8095
▁reve	-8096
ব্যব	-8097
▁সংকল	-8098
▁Wales	-8099
▁2019,	-8100
▁শারীরিক	-8101
▁অবলম্ব	-8102
জল	-8103
▁COVID	-8104
ধর্মের	-8105
▁সায়েন্স	-8106
নির্ম	-8107
▁লক্ষ্যে	-8108
wan	-8109
win	-8110
▁Ke	-8111
▁১৯৬৯	-8112
বিন	-8113
▁খ্রিস্টাব্দের	-8114
▁সের	-8115
▁medal	-8116
▁punish	-8117
▁$>	-8118
▁1973	-8119
িরি	-8120
▁১৯৫২	-8121
▁Each	-8122
▁saf	-8123
▁অঙ্ক	-8124
▁আদিব	-8125
▁অতিবাহিত	-8126
▁Ro	-8127
▁philosop	-8128
ধ্যাত্ম	-8129
▁mach	-8130
▁WW	-8131
▁যথা	-8132
▁Club	-8133
গাঁও	-8134
▁problem	-8135
▁র‍	-8136
▁তীরে	-8137
বৈ	-8138
▁evil	-8139
ীপুর	-8140
▁tried	-8141
▁শ্রেণী	-8142
aled	-8143
▁মার্	-8144
▁Civil	-8145
craft	-8146
▁ভেঙে	-8147
▁মিলি	-8148
▁Illinois	-8149
▁উপস্থিতি	-8150
76	-8151
▁বেঁচে	-8152
▁বিচ	-8153
▁Polish	-8154
▁চিন্তা	-8155
▁অনুপ	-8156
▁গ্রহ	-8157
▁Fire	-8158
▁create	-8159
▁৫৯	-8160
with	-8161
মাধ্য	-8162
▁ছবির	-8163
▁Company	-8164
▁mountain	-8165
▁সম্ভাবনা	-8166
ouch	-8167
▁দুর	-8168
নিজ	-8169
▁রিপোর্ট	-8170
টারি	-8171
ওযা়ন	-8172
icy	-8173
ba	-8174
▁উপায়	-8175
lements	-8176
yan	-8177
▁নো	-8178
ters	-8179
▁কোথায়	-8180
gers	-8181
▁Pop	-8182
▁fur	-8183
ুসারে	-8184
▁Here	-8185
▁peace	-8186
▁accept	-8187
▁fast	-8188
▁spread	-8189
▁1986	-8190
▁2010,	-8191
bl	-8192
ফ্র	-8193
uation	-8194
▁Every	-8195
ransport	-8196
রন	-8197
এনএ	-8198
▁প্রজ	-8199
▁সূচনা	-8200
▁Lu	-8201
▁Way	-8202
▁বৃদ্ধির	-8203
▁die	-8204
▁Britain	-8205
ila	-8206
নিম	-8207
▁আইসিসি	-8208
▁killing	-8209
২৭	-8210
২৮	-8211
▁size	-8212
▁basketball	-8213
▁Som	-8214
▁1977	-8215
▁Anton	-8216
▁এনে	-8217
▁৭০	-8218
চ্ছি	-8219
▁কল্যা	-8220
▁স্তরের	-8221
▁সময়কালে	-8222
োনাল	-8223
▁Disney	-8224
▁Department	-8225
▁Wal	-8226
▁gradu	-8227
▁Ox	-8228
▁drug	-8229
িদা	-8230
▁হাব	-8231
▁চলমান	-8232
▁80	-8233
্ফোর	-8234
▁Hill	-8235
▁নারায়ণ	-8236
▁বিদ্যালয়ের	-8237
▁competed	-8238
ened	-8239
▁McC	-8240
▁card	-8241
▁painter	-8242
eld	-8243
সামরিক	-8244
▁Public	-8245
▁..	-8246
িকো	-8247
▁super	-8248
▁ভাস্ক	-8249
▁ভিয়েত	-8250
▁আর্জেন্টি	-8251
▁মোব	-8252
▁সফরে	-8253
▁Carolina	-8254
ুকুর	-8255
inger	-8256
▁উৎপন্ন	-8257
▁বংশোদ্ভূত	-8258
▁blue	-8259
▁রয়	-8260
akh	-8261
▁পেয়েছিল	-8262
▁হাদ	-8263
চনায়	-8264
টিযা়	-8265
▁review	-8266
▁সন্ত্র	-8267
▁leaders	-8268
▁Alexander	-8269
▁ব্যাপার	-8270
▁rain	-8271
▁উপনি	-8272
▁পদক্ষেপ	-8273
▁বাতিল	-8274
কেন্দ্র	-8275
aki	-8276
▁গৃহীত	-8277
২৯	-8278
▁ডিগ্রী	-8279
sur	-8280
▁Sand	-8281
▁male	-8282
▁sn	-8283
▁রুপ	-8284
ামত	-8285
▁গায়ক	-8286
▁গবেষণার	-8287
rik	-8288
▁ঈশ্বর	-8289
▁religion	-8290
▁সমাজের	-8291
▁fac	-8292
▁বিদেশী	-8293
▁Bor	-8294
▁প্রবন্ধ	-8295
▁Kenn	-8296
▁turned	-8297
▁কিউ	-8298
▁raised	-8299
▁পরিমাণে	-8300
▁প্রদত্ত	-8301
ব্রি	-8302
▁জোট	-8303
▁মাস্টার	-8304
▁egg	-8305
▁Sub	-8306
▁ভেন	-8307
▁stories	-8308
▁কাস	-8309
ুযা়ন	-8310
▁ox	-8311
▁কলকাতায়	-8312
▁cur	-8313
গ্রস্ত	-8314
▁Little	-8315
▁হিউ	-8316
▁Ram	-8317
▁অনুশীলন	-8318
২৬	-8319
পির	-8320
▁১৯৭৬	-8321
▁ইরানের	-8322
▁আদি	-8323
▁হাও	-8324
ুল্লাহ	-8325
▁Under	-8326
▁Korean	-8327
▁fav	-8328
▁hous	-8329
orning	-8330
||0||3	-8331
ভারত	-8332
ift	-8333
ুদের	-8334
▁pen	-8335
▁মাঠ	-8336
▁Cz	-8337
▁Stev	-8338
▁ছয়টি	-8339
▁রাত	-8340
▁দুর্বল	-8341
79	-8342
োলজি	-8343
▁gives	-8344
▁whose	-8345
▁ফ্রে	-8346
▁cases	-8347
▁গণ্য	-8348
▁Elect	-8349
▁lo	-8350
▁metal	-8351
▁performan	-8352
▁canton	-8353
▁প্রশংসা	-8354
min	-8355
ৃঙ্	-8356
হান	-8357
▁১৯৭৮	-8358
▁reason	-8359
▁হোট	-8360
বারে	-8361
▁green	-8362
▁ময়মন	-8363
▁শাম	-8364
কারীরা	-8365
▁Spec	-8366
▁খাঁ	-8367
ল্যান্ডের	-8368
▁প্রিন্স	-8369
▁দরকার	-8370
▁হিল	-8371
▁wor	-8372
▁উদ্বোধ	-8373
can	-8374
▁dark	-8375
▁মুজিব	-8376
▁দোক	-8377
▁প্রতিনিধি	-8378
▁face	-8379
▁و	-8380
▁aud	-8381
ধ্যাত্মিক	-8382
▁inh	-8383
াইটেড	-8384
uv	-8385
▁ডাই	-8386
▁visit	-8387
▁যায়নি	-8388
▁মাঝামাঝি	-8389
▁1987	-8390
▁date	-8391
৩৩	-8392
োরের	-8393
▁পূর্ববর্তী	-8394
aven	-8395
hold	-8396
▁লেন	-8397
▁affect	-8398
▁২টি	-8399
adium	-8400
▁ভয়ে	-8401
▁হাট	-8402
▁শত্র	-8403
▁বর্ণিত	-8404
▁কঠোর	-8405
▁ব্ল্যাক	-8406
▁রাজবংশের	-8407
▁laws	-8408
▁Univers	-8409
▁originally	-8410
ৃশ্য	-8411
▁আসনের	-8412
▁Budd	-8413
▁individ	-8414
▁ইঞ্জিনিযা়	-8415
▁তুর্কি	-8416
গতি	-8417
▁ঔপ	-8418
▁জ্বাল	-8419
▁religious	-8420
▁Kr	-8421
▁foc	-8422
▁শুক	-8423
▁ডিজিটাল	-8424
igan	-8425
▁চাহ	-8426
ji	-8427
▁মহারা	-8428
igr	-8429
rich	-8430
চার্ড	-8431
▁ফাইল	-8432
ুনা	-8433
▁তহ	-8434
▁anything	-8435
▁(),	-8436
▁ছাড়	-8437
▁Of	-8438
িনাল	-8439
ুযা়ল	-8440
empt	-8441
▁1984	-8442
▁তরঙ্গ	-8443
▁দিকের	-8444
ares	-8445
মহাদেশ	-8446
▁খানের	-8447
▁অনুমোদন	-8448
থের	-8449
▁অংশের	-8450
▁সিঙ্গাপুর	-8451
▁উদ্ভূত	-8452
ড়ির	-8453
▁লিখিত	-8454
▁সফটওয়্যার	-8455
চেতন	-8456
াকৃত	-8457
▁border	-8458
▁অস্ট্রেলীয়	-8459
▁আনুষ্ঠানিক	-8460
orf	-8461
সিন	-8462
inks	-8463
োর্স	-8464
পন্থী	-8465
▁উসমানীয়	-8466
▁সংক	-8467
▁উৎপত্তি	-8468
▁অস্বীকার	-8469
▁gas	-8470
atre	-8471
▁Gal	-8472
▁tax	-8473
▁রাগ	-8474
▁theory	-8475
▁Internet	-8476
▁shot	-8477
leep	-8478
ূর্ত	-8479
ga	-8480
▁hus	-8481
▁১৯৮১	-8482
▁অভাব	-8483
▁জানি	-8484
▁সম্বন্ধ	-8485
রু	-8486
▁সেটি	-8487
কোত্তর	-8488
তাকে	-8489
চ্ছেদ	-8490
▁দৃষ্টিভঙ্গ	-8491
▁reach	-8492
een	-8493
elle	-8494
▁Gard	-8495
ficult	-8496
▁1920	-8497
ীম	-8498
▁রকম	-8499
টাকে	-8500
▁অ্যাসোসিয়েশন	-8501
▁উপনিবেশ	-8502
ois	-8503
ynasty	-8504
▁বোলার	-8505
eks	-8506
্‌স	-8507
▁towards	-8508
▁বিস্ফোর	-8509
idae	-8510
▁ভুট	-8511
▁debut	-8512
্যালে	-8513
▁imm	-8514
▁চলচ্চিত্রটির	-8515
▁entire	-8516
gu	-8517
▁পাথর	-8518
▁Bad	-8519
▁independent	-8520
▁মানবাধিকার	-8521
▁Child	-8522
▁যেসব	-8523
লিন	-8524
also	-8525
▁জরি	-8526
▁মাইকেল	-8527
||0||0||0||0	-8528
kh	-8529
বাব	-8530
▁আসল	-8531
▁নিষেধ	-8532
▁প্যান	-8533
▁বিনোদ	-8534
▁regular	-8535
▁উয়ে	-8536
▁বাঁধ	-8537
72	-8538
▁Found	-8539
anned	-8540
▁১৯৬৫	-8541
▁secret	-8542
▁ইজ	-8543
ential	-8544
▁কেন্দ্রে	-8545
▁আশেপ	-8546
▁ভিয়েতনাম	-8547
▁electric	-8548
▁finished	-8549
▁particular	-8550
▁Tok	-8551
▁রূপান্তরিত	-8552
▁TH	-8553
▁দেশটির	-8554
▁Prot	-8555
▁Viet	-8556
ishing	-8557
িয়েল	-8558
▁দ্যা	-8559
▁জয়ী	-8560
▁খরচ	-8561
▁Asian	-8562
▁লিগের	-8563
SA	-8564
▁চা	-8565
▁ডেম	-8566
▁ডা	-8567
▁1985	-8568
▁1979	-8569
▁Rel	-8570
ropol	-8571
▁bank	-8572
▁followed	-8573
enty	-8574
riage	-8575
▁করছি	-8576
▁নারীর	-8577
্টের	-8578
inary	-8579
▁coup	-8580
▁মহাব	-8581
▁বসু	-8582
▁Today	-8583
▁lower	-8584
গরের	-8585
▁prof	-8586
▁মেশ	-8587
▁Charl	-8588
▁ফ্রান্সের	-8589
eel	-8590
▁Matt	-8591
▁taking	-8592
▁Moh	-8593
▁1982	-8594
engers	-8595
তাদের	-8596
পূর্বে	-8597
▁nominated	-8598
▁সর্বপ্রথম	-8599
▁স্নাতকোত্তর	-8600
▁Duke	-8601
▁নৌবাহ	-8602
▁স্থাপিত	-8603
▁Science	-8604
▁পেয়েছেন	-8605
▁প্রদানের	-8606
▁২০২৩	-8607
▁univers	-8608
reedom	-8609
▁বিলিয়ন	-8610
▁Liber	-8611
▁নির্বাহী	-8612
▁BBC	-8613
▁গিল	-8614
▁সাউথ	-8615
▁সংস্কৃতির	-8616
▁Muham	-8617
illy	-8618
▁Rem	-8619
▁মুহাম্মাদ	-8620
▁হাসপাতালে	-8621
▁divided	-8622
▁Georgia	-8623
▁মন্ত্রণালয়	-8624
▁আবির্	-8625
▁আকারের	-8626
▁Long	-8627
▁Po	-8628
▁Islands	-8629
▁শিল্পের	-8630
▁walk	-8631
▁উত্তরাধ	-8632
▁প্রকৃতি	-8633
▁আনুমানিক	-8634
ক্টর	-8635
urder	-8636
▁সাগর	-8637
▁soldiers	-8638
▁Na	-8639
▁spent	-8640
▁70	-8641
▁Alb	-8642
41	-8643
▁স্বয়	-8644
▁continued	-8645
শালী	-8646
▁ক্রিস	-8647
▁সন্দে	-8648
▁decl	-8649
▁বেসরকারি	-8650
▁দলকে	-8651
▁Jes	-8652
▁op	-8653
াগ্র	-8654
▁lawyer	-8655
▁ব্যবস্থাপনা	-8656
ডিআই	-8657
▁2.2	-8658
বাজার	-8659
▁মসজিদটি	-8660
শৈ	-8661
▁তী	-8662
▁pred	-8663
▁রাতে	-8664
▁Bangladesh	-8665
sen	-8666
elled	-8667
▁ওযা়ই	-8668
▁Cop	-8669
▁southwest	-8670
▁architect	-8671
িনো	-8672
▁অব্যাহত	-8673
rian	-8674
▁access	-8675
ploy	-8676
▁oppos	-8677
▁musical	-8678
▁subject	-8679
▁গার্ড	-8680
▁হামলা	-8681
▁difficult	-8682
▁establishments	-8683
▁PLS	-8684
▁ren	-8685
▁মাতা	-8686
▁চলাচল	-8687
▁আধ্যাত্মিক	-8688
-20	-8689
▁invent	-8690
▁indeed	-8691
▁রাশিযা়র	-8692
▁Night	-8693
ray	-8694
▁Jeff	-8695
৩৫	-8696
▁constr	-8697
▁প্রকল্পের	-8698
ulture	-8699
▁market	-8700
▁১৯৬৪	-8701
▁services	-8702
▁আবেদন	-8703
▁associ	-8704
▁ইউনাইটেড	-8705
▁destroyed	-8706
▁জনগো	-8707
ips	-8708
▁Van	-8709
ilies	-8710
▁Series	-8711
্রেট	-8712
▁enc	-8713
▁ব্যক্তিদের	-8714
▁Harry	-8715
▁method	-8716
▁beginning	-8717
▁কূ	-8718
▁তড়ি	-8719
▁গ্রেপ্ত	-8720
▁rule	-8721
▁ফোন	-8722
▁itself	-8723
▁nuc	-8724
▁offer	-8725
▁ব্যবহারকারী	-8726
▁education	-8727
ফতার	-8728
▁প্রযোজক	-8729
undred	-8730
▁পরিষ্কার	-8731
শান	-8732
▁Tam	-8733
▁Ter	-8734
ondiss	-8735
▁ভালোব	-8736
▁সংঘর্ষ	-8737
ken	-8738
▁command	-8739
69	-8740
▁Another	-8741
▁esc	-8742
▁causes	-8743
Th	-8744
▁রিজ	-8745
েন্সি	-8746
oral	-8747
ersey	-8748
চারী	-8749
▁wood	-8750
▁আলি	-8751
▁ঘূর্ণ	-8752
যান	-8753
▁’	-8754
incip	-8755
▁Tour	-8756
▁(3	-8757
▁বেগম	-8758
▁কলম্ব	-8759
▁প্রচারিত	-8760
▁teacher	-8761
erg	-8762
র্ডার	-8763
ইংরেজি	-8764
▁35	-8765
▁অপ্র	-8766
▁মাথা	-8767
▁length	-8768
▁Rail	-8769
▁Daniel	-8770
রান	-8771
পরিচিত	-8772
▁তাতে	-8773
alities	-8774
▁কুমিল্ল	-8775
iced	-8776
▁সোসাইটি	-8777
▁burn	-8778
যাপন	-8779
িংটন	-8780
দাস	-8781
▁Work	-8782
▁গ্রন্থে	-8783
▁sat	-8784
▁থানা	-8785
ylv	-8786
▁Di	-8787
▁getting	-8788
▁systems	-8789
▁speed	-8790
যে	-8791
▁oldest	-8792
umm	-8793
গ্রন্থ	-8794
▁ত্রিপুর	-8795
▁মুসলমানদের	-8796
ইট	-8797
▁1983	-8798
▁Chief	-8799
iot	-8800
▁ইউক্র	-8801
▁contains	-8802
remier	-8803
-2	-8804
▁UE	-8805
▁pers	-8806
▁Nobel	-8807
ভাষা	-8808
▁2.1	-8809
▁ways	-8810
▁middle	-8811
াইযা়	-8812
incess	-8813
রক্ষ	-8814
▁অবদানের	-8815
▁গ্রীষ্মকালীন	-8816
▁Cro	-8817
▁Bal	-8818
▁আর্ট	-8819
▁বিজ্ঞানী	-8820
▁Armen	-8821
▁মাহমুদ	-8822
▁মাঠে	-8823
▁প্রযোজনা	-8824
▁Ty	-8825
িতিক	-8826
▁AD	-8827
▁হাইড্র	-8828
song	-8829
▁Wall	-8830
▁আসতে	-8831
▁Ca	-8832
াড়ি	-8833
▁করেছি	-8834
▁discovered	-8835
▁Czech	-8836
▁Muhammad	-8837
▁yet	-8838
▁Eliz	-8839
▁enem	-8840
▁forg	-8841
▁range	-8842
▁buildings	-8843
▁Team	-8844
ela	-8845
মোট	-8846
▁শাস্ত্র	-8847
▁cle	-8848
াজের	-8849
▁Mem	-8850
▁আপন	-8851
▁ছাডা়ই	-8852
oper	-8853
পের	-8854
▁চাকরি	-8855
▁উত্তরাধিকার	-8856
▁অধিকারী	-8857
▁ver	-8858
▁eyes	-8859
▁bur	-8860
▁Although	-8861
পথে	-8862
▁অবধি	-8863
▁আখ	-8864
৯০	-8865
▁Rom	-8866
▁fly	-8867
্যাক্ট	-8868
▁সমিতি	-8869
▁ওভার	-8870
▁উঠেছে	-8871
িযা়তে	-8872
▁Rome	-8873
▁কানাড	-8874
▁দায়ী	-8875
▁স্বাভাবিক	-8876
inet	-8877
▁হোক	-8878
▁আযা়র	-8879
▁টেন	-8880
▁মামলা	-8881
▁Eastern	-8882
▁Ta	-8883
thur	-8884
▁সহযোগী	-8885
বুক	-8886
▁Bul	-8887
ipl	-8888
▁দাম	-8889
▁Histor	-8890
▁Leon	-8891
▁smaller	-8892
▁শ্রেণীর	-8893
▁রিচার্ড	-8894
▁পদ্ধতিতে	-8895
aches	-8896
▁গঠনের	-8897
▁Nic	-8898
ুলার	-8899
▁poor	-8900
▁nothing	-8901
▁জনপ্রিয়তা	-8902
আমি	-8903
▁ran	-8904
▁ষষ্ঠ	-8905
▁করলেও	-8906
ić	-8907
ঞ্জাম	-8908
▁টার্ম	-8909
▁মূলতঃ	-8910
▁step	-8911
উদ্দিন	-8912
শস্ত্র	-8913
বস	-8914
▁failure	-8915
▁Ohio	-8916
▁মুঘল	-8917
▁features	-8918
▁প্রতিরক্ষা	-8919
▁সাফল্য	-8920
iant	-8921
▁পদ্ধতির	-8922
ফুল	-8923
▁মাউ	-8924
▁বিদ্যালয়ে	-8925
ুগু	-8926
orial	-8927
▁respons	-8928
64	-8929
▁রাজার	-8930
▁লাইব্র	-8931
▁Naz	-8932
▁worship	-8933
▁baseball	-8934
শোধ	-8935
umi	-8936
াদে	-8937
ario	-8938
icine	-8939
▁Mir	-8940
▁described	-8941
▁Bet	-8942
শাসিত	-8943
part	-8944
▁মির	-8945
▁eastern	-8946
▁রয়েছেন	-8947
▁১৯৫৬	-8948
▁একসাথে	-8949
▁অ্যাওযা়র্ড	-8950
▁পর্যালো	-8951
▁৯০	-8952
▁remember	-8953
▁বর্ষপঞ্জ	-8954
▁Ray	-8955
লভ	-8956
▁যাও	-8957
ava	-8958
stra	-8959
▁Wat	-8960
▁চিন	-8961
▁designed	-8962
▁9.	-8963
erve	-8964
▁মঙ্গ	-8965
▁thous	-8966
▁running	-8967
▁wear	-8968
▁লর্ড	-8969
▁2.5	-8970
ester	-8971
▁suggest	-8972
▁পাপ	-8973
▁স্টুডিও	-8974
tain	-8975
েটের	-8976
▁vote	-8977
▁১৯৬৮	-8978
▁Poland	-8979
পাশে	-8980
প্রাচ	-8981
▁ইন্স	-8982
৩৬	-8983
▁sch	-8984
▁প্রকাশের	-8985
▁Revolution	-8986
range	-8987
্রাল	-8988
▁article	-8989
▁পরিচালনার	-8990
▁প্রদর্শিত	-8991
▁পোর্ট	-8992
▁schools	-8993
▁weap	-8994
▁write	-8995
▁নির্ণ	-8996
▁প্রচেষ্টা	-8997
▁বন্য	-8998
inson	-8999
▁Iv	-9000
▁Maria	-9001
▁husband	-9002
▁আসাম	-9003
স্থানীয়	-9004
▁northwest	-9005
খার	-9006
▁উঁচ	-9007
▁1978	-9008
্রু	-9009
▁বিনিয়োগ	-9010
▁আহ্বান	-9011
▁appointed	-9012
▁(2	-9013
বেগ	-9014
ভাগে	-9015
▁খাওযা়	-9016
▁Def	-9017
▁নান	-9018
▁pick	-9019
▁বাধা	-9020
্যাক্স	-9021
▁মৌসুমের	-9022
▁ক্লাস	-9023
▁Southern	-9024
ader	-9025
▁Tre	-9026
নাড়	-9027
▁নিখ	-9028
ডা়তে	-9029
বাই	-9030
mas	-9031
ৃষ্ট	-9032
▁neigh	-9033
▁hospital	-9034
▁train	-9035
▁প্রত্যাখ্যান	-9036
irit	-9037
▁1930	-9038
▁awarded	-9039
োহিত	-9040
াসমূহ	-9041
▁উদ্দিন	-9042
▁রম	-9043
চী	-9044
▁Fox	-9045
তাম	-9046
▁সিড	-9047
▁টেক্স	-9048
▁প্রোট	-9049
ফেস	-9050
মো	-9051
enz	-9052
বস্তু	-9053
শ্রুতি	-9054
▁মুখে	-9055
▁জনতা	-9056
ylvania	-9057
▁ক্রি	-9058
▁অদ	-9059
▁pot	-9060
▁শের	-9061
▁মিলিত	-9062
▁Int	-9063
্লিষ্ট	-9064
▁Rog	-9065
itude	-9066
ricket	-9067
▁বাঁচ	-9068
▁(17	-9069
ennis	-9070
বিহার	-9071
▁warn	-9072
্লেক্স	-9073
▁Blue	-9074
▁অসুস্থ	-9075
▁চর্	-9076
▁forms	-9077
▁মোবাইল	-9078
▁সুপরিচিত	-9079
▁খ্য	-9080
overs	-9081
▁জিযা়	-9082
▁মোক	-9083
▁Also	-9084
▁শ্রীলঙ্কা	-9085
94	-9086
▁সোম	-9087
▁Conf	-9088
ঙ্গার	-9089
▁2016,	-9090
▁সমষ্টি	-9091
▁Representatives	-9092
▁Sa	-9093
▁জ্যাম	-9094
▁Jewish	-9095
▁interview	-9096
▁Inc	-9097
▁ইউনিয়নে	-9098
▁অনুষ্ঠানের	-9099
▁জিজ্ঞ	-9100
▁জৈব	-9101
▁সাহিত্যের	-9102
▁সংক্রম	-9103
াদির	-9104
▁ওড়	-9105
▁২য়	-9106
▁বন্দী	-9107
▁হোযা়	-9108
▁সরিয়ে	-9109
বহুল	-9110
▁1976	-9111
▁তেমন	-9112
▁গাছের	-9113
▁Airport	-9114
▁More	-9115
▁প্রিয়	-9116
বিজ্ঞানের	-9117
▁প্রচারণ	-9118
BS	-9119
▁weeks	-9120
▁promot	-9121
ournament	-9122
▁ঘরে	-9123
াদ্দ	-9124
▁Lab	-9125
▁হত্যার	-9126
▁সার্ভিস	-9127
▁kil	-9128
▁নারীব	-9129
▁matches	-9130
▁1972	-9131
▁তন্ম	-9132
▁তোলে	-9133
84	-9134
onic	-9135
▁broadcast	-9136
হত্যা	-9137
▁1971	-9138
▁মেনে	-9139
ii	-9140
▁খলি	-9141
▁বুক	-9142
istic	-9143
▁sequ	-9144
িনার	-9145
▁১৯৫৭	-9146
▁আক্রমণের	-9147
▁tropical	-9148
্বাস	-9149
▁আবুল	-9150
▁অগ্রসর	-9151
▁কর্পোরেশন	-9152
▁Hell	-9153
▁অধীন	-9154
▁Albert	-9155
▁needed	-9156
▁Islamic	-9157
ভাল	-9158
▁Fort	-9159
▁গ্রামীণ	-9160
িদ্র	-9161
▁End	-9162
▁Raj	-9163
▁inst	-9164
▁psych	-9165
▁জনের	-9166
াগারে	-9167
▁থাইল	-9168
▁দেখিয়ে	-9169
▁traditional	-9170
raham	-9171
▁রাষ্ট্রের	-9172
▁সংজ্ঞায়িত	-9173
93	-9174
▁হ্রদ	-9175
োনার	-9176
align	-9177
▁জার্মানির	-9178
||7	-9179
ুজ্জ	-9180
ebook	-9181
obile	-9182
▁ইঞ্জিনিযা়রিং	-9183
আম	-9184
▁Add	-9185
ত্যাগ	-9186
▁college	-9187
▁Ep	-9188
িকাল	-9189
▁sev	-9190
ector	-9191
▁(@	-9192
▁Ak	-9193
lier	-9194
▁nation	-9195
▁দেযা়র	-9196
▁পাঠানো	-9197
umn	-9198
▁আকাশ	-9199
▁কেবলমাত্র	-9200
াবলী	-9201
▁খ্যাতি	-9202
▁init	-9203
জিযা়ম	-9204
▁Human	-9205
▁towns	-9206
▁Mexican	-9207
▁1.1	-9208
▁তুরস্ক	-9209
▁পৃথিবী	-9210
▁ফেব্রুযা়র	-9211
▁USA	-9212
▁Times	-9213
usp	-9214
এক্স	-9215
▁ডল	-9216
▁ম্যাগাজিন	-9217
▁everything	-9218
ais	-9219
ails	-9220
▁বীজ	-9221
▁ফার্ম	-9222
▁→	-9223
▁মিনিট	-9224
৩৭	-9225
▁তত	-9226
▁gonna	-9227
▁Pope	-9228
▁কোল	-9229
▁Pacific	-9230
ুসে	-9231
▁Johnson	-9232
▁প্রকাশনা	-9233
▁জাতিসংঘের	-9234
92	-9235
▁Conn	-9236
▁বেঙ্গল	-9237
▁অভিজ্ঞতা	-9238
মুনা	-9239
রাম	-9240
চেস্টার	-9241
▁according	-9242
▁চিত্রনাট্য	-9243
▁Girl	-9244
▁ব্রে	-9245
▁টাই	-9246
▁রূপে	-9247
▁Abd	-9248
▁environment	-9249
▁System	-9250
সাময়িক	-9251
▁coming	-9252
▁৪৫	-9253
্যাং	-9254
▁unto	-9255
্যুতিক	-9256
▁ইউরোপের	-9257
▁উপরের	-9258
▁কাঠাম	-9259
▁ইসরায়ে	-9260
▁Les	-9261
den	-9262
ধিক	-9263
▁পেছ	-9264
▁leading	-9265
▁Ken	-9266
▁twice	-9267
▁কেম	-9268
ষ্প	-9269
▁er	-9270
▁Cub	-9271
▁নেপালের	-9272
83	-9273
▁2011.	-9274
▁league	-9275
▁ath	-9276
▁ইঙ্গ	-9277
▁১৯৬১	-9278
োমে	-9279
anna	-9280
▁deal	-9281
▁সেমি	-9282
▁গ্রেফতার	-9283
▁ঘনিষ্ঠ	-9284
rad	-9285
▁comed	-9286
▁কিছুই	-9287
▁Golden	-9288
▁arrondiss	-9289
সভায়	-9290
74	-9291
▁ফি	-9292
▁নেমে	-9293
ওযা়ল	-9294
ৃত্তি	-9295
▁although	-9296
▁document	-9297
▁আবদুল্লাহ	-9298
▁su	-9299
▁১৯৫৪	-9300
▁চাইতে	-9301
▁মধ্যবর্তী	-9302
োধী	-9303
▁private	-9304
ুলা	-9305
▁ইনিংস	-9306
▁Lar	-9307
▁শর্ত	-9308
▁future	-9309
▁জ্যোতির্	-9310
াউন্ট	-9311
▁পর্যটন	-9312
▁championship	-9313
গুপ্ত	-9314
▁Water	-9315
▁humans	-9316
▁relationship	-9317
িত্য	-9318
▁পুনরুদ্ধ	-9319
▁Joe	-9320
▁এখানকার	-9321
-0	-9322
্ডের	-9323
▁দোষ	-9324
▁square	-9325
▁Cy	-9326
▁উজ্জ	-9327
▁Jones	-9328
▁তত্ত্বাব	-9329
জো	-9330
ghan	-9331
wide	-9332
▁Berlin	-9333
বর্ষ	-9334
▁Assembly	-9335
▁2.3	-9336
ক্রমে	-9337
▁রসায়ন	-9338
rance	-9339
▁গুযা়	-9340
▁birds	-9341
▁Ron	-9342
▁kept	-9343
▁♪	-9344
কেত	-9345
hess	-9346
▁Kent	-9347
▁ব্যবসায়ী	-9348
agan	-9349
eland	-9350
পর্যন্ত	-9351
৪৫	-9352
▁ডাযা়	-9353
▁তড়িৎ	-9354
▁FC	-9355
▁সূর	-9356
▁কর্মকাণ্ড	-9357
৩৮	-9358
orary	-9359
▁বোমা	-9360
merc	-9361
▁Road	-9362
▁Vill	-9363
▁বেছে	-9364
▁colon	-9365
▁বরাবর	-9366
▁পিপ	-9367
▁Techn	-9368
ero	-9369
iment	-9370
▁oil	-9371
▁Three	-9372
▁Ly	-9373
্রাহ	-9374
▁Mot	-9375
▁Nations	-9376
▁স্কুলের	-9377
▁45	-9378
▁নেপাল	-9379
▁Jon	-9380
▁Barb	-9381
▁ইউটি	-9382
▁হয়েছিলো	-9383
▁Like	-9384
▁companies	-9385
arr	-9386
গরি	-9387
▁গমন	-9388
sis	-9389
IS	-9390
▁administr	-9391
sk	-9392
▁log	-9393
▁কর্ন	-9394
▁প্রাচীনতম	-9395
▁crime	-9396
▁বিপ্লবী	-9397
ressed	-9398
▁আদালত	-9399
▁গ্রাহ	-9400
▁নিউক্ল	-9401
উর	-9402
▁কাব্য	-9403
▁Polit	-9404
ন্ডার	-9405
ability	-9406
▁উপমহাদেশ	-9407
ault	-9408
▁Penns	-9409
▁businessman	-9410
৩৯	-9411
,000	-9412
▁fore	-9413
ographer	-9414
▁জৈন	-9415
▁medical	-9416
▁wants	-9417
ror	-9418
▁ones	-9419
itness	-9420
▁officer	-9421
▁পাকিস্তানে	-9422
রেট	-9423
র্জা	-9424
▁সমাধ	-9425
▁2011,	-9426
▁মহারাষ্ট্র	-9427
ugg	-9428
▁Those	-9429
anche	-9430
▁তন্মধ্যে	-9431
▁knowledge	-9432
án	-9433
▁জার্ন	-9434
▁Atlantic	-9435
িমের	-9436
প্ল	-9437
▁কর্ণাট	-9438
▁বক্তৃত	-9439
▁শিক্ষার্থীদের	-9440
▁ধূ	-9441
▁Kong	-9442
▁চাম	-9443
▁rather	-9444
ইয়	-9445
inct	-9446
▁পাট	-9447
▁নবাব	-9448
▁সন্ন	-9449
▁ডিজাইন	-9450
সাই	-9451
বিশ্ব	-9452
ricts	-9453
▁চেন্ন	-9454
▁মিশরের	-9455
ষুধ	-9456
▁hol	-9457
বারিক	-9458
▁১ম	-9459
▁রাজত্ব	-9460
▁grew	-9461
▁পাণ্ড	-9462
▁selected	-9463
▁Ret	-9464
▁2007,	-9465
▁Twitter	-9466
lav	-9467
▁cart	-9468
▁শৈশব	-9469
▁active	-9470
▁climate	-9471
▁reb	-9472
▁লাভের	-9473
ulation	-9474
▁du	-9475
▁neg	-9476
ক্ষ্ম	-9477
▁১৯৬৩	-9478
▁minister	-9479
লান	-9480
▁2.4	-9481
▁জলের	-9482
oken	-9483
ceed	-9484
▁self	-9485
▁উর্দ	-9486
▁কায়	-9487
▁ঢাকায়	-9488
Sh	-9489
▁Even	-9490
▁জুনি	-9491
বয়স্ক	-9492
িউড	-9493
্সেল	-9494
▁ঘাট	-9495
▁আশ্রয়	-9496
▁cho	-9497
▁hands	-9498
বাগ	-9499
▁Last	-9500
▁১৯৬৬	-9501
▁Bah	-9502
▁ক্যান্স	-9503
▁সমসাময়িক	-9504
র্ঘট	-9505
▁larger	-9506
lications	-9507
ingu	-9508
▁Jun	-9509
ify	-9510
▁উপজেলায়	-9511
▁তালিকাভুক্ত	-9512
▁teach	-9513
amin	-9514
▁sem	-9515
▁মেজর	-9516
▁হলুদ	-9517
▁surface	-9518
▁Elizabeth	-9519
▁উভয়ই	-9520
▁উয়েফা	-9521
▁চার্লস	-9522
▁Est	-9523
▁higher	-9524
▁Bre	-9525
▁মহার	-9526
▁2010.	-9527
▁রূপান্তর	-9528
▁Pennsylvania	-9529
৪৮	-9530
sort	-9531
▁ইরান	-9532
▁বার্তা	-9533
▁পুনর্	-9534
▁সমূহ	-9535
▁watch	-9536
▁Elst	-9537
▁drink	-9538
icture	-9539
▁Ocean	-9540
▁নন্দ	-9541
▁জাদুঘর	-9542
63	-9543
দীপ	-9544
▁Men	-9545
▁তুলনামূলক	-9546
▁মক্ক	-9547
▁Indones	-9548
▁ব্রাজিল	-9549
elly	-9550
▁সেট	-9551
বিশেষ	-9552
দুর	-9553
▁IS	-9554
▁Squ	-9555
▁মালিকান	-9556
▁বিশেষভাবে	-9557
▁Ell	-9558
value	-9559
▁trying	-9560
▁collect	-9561
73	-9562
▁তামিলনাড়	-9563
▁goal	-9564
▁Municip	-9565
▁quickly	-9566
বর্তিত	-9567
▁Come	-9568
▁আলেক	-9569
্রান্ত	-9570
▁animal	-9571
▁জাতীয়তাবাদী	-9572
ডা়নো	-9573
▁সন্দেহ	-9574
▁ময়মনসিংহ	-9575
uries	-9576
▁বায়ু	-9577
▁জাতির	-9578
স্র	-9579
▁বেসামরিক	-9580
▁মাংস	-9581
▁source	-9582
কেও	-9583
mond	-9584
▁খিল	-9585
▁কার্ল	-9586
▁ভৌগোল	-9587
▁পরীক্ষায়	-9588
vert	-9589
▁hom	-9590
▁magazine	-9591
ভের	-9592
ঃপর	-9593
▁অর্জ	-9594
▁ইউনিট	-9595
▁পিছনে	-9596
▁assist	-9597
▁বইয়ের	-9598
▁cycl	-9599
▁accident	-9600
▁রাশিযা়ন	-9601
▁older	-9602
▁ঘণ্টা	-9603
ারক	-9604
▁rules	-9605
ন্তু	-9606
▁Order	-9607
▁ওযা়ন	-9608
▁তফ	-9609
পেক্ষ	-9610
▁Where	-9611
▁বৈচিত্র	-9612
▁beaut	-9613
শাযা়রের	-9614
▁কর্মজীবন	-9615
▁Az	-9616
▁মিলে	-9617
▁signs	-9618
▁সতর্ক	-9619
▁''	-9620
প্রে	-9621
▁distributed	-9622
্কা	-9623
মাল	-9624
oston	-9625
লীয়	-9626
▁2017,	-9627
arter	-9628
▁disp	-9629
▁অভিনীত	-9630
▁Hor	-9631
▁দাঁড়িয়ে	-9632
▁বৈদ্যুতিক	-9633
ims	-9634
▁eff	-9635
▁starring	-9636
৩২	-9637
▁গুগ	-9638
▁ফিরিয়ে	-9639
ounded	-9640
েদ	-9641
৭৫	-9642
যোগী	-9643
=>	-9644
▁inhabit	-9645
▁bass	-9646
▁লো	-9647
মন্ড	-9648
▁ফিন	-9649
▁heavy	-9650
ভারে	-9651
▁বিশ্বে	-9652
▁ইতালীয়	-9653
ps	-9654
সেস	-9655
▁কর্মরত	-9656
▁society	-9657
▁Ba	-9658
▁লিও	-9659
▁কমিউ	-9660
▁Andrew	-9661
▁winner	-9662
ুম্ব	-9663
▁জারি	-9664
▁জীবনী	-9665
▁Windows	-9666
ito	-9667
▁2018,	-9668
▁passed	-9669
▁মন্ত্রণালয়ের	-9670
▁নিজেই	-9671
ropolitan	-9672
▁Oxford	-9673
▁EUN	-9674
▁Rod	-9675
▁কির	-9676
▁কোর্স	-9677
–18	-9678
▁2013.	-9679
▁surely	-9680
▁লোকেরা	-9681
ustr	-9682
▁Phys	-9683
▁টেকন	-9684
▁অপেক্ষ	-9685
▁bought	-9686
▁seasons	-9687
▁করতো	-9688
▁1940	-9689
▁বিষ্ণু	-9690
ভোগ	-9691
▁আইনজীবী	-9692
eda	-9693
▁তান	-9694
লেই	-9695
▁মুক্তিপ্রাপ্ত	-9696
mann	-9697
▁Wrest	-9698
▁Francisco	-9699
▁Gall	-9700
িযা়মে	-9701
▁সন্ধান	-9702
▁সংশ্লিষ্ট	-9703
াজ্ঞ	-9704
▁Game	-9705
▁দেখায়	-9706
▁জার্মানি	-9707
▁2007.	-9708
▁১৯৫৮	-9709
▁Nick	-9710
▁সিনি	-9711
▁threat	-9712
র্মা	-9713
▁আয়োজিত	-9714
▁সশস্ত্র	-9715
▁অতঃপর	-9716
েচ্ছ	-9717
▁ছাপ	-9718
▁বৈধ	-9719
▁pp	-9720
▁ভিক্টোর	-9721
েলি	-9722
বদন্ত	-9723
▁করেনি	-9724
▁sun	-9725
gal	-9726
স্টার্ন	-9727
▁matter	-9728
ouri	-9729
একটি	-9730
জন্য	-9731
▁সৌর	-9732
▁আফগানিস্তানের	-9733
▁slow	-9734
▁করলেন	-9735
মুক্ত	-9736
▁carry	-9737
▁biggest	-9738
▁Alf	-9739
কারে	-9740
▁Kob	-9741
▁hour	-9742
▁whether	-9743
ER	-9744
▁ইউএস	-9745
▁খুলনা	-9746
▁লক্ষণ	-9747
▁হাফ	-9748
▁গ্রেট	-9749
্রিম	-9750
িংয়ের	-9751
প্প	-9752
▁edition	-9753
▁পরিস্থিতি	-9754
কর্মী	-9755
চারের	-9756
▁১৯২০	-9757
▁below	-9758
achus	-9759
▁মেম	-9760
▁শূন্য	-9761
'-	-9762
bit	-9763
▁Bav	-9764
▁মেন	-9765
illed	-9766
▁দক্ষতা	-9767
৩৪	-9768
▁owned	-9769
▁রবীন্দ্রনাথ	-9770
▁Wild	-9771
▁commonly	-9772
ফট	-9773
▁অপরি	-9774
▁danc	-9775
▁দৃঢ়	-9776
▁episodes	-9777
▁Bell	-9778
▁Family	-9779
▁স্থানান্তর	-9780
জ্জিত	-9781
▁Four	-9782
▁draw	-9783
▁পর্বে	-9784
৯৯	-9785
▁Major	-9786
▁রংপুর	-9787
▁সম্বন্ধে	-9788
▁punishment	-9789
▁Eng	-9790
▁arg	-9791
▁সীমিত	-9792
▁উন্নীত	-9793
▁Library	-9794
ধে	-9795
▁mind	-9796
▁পডা়র	-9797
▁ক্যাথলিক	-9798
সেফ	-9799
chiev	-9800
bre	-9801
enna	-9802
▁সুপ্র	-9803
▁confir	-9804
▁minor	-9805
▁উত্তরা	-9806
▁মেট্রো	-9807
▁Att	-9808
▁জমা	-9809
▁অর্থে	-9810
▁aircraft	-9811
▁presidential	-9812
ikh	-9813
osh	-9814
▁Hy	-9815
▁sen	-9816
▁Arthur	-9817
▁সল	-9818
▁Anim	-9819
▁দেও	-9820
▁flag	-9821
▁উদ্ধার	-9822
কাঠ	-9823
ভিন	-9824
বর্ধমান	-9825
▁murder	-9826
▁মুক্তির	-9827
মিড	-9828
▁deep	-9829
▁পারিবারিক	-9830
aily	-9831
▁জাফ	-9832
করণের	-9833
য়েন্দ	-9834
▁ডু	-9835
▁competition	-9836
রিশ	-9837
▁Top	-9838
igned	-9839
▁বদলে	-9840
▁লেখার	-9841
▁মহাদেশ	-9842
▁Id	-9843
ব্ল	-9844
▁code	-9845
▁question	-9846
82	-9847
apore	-9848
▁Det	-9849
▁উদ্বোধন	-9850
▁খেলেছেন	-9851
▁পুলিশের	-9852
▁অপেক্ষা	-9853
▁কিংবদন্ত	-9854
▁ডাক্ত	-9855
▁সিনেমা	-9856
▁champion	-9857
চ্ছিল	-9858
▁2021,	-9859
িপিড	-9860
▁মিযা়	-9861
▁গ্রেপ্তার	-9862
▁organization	-9863
▁500	-9864
▁শনাক্ত	-9865
▁Journal	-9866
▁নন	-9867
oven	-9868
▁Mario	-9869
দেরকে	-9870
▁1968	-9871
▁save	-9872
airman	-9873
▁গবেষণায়	-9874
▁প্রচেষ্ট	-9875
▁cells	-9876
▁অ্যানিম	-9877
songwriter	-9878
▁আগেই	-9879
▁Jesus	-9880
▁ওডিআই	-9881
▁১৯৪০	-9882
▁goals	-9883
▁হৃদ	-9884
▁১৯৫৫	-9885
লিখিত	-9886
▁ওষুধ	-9887
▁বইটি	-9888
▁Hug	-9889
▁চম	-9890
▁লাখ	-9891
▁insp	-9892
istics	-9893
▁প্রতিদিন	-9894
etts	-9895
▁পলি	-9896
কৃষ্ণ	-9897
▁প্রার্থনা	-9898
="0.	-9899
▁Williams	-9900
চু	-9901
▁van	-9902
▁faith	-9903
▁সপ্তম	-9904
▁families	-9905
▁দুর্	-9906
▁উইন্ড	-9907
▁throughout	-9908
চির	-9909
▁nort	-9910
ানুসারে	-9911
▁scored	-9912
▁Victoria	-9913
িক্যাল	-9914
▁rivers	-9915
isa	-9916
▁সেখানেই	-9917
eech	-9918
alized	-9919
লেক্ট	-9920
▁সাহিত্যিক	-9921
▁ফে	-9922
▁আপনাকে	-9923
▁Columbia	-9924
▁পুরস্ক	-9925
▁Americans	-9926
▁অংশগ্রহণের	-9927
▁৪৮	-9928
কারীর	-9929
▁গ্রুপের	-9930
বছর	-9931
▁সবার	-9932
▁বার্ম	-9933
▁বাড়ির	-9934
▁সন্ধ	-9935
▁সংগঠিত	-9936
▁সমস্যার	-9937
▁ঔষ	-9938
▁অ্যার	-9939
CO	-9940
ederation	-9941
▁1975	-9942
▁এরকম	-9943
▁স্বেচ্ছ	-9944
rah	-9945
uses	-9946
াদুর	-9947
▁স্ত্র	-9948
▁Marc	-9949
ীবন	-9950
▁Sund	-9951
▁2008.	-9952
gn	-9953
্সের	-9954
▁Khan	-9955
িপুর	-9956
▁Profess	-9957
▁সাহিত্যে	-9958
▁স্পেনীয়	-9959
শাহ	-9960
▁শিরোনাম	-9961
▁তুলেন	-9962
▁প্রোটি	-9963
ager	-9964
▁হালকা	-9965
▁Line	-9966
▁room	-9967
▁runs	-9968
present	-9969
▁গিয়েছে	-9970
তাল	-9971
An	-9972
▁দপ্তর	-9973
▁Corn	-9974
▁magn	-9975
ঠা	-9976
াগো	-9977
▁FIFA	-9978
▁আজিজ	-9979
▁৩৬	-9980
▁গ্লোবাল	-9981
নকে	-9982
▁Fre	-9983
▁আবহ	-9984
▁নিল	-9985
▁Afghan	-9986
▁1964	-9987
▁রাজকীয়	-9988
শক্তি	-9989
▁ব্যাং	-9990
্যালেঞ্জ	-9991
▁trees	-9992
▁থাকলেও	-9993
লাল	-9994
▁Bol	-9995
▁anti	-9996
▁2012.	-9997
াদেশিক	-9998
▁print	-9999
▁2009.	-10000
imin	-10001
icated	-10002
▁মিউজিক	-10003
100	-10004
▁তরল	-10005
▁Commission	-10006
BA	-10007
▁etc	-10008
▁eth	-10009
▁কুরআন	-10010
াথ	-10011
▁নথি	-10012
ঙ্ঘ	-10013
▁মাজ	-10014
▁ওযা়শ	-10015
েনি	-10016
▁1974	-10017
▁letter	-10018
▁মাত্রা	-10019
▁temperature	-10020
কাহ	-10021
সঙ্গ	-10022
▁Ger	-10023
▁কুমিল্লা	-10024
ply	-10025
▁vocals	-10026
▁চেক	-10027
▁উঁচু	-10028
▁পরমাণ	-10029
▁উপযুক্ত	-10030
edd	-10031
▁Fe	-10032
▁ইক	-10033
▁Valley	-10034
▁অবস্থার	-10035
56	-10036
ping	-10037
▁নবী	-10038
▁গানটি	-10039
▁sell	-10040
▁ধর্ষণ	-10041
▁কমান্ডার	-10042
টনের	-10043
light	-10044
▁Bank	-10045
▁ক্ষয়	-10046
▁concern	-10047
▁hundred	-10048
▁সম্প্রতি	-10049
▁150	-10050
▁আন্দোলনে	-10051
▁ধান	-10052
▁একাদশ	-10053
ীদার	-10054
utions	-10055
▁introduced	-10056
▁পশ্চিমা	-10057
▁বাংলায়	-10058
▁প্রখ্যাত	-10059
itting	-10060
▁চ্যালেঞ্জ	-10061
▁সম্পর্কের	-10062
▁(0	-10063
▁কবর	-10064
▁তাঁরা	-10065
▁সাতটি	-10066
▁Wars	-10067
▁leaves	-10068
▁ছু	-10069
▁বিশ্বকাপের	-10070
▁Kim	-10071
▁arm	-10072
ye	-10073
▁শাস্তি	-10074
▁2.6	-10075
▁Open	-10076
▁path	-10077
▁2014,	-10078
▁সিনিয়র	-10079
||8	-10080
asing	-10081
ঙ্গাল	-10082
▁৩২	-10083
▁opera	-10084
▁পিএইচ	-10085
▁Pe	-10086
▁১৯৪৬	-10087
▁paper	-10088
▁centre	-10089
▁সবসময়	-10090
▁নিকটবর্তী	-10091
শ্বরের	-10092
▁ফাউন্ডেশন	-10093
▁Li	-10094
রিতে	-10095
▁রোগের	-10096
▁Jersey	-10097
▁hyd	-10098
▁৩টি	-10099
▁জগতে	-10100
▁গোয়েন্দ	-10101
▁abs	-10102
শ্বিক	-10103
▁সত্যি	-10104
্টে	-10105
ুদণ্ড	-10106
una	-10107
▁4:	-10108
▁Nik	-10109
▁involved	-10110
mph	-10111
▁Doug	-10112
▁cook	-10113
▁Boston	-10114
▁Singapore	-10115
▁হুস	-10116
ronic	-10117
▁ফেডারেশন	-10118
▁pil	-10119
▁meters	-10120
asy	-10121
ables	-10122
▁ideas	-10123
▁marriage	-10124
ging	-10125
▁tro	-10126
পক্ষে	-10127
ুদ্রিক	-10128
▁খন	-10129
বর্ণ	-10130
▁discuss	-10131
alled	-10132
▁tells	-10133
বোধ	-10134
▁কৃতিত্ব	-10135
▁আত্মপ্রকাশ	-10136
কুল	-10137
▁Form	-10138
▁জঙ্গ	-10139
▁Committee	-10140
key	-10141
▁answ	-10142
▁brain	-10143
▁ম্যাস	-10144
▁mom	-10145
▁foot	-10146
▁albums	-10147
সুর	-10148
িতাব	-10149
▁অপারেশন	-10150
▁শুনে	-10151
▁স্তরে	-10152
▁সমন্বয়ে	-10153
▁wait	-10154
▁বিপ্লব	-10155
riev	-10156
▁ক্যাস	-10157
▁বন্দ্য	-10158
▁184	-10159
▁hear	-10160
▁Force	-10161
▁সেগুলো	-10162
▁মুক্তিযোদ্ধা	-10163
সেন্স	-10164
▁কমন	-10165
▁ভট্ট	-10166
▁newspaper	-10167
▁ঋণ	-10168
পাদ	-10169
▁ব্যান	-10170
▁শিযা়	-10171
▁বাইরের	-10172
ঘু	-10173
৩১	-10174
▁Ott	-10175
▁১৯৫৯	-10176
▁Entertain	-10177
োয়	-10178
স্কি	-10179
▁স্যাম	-10180
ডাব্লিউ	-10181
▁তারকা	-10182
vers	-10183
▁defeated	-10184
ষম	-10185
▁নৈ	-10186
▁legal	-10187
▁kid	-10188
▁অনুপ্র	-10189
▁মধ্যেই	-10190
achusetts	-10191
▁ওজন	-10192
▁খাত	-10193
▁Chile	-10194
▁starting	-10195
▁অ্যান্টি	-10196
▁Cross	-10197
▁Research	-10198
▁তবু	-10199
▁ব্যাস	-10200
▁pieces	-10201
এটি	-10202
▁Fame	-10203
▁division	-10204
▁disbeliev	-10205
▁Santa	-10206
▁terms	-10207
▁মধ্যকার	-10208
-3	-10209
্ৰ	-10210
▁Die	-10211
▁টুয়েন্টি	-10212
rect	-10213
ür	-10214
cow	-10215
▁prep	-10216
▁চুক্তির	-10217
▁ভৌগোলিক	-10218
isions	-10219
▁founder	-10220
▁দ্বীপের	-10221
andy	-10222
▁von	-10223
টেক	-10224
▁মঙ্গল	-10225
▁purp	-10226
▁যোগ্যতা	-10227
▁foreign	-10228
▁tal	-10229
▁Light	-10230
▁সচেতন	-10231
▁পূর্বের	-10232
▁artists	-10233
▁হিসেবেও	-10234
echan	-10235
▁Mur	-10236
▁ভূমিকম্প	-10237
iny	-10238
▁2006.	-10239
▁জনসাধারণ	-10240
২০১১	-10241
▁Bat	-10242
ums	-10243
istry	-10244
▁respect	-10245
81	-10246
▁সিরিজে	-10247
▁morning	-10248
ভান	-10249
rupt	-10250
▁ফাংশ	-10251
▁2012,	-10252
▁অর্ধেক	-10253
▁Iranian	-10254
▁ফাই	-10255
▁Scient	-10256
▁কাজী	-10257
▁বিজ্ঞানের	-10258
▁Bow	-10259
▁Lem	-10260
▁শাসনের	-10261
▁অর্জনের	-10262
orter	-10263
▁bott	-10264
▁ক্যাপ্টেন	-10265
ার্ধ	-10266
▁professor	-10267
▁যুক্তরাজ্যের	-10268
টিরও	-10269
▁শাক	-10270
▁আংশ	-10271
▁রুট	-10272
▁রোজ	-10273
ওযা়ই	-10274
▁table	-10275
▁emb	-10276
▁becoming	-10277
asion	-10278
▁হ্যাঁ	-10279
▁Massachusetts	-10280
clop	-10281
▁১৯৫১	-10282
িস্টার	-10283
"-	-10284
▁বিংশ	-10285
▁১৯৪৯	-10286
vey	-10287
▁2014.	-10288
▁course	-10289
▁গোল্ডেন	-10290
▁translation	-10291
শাস্ত্র	-10292
▁শ্রীলঙ্কার	-10293
োহন	-10294
▁Ash	-10295
নিম্ন	-10296
▁Stephen	-10297
▁pal	-10298
▁fought	-10299
ফেল	-10300
text	-10301
▁ঘিরে	-10302
▁sport	-10303
fecture	-10304
▁elections	-10305
▁মাধ	-10306
itage	-10307
▁দায়িত্বে	-10308
▁Nep	-10309
iang	-10310
ক্ষিণ	-10311
▁skin	-10312
্যেষ্ঠ	-10313
▁rout	-10314
▁2013,	-10315
▁employ	-10316
হি	-10317
▁Wik	-10318
▁Educ	-10319
enge	-10320
▁সংখ্যার	-10321
▁সম্প্রসারণ	-10322
ads	-10323
▁দাগ	-10324
▁দেখুন	-10325
▁বিনিম	-10326
▁এইভাবে	-10327
ভূমিতে	-10328
▁Chris	-10329
▁attempt	-10330
rows	-10331
াকারী	-10332
▁plat	-10333
▁অনুভূ	-10334
▁প্ল্যাট	-10335
▁সামুদ্রিক	-10336
▁Pen	-10337
lines	-10338
▁ডাব্লিউ	-10339
▁সফরকারী	-10340
▁ফু	-10341
▁Aut	-10342
▁১৯৪৫	-10343
▁genus	-10344
▁সুরক্ষা	-10345
▁Hockey	-10346
▁lines	-10347
ক্ষেত্রে	-10348
ত্তার	-10349
▁Lady	-10350
▁বস্তুর	-10351
▁রহস্য	-10352
▁খাব	-10353
▁ফুটবলার	-10354
inem	-10355
ancy	-10356
ায়েত	-10357
▁সেকেন্ড	-10358
apers	-10359
bury	-10360
▁Tay	-10361
▁Egyptian	-10362
pe	-10363
▁করায়	-10364
▁governor	-10365
৪৭	-10366
hew	-10367
uan	-10368
▁0.	-10369
▁প্রভাবশালী	-10370
দৈ	-10371
▁দো	-10372
▁2.7	-10373
▁Anth	-10374
▁Lind	-10375
▁Only	-10376
▁মাটির	-10377
rec	-10378
▁প্রাদেশিক	-10379
vention	-10380
▁সমালোচক	-10381
িরো	-10382
▁ক্রমবর্ধমান	-10383
▁অবৈ	-10384
▁ধাপ	-10385
▁প্রজন্ম	-10386
িলার	-10387
▁powerful	-10388
▁Ul	-10389
▁covered	-10390
▁পিক	-10391
▁যৌগ	-10392
▁রয়্যাল	-10393
ককে	-10394
▁উপহার	-10395
ée	-10396
ucky	-10397
▁earlier	-10398
uri	-10399
▁তোর	-10400
▁ঘুম	-10401
▁তীর	-10402
▁recent	-10403
▁সন্ন্যাস	-10404
uly	-10405
াণু	-10406
▁ওল	-10407
বন্ধু	-10408
▁পুরনো	-10409
outheast	-10410
▁প্রতিফল	-10411
▁occup	-10412
▁কিভাবে	-10413
▁Festival	-10414
▁security	-10415
▁Hom	-10416
onstr	-10417
▁উইকিপিড	-10418
▁Facebook	-10419
▁fighting	-10420
▁Ali	-10421
▁Dh	-10422
▁অবর	-10423
▁officially	-10424
▁টুক	-10425
▁Econom	-10426
▁Minist	-10427
▁কোরিযা়র	-10428
▁গ্র্যান্ড	-10429
তীত	-10430
শীপ	-10431
▁susp	-10432
গল	-10433
bach	-10434
▁মোকাব	-10435
▁ফোর	-10436
▁revealed	-10437
="4	-10438
▁syn	-10439
▁Niger	-10440
▁বিতরণ	-10441
▁সমালোচ	-10442
bs	-10443
91	-10444
বন্দ	-10445
াসীদের	-10446
▁Jane	-10447
▁editor	-10448
▁Pictures	-10449
মনের	-10450
▁exc	-10451
▁নাকি	-10452
AT	-10453
▁তাক	-10454
ভাই	-10455
▁Gram	-10456
▁forced	-10457
▁শ্রদ্ধ	-10458
▁mention	-10459
▁বিরোধিতা	-10460
▁degree	-10461
▁মহাবিদ	-10462
▁মাটি	-10463
▁Pu	-10464
▁Hey	-10465
▁নেদার	-10466
body	-10467
▁buy	-10468
FL	-10469
ellig	-10470
▁occur	-10471
▁সৃষ্ট	-10472
▁গায়ে	-10473
দূত	-10474
rove	-10475
▁mountains	-10476
▁eggs	-10477
▁ফ্রাঙ্ক	-10478
58	-10479
▁ب	-10480
▁1969	-10481
ece	-10482
▁spl	-10483
▁লাত	-10484
▁রাশিযা়	-10485
▁খ্রিস্টাব্দ	-10486
▁নিষেধাজ্ঞ	-10487
▁ডাল	-10488
▁Global	-10489
াগরের	-10490
▁কুয়ে	-10491
▁সার্ক	-10492
▁citizens	-10493
্বাব	-10494
▁প্রকৌশ	-10495
▁টন	-10496
▁Ira	-10497
▁শাসনাম	-10498
▁উপদে	-10499
▁বাজারে	-10500
▁Cambridge	-10501
▁behav	-10502
▁placed	-10503
৬৫	-10504
সুল	-10505
▁Did	-10506
▁শৈল	-10507
▁রত	-10508
do	-10509
uten	-10510
ঞ্চি	-10511
▁cust	-10512
▁উদ্বোধনী	-10513
▁সুত	-10514
▁inhabitants	-10515
জিং	-10516
▁2008,	-10517
▁image	-10518
▁হার্ড	-10519
প্রাণিত	-10520
▁collection	-10521
▁Ven	-10522
▁Prod	-10523
▁আদিবাসী	-10524
▁অন্তত	-10525
cest	-10526
▁মানের	-10527
▁দুর্ঘট	-10528
কলাপ	-10529
load	-10530
াস্টি	-10531
▁damage	-10532
▁তুই	-10533
▁আটক	-10534
স্ম	-10535
হাম	-10536
▁যোগ্য	-10537
▁function	-10538
▁Post	-10539
াগরীয়	-10540
▁2005.	-10541
▁engineer	-10542
▁tar	-10543
▁থাকায়	-10544
▁খুন	-10545
▁চলতে	-10546
সম্ম	-10547
▁Arts	-10548
মালা	-10549
▁রবি	-10550
house	-10551
ension	-10552
▁Radio	-10553
▁Network	-10554
▁addition	-10555
▁জুনিয়র	-10556
▁লিখেছিলেন	-10557
দহ	-10558
▁সিরাজ	-10559
▁নিদর্শন	-10560
▁চক্রবর্তী	-10561
▁Both	-10562
প্রধান	-10563
▁অনন্য	-10564
▁stopped	-10565
রাং	-10566
▁ওঠেন	-10567
57	-10568
▁tall	-10569
▁ড্যান	-10570
▁হামলার	-10571
▁Oper	-10572
▁তুলনা	-10573
▁সর্বমোট	-10574
▁),	-10575
▁মণ	-10576
ন্নি	-10577
▁উষ্ণ	-10578
স্পষ্ট	-10579
▁Fer	-10580
▁user	-10581
▁further	-10582
ফলে	-10583
▁৩০০	-10584
▁Sometimes	-10585
▁3.0	-10586
▁স্থির	-10587
kins	-10588
▁billion	-10589
▁চিত্রিত	-10590
▁actually	-10591
▁৭৫	-10592
▁অবৈধ	-10593
▁পর্ন	-10594
▁Organ	-10595
-200	-10596
▁los	-10597
সিদ্ধ	-10598
▁2015,	-10599
▁programs	-10600
▁ক্ষতিগ্রস্ত	-10601
▁চুল	-10602
▁Castle	-10603
▁islands	-10604
▁wide	-10605
▁Region	-10606
▁৫০০	-10607
▁1967	-10608
▁ইউরোপে	-10609
াজি	-10610
▁performance	-10611
62	-10612
▁গোপন	-10613
▁Entertainment	-10614
▁Kir	-10615
▁charge	-10616
ho	-10617
itation	-10618
▁প্রত্যাহার	-10619
সনের	-10620
▁Ari	-10621
aters	-10622
▁2021)	-10623
▁পরীক্ষার	-10624
▁সম্মুখীন	-10625
▁পরম	-10626
▁Independ	-10627
▁উন্নয়নের	-10628
▁এশীয়	-10629
▁sexual	-10630
▁বিচারপতি	-10631
▁ডায়	-10632
▁alone	-10633
▁মানুষকে	-10634
▁উনি	-10635
▁regard	-10636
শ্রুত	-10637
▁Down	-10638
▁swim	-10639
▁কাশ্মীর	-10640
adel	-10641
স্কো	-10642
▁2.8	-10643
▁diss	-10644
▁পুরাতন	-10645
▁Moscow	-10646
▁প্রশাসন	-10647
nes	-10648
▁বিন্যাস	-10649
▁Billboard	-10650
িজাত	-10651
▁Cas	-10652
▁অন্তর	-10653
▁থাকলে	-10654
ilities	-10655
▁প্ল্যাটফর্ম	-10656
aga	-10657
teen	-10658
weet	-10659
▁soul	-10660
▁ল্যাব	-10661
▁Observ	-10662
▁পারেননি	-10663
▁CD	-10664
▁Ts	-10665
▁Common	-10666
▁অবস্থানের	-10667
▁ফেলা	-10668
▁মিশন	-10669
▁industry	-10670
▁এটিই	-10671
কত	-10672
▁Ra	-10673
pite	-10674
▁নিয়ন্ত্রিত	-10675
▁Get	-10676
▁সেঞ্চ	-10677
▁হাঙ্গ	-10678
▁spoken	-10679
▁কয়	-10680
icide	-10681
▁১৯৫৩	-10682
৪৯	-10683
ori	-10684
▁করিয়ে	-10685
মৃ	-10686
কায়	-10687
inners	-10688
▁Service	-10689
▁share	-10690
▁comedian	-10691
▁কমপ্লেক্স	-10692
▁base	-10693
▁economic	-10694
▁প্রতিবেদ	-10695
▁গিয়েছিলেন	-10696
▁Ale	-10697
▁Publ	-10698
▁পর্বতম	-10699
▁অ্যাসিড	-10700
▁_	-10701
▁send	-10702
Com	-10703
▁প্রত্যক্ষ	-10704
▁ভা	-10705
▁Eth	-10706
▁বোধ	-10707
▁হয়তো	-10708
▁যাত্রী	-10709
▁2006,	-10710
▁মাযা়	-10711
▁Sus	-10712
ão	-10713
▁harm	-10714
▁ওপেন	-10715
mercial	-10716
▁Donald	-10717
▁অবশিষ্ট	-10718
▁Foundation	-10719
▁ve	-10720
▁pack	-10721
▁কার্ট	-10722
সেরা	-10723
▁উপাস	-10724
▁অলিম্পিকে	-10725
▁enter	-10726
▁adop	-10727
▁ডিসেম্বরে	-10728
▁পৃথিবীতে	-10729
▁knows	-10730
▁trade	-10731
▁ইলেক্ট	-10732
▁শিক্ষাপ্র	-10733
বিংশ	-10734
▁ভিতরে	-10735
▁স্থিত	-10736
▁channel	-10737
▁অংশীদার	-10738
▁Princess	-10739
anth	-10740
▁normal	-10741
▁contrib	-10742
▁মদ	-10743
▁Sel	-10744
▁পির	-10745
icted	-10746
ফিল্ড	-10747
▁পদ্ম	-10748
▁Power	-10749
▁chief	-10750
no	-10751
োমা	-10752
্রা	-10753
ৃষ্ঠ	-10754
▁nine	-10755
▁অ্যাঞ্জ	-10756
ভিড	-10757
▁বর্ধ	-10758
▁meant	-10759
▁কৃত্রিম	-10760
anguage	-10761
▁arrested	-10762
▁complete	-10763
bai	-10764
ees	-10765
ব্ব	-10766
াহার	-10767
বীর	-10768
▁সরল	-10769
ishes	-10770
▁Nord	-10771
▁Orig	-10772
▁উন্নতি	-10773
▁territory	-10774
▁Mid	-10775
▁রপ্ত	-10776
▁multiple	-10777
▁districts	-10778
এবং	-10779
পোষ	-10780
onder	-10781
▁Tokyo	-10782
▁danger	-10783
▁ম্যানেজ	-10784
েন্দ্রনাথ	-10785
▁Swiss	-10786
▁90	-10787
▁মোর	-10788
কারের	-10789
▁value	-10790
▁183	-10791
▁প্রজন	-10792
▁হাস্য	-10793
▁yellow	-10794
মিং	-10795
▁হাউস	-10796
▁পিতাম	-10797
▁qualif	-10798
▁অনুমোদিত	-10799
▁সন্তানের	-10800
▁প্রতিশ্রুতি	-10801
▁Prop	-10802
▁2.9	-10803
▁Tem	-10804
্যারা	-10805
▁ফলস্বরূপ	-10806
ছড়ি	-10807
▁খেলতে	-10808
▁ধরন	-10809
▁summer	-10810
▁winning	-10811
▁cer	-10812
▁তোলা	-10813
▁Space	-10814
▁মাতৃ	-10815
▁শ্যাম	-10816
▁ফ্রান্সিস	-10817
▁ফাইনালে	-10818
▁খ্রিষ্টাব্দের	-10819
▁ly	-10820
▁স্থল	-10821
▁MP	-10822
usion	-10823
▁বিষয়ের	-10824
▁animated	-10825
▁বিশ্বকাপে	-10826
▁মেরে	-10827
▁schol	-10828
▁Winter	-10829
▁নিয়েছে	-10830
▁tournament	-10831
▁Azer	-10832
▁Free	-10833
▁সমাব	-10834
করী	-10835
▁Mas	-10836
দাদ	-10837
▁চিল	-10838
▁attacks	-10839
▁ম্যাচের	-10840
▁contract	-10841
▁launched	-10842
▁ইথ	-10843
াংশে	-10844
▁অনুপ্রাণিত	-10845
ুষ্ক	-10846
▁120	-10847
▁সুখ	-10848
▁dance	-10849
▁piece	-10850
▁Federal	-10851
▁লোকের	-10852
▁Lew	-10853
▁ফেলো	-10854
▁হেনরি	-10855
▁looking	-10856
▁উচ্চারণ	-10857
▁Minn	-10858
▁গল	-10859
▁fifth	-10860
০৫	-10861
▁ব্রো	-10862
▁comment	-10863
isk	-10864
ভেল	-10865
টিটি	-10866
="4"|	-10867
odies	-10868
ুলিপি	-10869
orders	-10870
▁সভাপ	-10871
▁1918	-10872
▁myth	-10873
▁symbol	-10874
="2"|-||	-10875
▁স্পোর্ট	-10876
▁বিধানসভার	-10877
▁2009,	-10878
▁analy	-10879
▁কল্যাণ	-10880
▁সুইড	-10881
▁সমাজে	-10882
ছা	-10883
ধ্ব	-10884
াগল	-10885
▁বাঘ	-10886
▁Pier	-10887
▁আমন্ত্রণ	-10888
▁আচ্ছ	-10889
▁অনুভব	-10890
▁গ্রীক	-10891
▁2019.	-10892
াপি	-10893
▁executive	-10894
ায়নের	-10895
▁ভেঙ্গে	-10896
▁সম্মিল	-10897
▁জিম্বাব	-10898
▁federal	-10899
▁রানে	-10900
▁moving	-10901
▁silver	-10902
▁student	-10903
eman	-10904
ients	-10905
▁সমতল	-10906
▁শ্রম	-10907
change	-10908
▁কমপক্ষে	-10909
▁সরঞ্জাম	-10910
রিত	-10911
athan	-10912
▁অনেকগুলি	-10913
ailed	-10914
▁2014)	-10915
chestra	-10916
বিশিষ্ট	-10917
▁প্রথ	-10918
▁প্রচলন	-10919
▁Justice	-10920
71	-10921
িজি	-10922
▁Belg	-10923
▁weight	-10924
▁মনোযোগ	-10925
▁everyone	-10926
▁আবিষ্কৃত	-10927
▁Constitution	-10928
▁মেহ	-10929
iting	-10930
▁Turkey	-10931
▁লাইনের	-10932
▁পত্রিকার	-10933
০৮	-10934
▁লবণ	-10935
▁Navy	-10936
anning	-10937
েইন	-10938
▁Sav	-10939
▁আগুন	-10940
▁হোটেল	-10941
▁কার্বন	-10942
59	-10943
kin	-10944
more	-10945
▁ক্ষমতার	-10946
10)	-10947
500	-10948
▁loss	-10949
▁মহাম	-10950
ংকং	-10951
▁shr	-10952
▁Mayor	-10953
▁আরবের	-10954
▁প্রকৃতির	-10955
con	-10956
▁supported	-10957
aska	-10958
▁Lev	-10959
▁কাঁচ	-10960
▁heard	-10961
▁Tri	-10962
▁দম্প	-10963
▁গোযা়	-10964
▁স্মৃত	-10965
▁জার্সি	-10966
▁টেলিভিশ	-10967
▁rom	-10968
▁স্পর্শ	-10969
ন্দন	-10970
uguese	-10971
▁speech	-10972
▁Michigan	-10973
emen	-10974
দায়	-10975
▁হুই	-10976
কলা	-10977
ফ্ল	-10978
▁Mike	-10979
▁doll	-10980
▁উপকূ	-10981
▁বিয়ের	-10982
৪৪	-10983
▁Saud	-10984
▁academ	-10985
idden	-10986
▁নিরাপদ	-10987
▁results	-10988
fort	-10989
▁Palest	-10990
▁নৃত	-10991
▁ঘটেছে	-10992
▁ইঙ্গিত	-10993
▁veh	-10994
ক্ষেপে	-10995
▁পতাকা	-10996
▁মন্দিরে	-10997
▁Ky	-10998
last	-10999
▁Adm	-11000
▁আইনি	-11001
▁মুন	-11002
▁generally	-11003
▁ভাস	-11004
▁স্কোযা়	-11005
ওর	-11006
▁দুজন	-11007
▁ভঙ্গ	-11008
▁উর্দু	-11009
▁figure	-11010
▁নিম্নলিখিত	-11011
▁ফো	-11012
▁3.5	-11013
▁Dam	-11014
▁KOR	-11015
দ্দীন	-11016
▁ফরিদ	-11017
▁স্বপ্ন	-11018
osen	-11019
▁Live	-11020
▁গায়	-11021
▁অপারে	-11022
▁বিন্দু	-11023
▁dom	-11024
▁লাইসেন্স	-11025
comp	-11026
▁ঔষধ	-11027
▁পল্ল	-11028
54	-11029
৬৬	-11030
▁3.1	-11031
▁cars	-11032
▁মল	-11033
▁bal	-11034
▁তীর্থ	-11035
▁সদস্যের	-11036
▁সদস্যরূপে	-11037
▁তিনিই	-11038
▁পড়তে	-11039
▁পুরানো	-11040
▁স্বর্গ	-11041
▁অঞ্চলটি	-11042
▁guitarist	-11043
Cl	-11044
টাল	-11045
bass	-11046
জনীন	-11047
▁mic	-11048
ীকরণের	-11049
▁equal	-11050
▁showed	-11051
উপ	-11052
Ser	-11053
▁WWE	-11054
▁personal	-11055
▁Aff	-11056
▁observ	-11057
ার্চ	-11058
▁দাবী	-11059
▁বয়ে	-11060
▁attract	-11061
Un	-11062
met	-11063
▁Hay	-11064
▁cam	-11065
াজপুর	-11066
▁উভয়ের	-11067
▁নাও	-11068
▁একদিন	-11069
▁Vietnam	-11070
▁Christmas	-11071
ডিস	-11072
liga	-11073
▁কেটে	-11074
▁ব্যতীত	-11075
va	-11076
▁উর	-11077
▁ঘনত্ব	-11078
▁Colomb	-11079
▁তি	-11080
||10	-11081
▁bene	-11082
▁গুরুতর	-11083
undes	-11084
▁ভোটার	-11085
▁লেবান	-11086
▁অনুপাত	-11087
মর	-11088
▁স্নায়	-11089
▁Modern	-11090
▁museum	-11091
da	-11092
roke	-11093
▁গোপাল	-11094
stan	-11095
▁sal	-11096
▁ভোগ	-11097
▁Capt	-11098
▁Hong	-11099
▁চিকিৎসক	-11100
ড়ো	-11101
ুড়ি	-11102
endar	-11103
▁paid	-11104
মন্ত্র	-11105
▁নৈতিক	-11106
▁বেই	-11107
▁দ্বি	-11108
▁থান	-11109
ulpt	-11110
▁Sher	-11111
ounter	-11112
inces	-11113
প্রজাত	-11114
▁পুরুষের	-11115
▁separate	-11116
পী	-11117
iac	-11118
▁ব্যার	-11119
nic	-11120
▁fund	-11121
যোজন	-11122
▁issues	-11123
বাংলাদেশ	-11124
ঘ্র	-11125
▁নোযা়	-11126
▁arrondissement	-11127
০৯	-11128
তুর	-11129
▁ple	-11130
▁Card	-11131
▁অষ্টম	-11132
▁ইচ্ছা	-11133
াইক	-11134
▁houses	-11135
▁সদস্যরা	-11136
▁ধ্য	-11137
▁এটাই	-11138
▁গোব	-11139
▁ruled	-11140
▁করেননি	-11141
▁অবলম্বনে	-11142
াভার	-11143
ype	-11144
othing	-11145
▁স্পেস	-11146
জম	-11147
▁ট্রে	-11148
▁মেয়েদের	-11149
LA	-11150
▁সংখ	-11151
▁Var	-11152
under	-11153
▁simply	-11154
▁রাজবংশ	-11155
িশীল	-11156
▁উপগ্রহ	-11157
পতির	-11158
▁kinds	-11159
▁উৎপাদিত	-11160
▁মৃ	-11161
▁পাবে	-11162
গরিষ্ঠ	-11163
▁nature	-11164
▁গ্রন্থাগার	-11165
▁Pres	-11166
ika	-11167
▁Pot	-11168
▁Home	-11169
▁hair	-11170
ফেযা়র	-11171
▁মালিকানাধীন	-11172
medi	-11173
▁ট্রি	-11174
▁যেটা	-11175
▁সভ্য	-11176
▁sleep	-11177
▁percent	-11178
▁বিক্রিযা়	-11179
▁অটো	-11180
burgh	-11181
▁নিষ্ক	-11182
▁মেয়ের	-11183
জাহ	-11184
▁Norway	-11185
▁starts	-11186
▁উজ্জ্বল	-11187
iplom	-11188
▁ডব্লিউ	-11189
▁স্থানের	-11190
০৭	-11191
▁তবুও	-11192
৮৫	-11193
িযা়না	-11194
▁doctor	-11195
▁সহযোগিতা	-11196
gor	-11197
rence	-11198
▁প্যাট	-11199
▁transport	-11200
ীশ	-11201
▁3.2	-11202
▁beat	-11203
▁2017)	-11204
▁লন্ডনের	-11205
▁অভিযুক্ত	-11206
died	-11207
▁Pun	-11208
▁স্ক্র	-11209
▁পর্তুগিজ	-11210
্যাশ	-11211
▁Iraq	-11212
▁খলিফা	-11213
▁studies	-11214
▁চেন্নাই	-11215
▁টুয়েন্টি২০	-11216
▁ইংরেজিতে	-11217
▁উড	-11218
▁3.4	-11219
▁দীপ	-11220
▁Wilson	-11221
▁স্বায়	-11222
▁সাধারণভাবে	-11223
53	-11224
▁৩৩	-11225
anded	-11226
▁তেলুগু	-11227
▁Belgian	-11228
▁দফ	-11229
▁Buddh	-11230
▁philosopher	-11231
▁রুম	-11232
▁Bavaria	-11233
্যিক	-11234
▁Azerbai	-11235
▁পুনরুদ্ধার	-11236
▁চট্টোপাধ্যায়	-11237
▁har	-11238
▁পুঁ	-11239
ওলানা	-11240
▁begins	-11241
ners	-11242
▁2020.	-11243
CC	-11244
কোণ	-11245
▁মুখোপাধ্যায়	-11246
াচ্ছে	-11247
▁গ্রন্থের	-11248
▁1966	-11249
▁জেনে	-11250
্যাপ্ত	-11251
▁regions	-11252
▁users	-11253
▁driver	-11254
▁workers	-11255
IT	-11256
াপিত	-11257
োপুরি	-11258
▁টাইমস	-11259
lar	-11260
াপ্তাহ	-11261
▁Project	-11262
▁Tony	-11263
বিরোধী	-11264
ুদ্দিন	-11265
▁স্কট	-11266
গঠ	-11267
▁দেখার	-11268
▁candidate	-11269
▁৪৭	-11270
▁kilomet	-11271
joy	-11272
▁Nap	-11273
▁thou	-11274
▁ডাকা	-11275
▁বিকশিত	-11276
▁search	-11277
aped	-11278
▁ধন্য	-11279
নির্মাণ	-11280
ষ্ঠানিক	-11281
▁heavens	-11282
▁Missouri	-11283
▁software	-11284
▁Ball	-11285
▁gard	-11286
vin	-11287
কোষ	-11288
▁জিও	-11289
▁শাখার	-11290
▁troops	-11291
▁investig	-11292
▁standard	-11293
▁লস	-11294
াতেই	-11295
▁সাহেব	-11296
lad	-11297
ভূমির	-11298
▁1948	-11299
▁অগ্ন	-11300
▁2022,	-11301
▁এসময়	-11302
▁native	-11303
▁মধ্যমা	-11304
urban	-11305
▁প্রশংস	-11306
াকালে	-11307
স্তান	-11308
▁সম্মেলন	-11309
ourg	-11310
ামীর	-11311
▁Bab	-11312
▁বেশী	-11313
▁UEFA	-11314
▁Senator	-11315
▁বৈশ্বিক	-11316
০১	-11317
▁খোদ	-11318
▁পারবেন	-11319
sey	-11320
▁opt	-11321
▁Look	-11322
▁cold	-11323
▁৷	-11324
▁confl	-11325
▁flight	-11326
lem	-11327
dess	-11328
▁গোষ্ঠীর	-11329
▁positive	-11330
▁হংকং	-11331
▁স্প্যান	-11332
▁খেত	-11333
▁সংস্থাটি	-11334
নিস	-11335
▁1945	-11336
▁ভেবে	-11337
arters	-11338
▁কমান্ড	-11339
▁শ্ল	-11340
▁হি	-11341
▁ওকে	-11342
▁পৃষ্ঠপোষ	-11343
uy	-11344
▁Hard	-11345
▁জমির	-11346
▁বিপুল	-11347
▁earned	-11348
▁রেজিম	-11349
▁তাস	-11350
▁বনাম	-11351
▁Ancient	-11352
▁সাময়িক	-11353
utt	-11354
জিন	-11355
▁এসেছিল	-11356
▁ব্রড	-11357
▁ঈশ্বরের	-11358
▁অক্টোবরে	-11359
▁শরীর	-11360
▁পারেনি	-11361
রেখা	-11362
▁lay	-11363
▁সর্বনিম্ন	-11364
▁Mun	-11365
Le	-11366
▁রৌ	-11367
▁বরি	-11368
▁পুরোপুরি	-11369
esc	-11370
▁pressure	-11371
▁পরপর	-11372
▁2017.	-11373
▁exact	-11374
▁complex	-11375
▁দুধ	-11376
orrow	-11377
▁else	-11378
▁Brook	-11379
▁Death	-11380
▁মুদ্রা	-11381
▁বোর্ডের	-11382
▁ইউসু	-11383
নিবেশিক	-11384
▁হেম	-11385
▁হুমকি	-11386
▁শুভ	-11387
▁2019)	-11388
▁ভেতরে	-11389
▁রিসার্চ	-11390
োকা	-11391
▁রাহ	-11392
▁Kaz	-11393
▁1965	-11394
▁Books	-11395
▁produce	-11396
▁৫৫	-11397
▁সমন্বয়	-11398
igen	-11399
▁issue	-11400
▁অপরের	-11401
▁স্টেশনের	-11402
▁anyone	-11403
▁Israeli	-11404
én	-11405
▁গণনা	-11406
▁plane	-11407
ultural	-11408
▁খ্যাত	-11409
▁অবস্থানে	-11410
▁ফট	-11411
ugal	-11412
▁কোথা	-11413
▁জ্যেষ্ঠ	-11414
pro	-11415
কতা	-11416
▁Wolf	-11417
▁বাগান	-11418
▁চারপাশে	-11419
▁distance	-11420
▁যুক্তরাজ্য	-11421
জিৎ	-11422
▁1956	-11423
▁জানানো	-11424
▁Walter	-11425
▁বিনোদন	-11426
▁ওড়িশ	-11427
▁simple	-11428
▁শিক্ষাপ্রতি	-11429
▁3.3	-11430
ecess	-11431
▁কুরআ	-11432
▁চাহিদা	-11433
▁evidence	-11434
কী	-11435
▁Coll	-11436
▁দোকান	-11437
▁resident	-11438
দশ	-11439
awn	-11440
eer	-11441
uals	-11442
overy	-11443
▁organiz	-11444
▁নেদারল্যান্ড	-11445
▁দশম	-11446
▁সংখ্যাগরিষ্ঠ	-11447
▁জীবিত	-11448
▁উচ্চতর	-11449
▁THM	-11450
▁নাগরিকদের	-11451
▁independence	-11452
৪৬	-11453
▁2015.	-11454
▁বিনিময়ে	-11455
০৬	-11456
▁স্থাপনা	-11457
▁গেমসে	-11458
▁closed	-11459
▁অপসারণ	-11460
▁•	-11461
▁দাখ	-11462
▁চরিত্রের	-11463
দম	-11464
▁চরম	-11465
▁Championships	-11466
িতিতে	-11467
▁store	-11468
▁acting	-11469
▁kingdom	-11470
▁প্রতিবেশ	-11471
▁মন্দিরটি	-11472
▁বাহর	-11473
▁মস্তি	-11474
▁Centre	-11475
▁প্রজাতন্ত্রের	-11476
▁perm	-11477
▁ভবনের	-11478
▁Louisiana	-11479
▁পর্যালোচনা	-11480
গি	-11481
▁খু	-11482
ques	-11483
▁বোঝা	-11484
▁চালায়	-11485
▁structure	-11486
▁অবত	-11487
▁2004.	-11488
▁Turkish	-11489
▁কাগজ	-11490
▁airport	-11491
▁ফাত	-11492
▁Story	-11493
▁লোকদের	-11494
▁machine	-11495
based	-11496
▁nick	-11497
▁গবেষক	-11498
গামী	-11499
▁Dor	-11500
▁গাই	-11501
পোর্ট	-11502
▁measure	-11503
▁Health	-11504
▁controll	-11505
▁Philippines	-11506
▁প্রত্নতাত্ত্বিক	-11507
▁চ্যাপ	-11508
▁ঝুঁকি	-11509
▁শুক্র	-11510
▁ভাইরাস	-11511
তারা	-11512
▁fair	-11513
▁giving	-11514
▁অক্সফোর্ড	-11515
▁আমলে	-11516
▁Steve	-11517
▁অসাধারণ	-11518
▁মুম্বাই	-11519
fall	-11520
▁Merc	-11521
▁গুজর	-11522
▁Peace	-11523
▁adult	-11524
▁ব্রিট	-11525
▁Greece	-11526
▁ধারণার	-11527
▁prevent	-11528
ras	-11529
▁Adam	-11530
▁ভারী	-11531
eva	-11532
▁Main	-11533
▁শিক্ষাবিদ	-11534
▁রেন	-11535
Mar	-11536
▁স্পেনের	-11537
ipe	-11538
জিস্ট	-11539
▁1919	-11540
▁৩৭	-11541
leph	-11542
▁Abb	-11543
▁Anne	-11544
বিজ্ঞানে	-11545
▁স্বাগতিক	-11546
alo	-11547
▁সংকেত	-11548
▁nearly	-11549
▁cry	-11550
গতের	-11551
ার্ক	-11552
ashion	-11553
▁মাউন্ট	-11554
▁মানচিত্র	-11555
▁থাম	-11556
chen	-11557
onto	-11558
▁কার্যালয়	-11559
61	-11560
▁1947	-11561
▁বার্ল	-11562
▁Ukraine	-11563
▁Su	-11564
▁রেখেছে	-11565
▁Kam	-11566
▁করছিল	-11567
▁Special	-11568
▁টিম	-11569
▁তাৎ	-11570
▁pages	-11571
ker	-11572
▁দিত	-11573
ডা়নোর	-11574
▁Color	-11575
▁সৈনিক	-11576
▁হাদিস	-11577
▁achiev	-11578
▁Supreme	-11579
▁fiction	-11580
▁স্টেশনটি	-11581
▁গোয়েন্দা	-11582
▁sav	-11583
▁বসন্ত	-11584
▁হাওযা়	-11585
ীতা	-11586
▁Director	-11587
▁হু	-11588
াণিতিক	-11589
▁flood	-11590
▁Nag	-11591
▁Observatory	-11592
▁বিস্তারিত	-11593
▁eventually	-11594
▁হয	-11595
icist	-11596
▁Back	-11597
▁বাংলাদেশি	-11598
পদক	-11599
▁জংশ	-11600
="2"|-||3	-11601
৯৫	-11602
াতো	-11603
endo	-11604
▁সেপ্টেম্বরে	-11605
▁mole	-11606
▁taught	-11607
▁রান্না	-11608
▁বিষয়বস্তু	-11609
ূন	-11610
▁tri	-11611
▁মরি	-11612
▁টিকে	-11613
▁উপদেষ্টা	-11614
থন	-11615
▁হ্যাম	-11616
▁Lawrence	-11617
জী	-11618
▁Deb	-11619
▁শিষ্য	-11620
▁Yes	-11621
▁Stand	-11622
lers	-11623
▁Jord	-11624
▁units	-11625
▁likely	-11626
onse	-11627
astic	-11628
▁doub	-11629
▁flow	-11630
▁historical	-11631
▁করব	-11632
▁ঘটন	-11633
▁ইন্দ্র	-11634
াপ্তাহিক	-11635
▁গণতান্ত্রিক	-11636
▁নূর	-11637
▁judge	-11638
▁৩৪	-11639
্বের	-11640
▁রাব	-11641
রিদ্র	-11642
▁অগ্নি	-11643
▁সম্পাদনা	-11644
▁এডওযা়র্ড	-11645
▁নিউজিল্যান্ডের	-11646
▁Tar	-11647
▁creation	-11648
নিং	-11649
অর্থ	-11650
স্যু	-11651
ৃঙ্খ	-11652
▁ভ্যাল	-11653
▁Taylor	-11654
▁নবম	-11655
▁গান্ধী	-11656
irm	-11657
্ডা	-11658
▁Exp	-11659
zo	-11660
দৈর্ঘ	-11661
▁Disc	-11662
▁প্রাপ্তবয়স্ক	-11663
yal	-11664
ংসের	-11665
▁মাক	-11666
▁Argentina	-11667
▁ভল	-11668
▁bul	-11669
▁উৎসবে	-11670
▁শরীরের	-11671
▁ডাক্তার	-11672
▁৩৮	-11673
▁আয়ত	-11674
▁|20	-11675
▁বংশধর	-11676
▁উজ	-11677
aste	-11678
▁1963	-11679
▁হাওডা়	-11680
ুলি	-11681
োলেন	-11682
▁সড়	-11683
▁গুলো	-11684
▁অন্ধ্র	-11685
▁মহাবিশ	-11686
▁Channel	-11687
▁অফিসিযা়ল	-11688
▁frequ	-11689
▁বলেছে	-11690
▁নুর	-11691
্যারি	-11692
raight	-11693
▁একত্রে	-11694
▁বন্দ্যোপাধ্যায়	-11695
'.	-11696
▁3.6	-11697
▁এক্ষ	-11698
eral	-11699
antic	-11700
▁elev	-11701
▁Movies	-11702
Sp	-11703
▁শেযা়র	-11704
▁মধ্যযুগীয়	-11705
GB	-11706
’’	-11707
▁Develop	-11708
▁remains	-11709
▁stations	-11710
রাট	-11711
▁nuclear	-11712
▁ত্ব	-11713
▁dial	-11714
▁Brother	-11715
▁parliament	-11716
▁চিঠি	-11717
ম্মদ	-11718
umber	-11719
▁Holy	-11720
▁হাইক	-11721
▁গোডা়র	-11722
▁doesn	-11723
▁জামাল	-11724
▁Belgium	-11725
ardo	-11726
ক্ষেত্র	-11727
ening	-11728
▁Kat	-11729
ায়কের	-11730
▁Clark	-11731
▁জার্নাল	-11732
hin	-11733
▁file	-11734
▁আটটি	-11735
▁মেয়র	-11736
▁সান্ত	-11737
▁উৎসর্গ	-11738
▁সমীকরণ	-11739
▁elements	-11740
▁Han	-11741
▁মীর	-11742
water	-11743
▁Serb	-11744
▁mis	-11745
▁এসেছিলেন	-11746
▁টের	-11747
acts	-11748
▁sky	-11749
▁পেল	-11750
▁1962	-11751
▁আজার	-11752
▁যেগুলো	-11753
▁featured	-11754
▁looks	-11755
▁সুতরাং	-11756
▁সেন্ট্রাল	-11757
ications	-11758
▁Stat	-11759
▁Ste	-11760
amber	-11761
র্মান	-11762
▁আস্ত	-11763
▁পূরণ	-11764
ternal	-11765
▁অধ্যক্ষ	-11766
▁পদত্যাগ	-11767
ভিষ	-11768
▁removed	-11769
▁পারদর্শ	-11770
পাক	-11771
ayashi	-11772
▁ভাডা়	-11773
োলি	-11774
▁majority	-11775
roc	-11776
▁হিট	-11777
ডব্লিউ	-11778
▁ইতিবাচক	-11779
াঘ	-11780
▁৪৯	-11781
▁৪টি	-11782
জেন্ট	-11783
▁৬৫	-11784
ডো	-11785
▁reviews	-11786
▁১৯৪২	-11787
▁দৃষ্টিভঙ্গি	-11788
▁কানাডার	-11789
্নার	-11790
ogle	-11791
▁300	-11792
ুয়েল	-11793
চল	-11794
▁quite	-11795
▁আগ্রহী	-11796
▁Tai	-11797
▁কূট	-11798
▁তেজ	-11799
▁ইংল্যান্ডে	-11800
ক্তা	-11801
iance	-11802
প্রায়	-11803
▁sculpt	-11804
▁technology	-11805
52	-11806
IA	-11807
▁Walk	-11808
▁লাগে	-11809
▁অধ্যায়	-11810
▁যোগাযোগের	-11811
▁নাচ	-11812
▁সহায়ক	-11813
▁অভিযানের	-11814
লেস	-11815
▁গুগল	-11816
▁পাঠিয়ে	-11817
▁কিংবদন্তি	-11818
▁মধ্যমাঠের	-11819
▁নজরুল	-11820
দ্বীপের	-11821
▁একীভূত	-11822
▁Heart	-11823
পশ্চিমে	-11824
▁princip	-11825
▁শরণ	-11826
▁comput	-11827
▁মাথায়	-11828
হল	-11829
▁Thr	-11830
▁ন্য	-11831
▁বিক্রম	-11832
▁serious	-11833
▁ছাত্রদের	-11834
▁কমিশনের	-11835
গিত	-11836
হাই	-11837
কর্ত	-11838
িকেশন	-11839
▁মোহন	-11840
▁সবকিছু	-11841
▁Nat	-11842
ilton	-11843
▁link	-11844
▁hurricane	-11845
rief	-11846
cyclop	-11847
▁স্মিথ	-11848
▁সমাবেশ	-11849
▁আফগানিস্তান	-11850
It	-11851
৮৬	-11852
ocol	-11853
▁Gab	-11854
▁দেবে	-11855
স্থানের	-11856
▁provide	-11857
hat	-11858
তলা	-11859
▁৫২	-11860
▁Ern	-11861
▁Inf	-11862
▁YouT	-11863
শাযা়র	-11864
||9	-11865
▁Vice	-11866
▁training	-11867
▁awards	-11868
mi	-11869
▁2003.	-11870
▁নাটকে	-11871
▁message	-11872
▁fle	-11873
▁lake	-11874
▁ধন্যবাদ	-11875
▁নিয়েছিল	-11876
▁ইন্দো	-11877
▁অর্ডার	-11878
▁2:	-11879
▁Broad	-11880
▁কোরিযা়	-11881
▁রাস্তায়	-11882
▁(4	-11883
▁36	-11884
rees	-11885
▁motor	-11886
০৪	-11887
মুখী	-11888
▁ইসম	-11889
▁Office	-11890
▁status	-11891
▁appears	-11892
ss	-11893
aro	-11894
▁কৈ	-11895
▁গরম	-11896
▁girls	-11897
▁ভালবাস	-11898
▁railway	-11899
▁singles	-11900
▁পঞ্চায়েত	-11901
▁ع	-11902
▁planet	-11903
▁1946	-11904
▁primary	-11905
বৃত্ত	-11906
▁বরিশাল	-11907
▁altern	-11908
▁মাটিতে	-11909
▁represented	-11910
▁unit	-11911
▁দাখিল	-11912
▁ব্রোঞ্জ	-11913
▁hop	-11914
▁1961	-11915
▁2005,	-11916
▁আগ্নে	-11917
VD	-11918
pes	-11919
ধরনের	-11920
▁bridge	-11921
▁স্ট্যান্ড	-11922
▁32	-11923
▁Tenn	-11924
▁trav	-11925
▁বৃষ্টিপাত	-11926
গ্রাফ	-11927
▁Domin	-11928
▁ক্লিন	-11929
▁আব্বাস	-11930
▁Kan	-11931
▁ব্লকের	-11932
োগ্রাফি	-11933
aza	-11934
▁rate	-11935
isation	-11936
▁বেরিয়ে	-11937
▁Dream	-11938
vest	-11939
▁Chap	-11940
▁seek	-11941
▁Hindu	-11942
বাইজ	-11943
▁সংকলন	-11944
ঘা	-11945
▁hero	-11946
▁ভ্যান	-11947
▁2018.	-11948
▁কার্যকরী	-11949
▁Wrestling	-11950
state	-11951
▁মিযা়ন	-11952
▁letters	-11953
▁historian	-11954
র্গঠ	-11955
opher	-11956
▁মঙ্গোল	-11957
▁সম্পত্তি	-11958
orporation	-11959
▁Sab	-11960
▁easy	-11961
▁কলা	-11962
বাড়ি	-11963
▁সকাল	-11964
III	-11965
রাফ	-11966
ডা়ল	-11967
▁sac	-11968
▁কবির	-11969
▁ডানহাতে	-11970
usc	-11971
বাক	-11972
real	-11973
▁করছিলেন	-11974
▁Ot	-11975
▁label	-11976
▁কাই	-11977
▁সিন্ধু	-11978
▁mission	-11979
▁Pas	-11980
▁Hart	-11981
▁সৌন্দর	-11982
▁ess	-11983
▁চলছে	-11984
▁১৯৩৯	-11985
০৩	-11986
৮৭	-11987
▁1936	-11988
▁Marsh	-11989
▁নামানুসারে	-11990
▁লন্ডনে	-11991
▁১৯৪৪	-11992
▁sides	-11993
▁দমন	-11994
▁mixed	-11995
ription	-11996
বর্তমানে	-11997
▁meeting	-11998
▁ক্রিকেটের	-11999
▁উইকে	-12000
▁ইব্রাহ	-12001
▁বালিকা	-12002
▁1952	-12003
▁adapt	-12004
▁ল্যান্ড	-12005
avy	-12006
▁ring	-12007
▁মতবাদ	-12008
acc	-12009
▁সাস	-12010
ources	-12011
▁Medal	-12012
▁প্রান্তে	-12013
ষদের	-12014
▁জাভ	-12015
▁wild	-12016
▁Saudi	-12017
▁অক্ষর	-12018
▁chosen	-12019
▁বিমানবন্দ	-12020
stitu	-12021
uj	-12022
▁খোঁ	-12023
▁কাঠের	-12024
▁বেশিরভাগই	-12025
oes	-12026
ঘ্রই	-12027
▁Leb	-12028
▁পতন	-12029
▁exec	-12030
▁IV	-12031
▁বর্ণের	-12032
ervative	-12033
▁উৎপাদনের	-12034
দেহ	-12035
▁NHL	-12036
▁Finn	-12037
▁brown	-12038
▁ভিক্ষ	-12039
▁Indeed	-12040
▁conditions	-12041
▁দখ	-12042
▁চেত	-12043
▁administrative	-12044
▁lif	-12045
▁ste	-12046
▁স্থাপনের	-12047
ডিও	-12048
▁জনসাধারণের	-12049
▁Hans	-12050
▁See	-12051
▁nob	-12052
▁কৌত	-12053
▁guard	-12054
▁Bridge	-12055
▁বিচারক	-12056
▁decision	-12057
▁কেপ	-12058
▁1942	-12059
▁2015)	-12060
▁পিএইচডি	-12061
▁greatest	-12062
▁আধিপ	-12063
াবাদের	-12064
▁ships	-12065
▁trial	-12066
aux	-12067
▁Od	-12068
▁দা	-12069
টিভি	-12070
ears	-12071
▁1954	-12072
▁সম্মেলনে	-12073
▁earthqu	-12074
▁increase	-12075
▁Lor	-12076
ivity	-12077
wegian	-12078
▁পেছনে	-12079
▁আবহাওযা়	-12080
lets	-12081
▁knew	-12082
▁অ্যাট	-12083
▁রিযা়	-12084
▁screenwriter	-12085
▁টম	-12086
▁এলাক	-12087
▁কষ্ট	-12088
▁Micro	-12089
phia	-12090
ৃক্ত	-12091
▁Sri	-12092
▁happens	-12093
▁leaving	-12094
▁সপ্তাহে	-12095
▁স্টেশনে	-12096
▁বিতর্কিত	-12097
▁Portuguese	-12098
▁Bon	-12099
▁ফসল	-12100
▁থাকাকালীন	-12101
MA	-12102
▁ডিক	-12103
▁অশ্ব	-12104
▁gather	-12105
▁ভূখণ্ড	-12106
▁প্রশান্ত	-12107
ni	-12108
▁Tun	-12109
esota	-12110
perial	-12111
▁ডানার	-12112
▁fix	-12113
▁3.7	-12114
স্থায়ী	-12115
▁Malays	-12116
▁পানীয়	-12117
▁স্ত্রীর	-12118
▁attacked	-12119
▁দরিদ্র	-12120
▁অনেকগুলো	-12121
▁গর	-12122
▁জম্ম	-12123
▁ঝাড়	-12124
▁সহজেই	-12125
▁Encyclop	-12126
lan	-12127
▁করিম	-12128
▁clean	-12129
▁divor	-12130
▁continue	-12131
চাই	-12132
োনো	-12133
▁তল	-12134
▁প্রবণ	-12135
▁(16	-12136
▁Mand	-12137
▁মিথ্যা	-12138
▁double	-12139
▁শহরটির	-12140
▁wrestler	-12141
োজিত	-12142
▁কেল	-12143
ষ্ঠিত	-12144
▁Yeah	-12145
▁আইএস	-12146
▁entered	-12147
▁পার্বত্য	-12148
▁গানে	-12149
জাতীয়	-12150
▁প্যাল	-12151
▁fuck	-12152
▁কারো	-12153
▁2021.	-12154
▁মেশিন	-12155
▁Kobayashi	-12156
▁scientists	-12157
pa	-12158
▁এপর্যন্ত	-12159
▁commercial	-12160
াতিক	-12161
োশ	-12162
▁ইবন	-12163
ক্তির	-12164
▁গাড়	-12165
▁2018)	-12166
▁Stanley	-12167
▁চাচ	-12168
▁jazz	-12169
onze	-12170
▁Portugal	-12171
▁Afghanistan	-12172
ibility	-12173
▁determ	-12174
▁পরিধান	-12175
▁ইঞ্চি	-12176
▁মতামত	-12177
▁Syd	-12178
ufact	-12179
anced	-12180
othes	-12181
road	-12182
▁Have	-12183
▁heat	-12184
▁১৯৩৭	-12185
▁অঙ্গরাজ	-12186
▁ডানহাতি	-12187
▁সময়কাল	-12188
sex	-12189
▁প্রাসাদ	-12190
▁কিনে	-12191
Bl	-12192
ache	-12193
lywood	-12194
▁কোযা়ন্ট	-12195
▁Education	-12196
ión	-12197
▁সরে	-12198
ban	-12199
ারম্ভ	-12200
▁গোলে	-12201
৯৮	-12202
mun	-12203
▁José	-12204
▁প্রদর্শনী	-12205
াসহ	-12206
▁ইউটিউ	-12207
▁বার্ন	-12208
▁সঙ্গীতের	-12209
২০১৩	-12210
▁3.8	-12211
ঞ্জস্য	-12212
ুকু	-12213
▁রিক	-12214
▁টাউন	-12215
▁কিছুদিন	-12216
▁সামনের	-12217
▁ইনস্টিটিউ	-12218
▁সৎ	-12219
▁আলোর	-12220
▁সোনার	-12221
▁ক্যামের	-12222
esh	-12223
▁বৈদিক	-12224
zy	-12225
▁স্তম্ভ	-12226
ía	-12227
্যব	-12228
▁কাউন্সিলের	-12229
▁Municipality	-12230
মধ্যে	-12231
▁diplom	-12232
▁অস্থায়ী	-12233
▁বাসিন্দা	-12234
▁সাপ্তাহিক	-12235
▁১৯৩৬	-12236
▁Ont	-12237
▁witness	-12238
▁প্রতিস্থাপন	-12239
গরে	-12240
▁ভাগে	-12241
▁গ্রেগর	-12242
▁পাইল	-12243
▁3.9	-12244
▁সুদ	-12245
▁হযরত	-12246
▁electr	-12247
▁remain	-12248
▁Minnesota	-12249
rig	-12250
▁fruit	-12251
▁Johann	-12252
▁দর্শনের	-12253
▁বিজ্ঞাপন	-12254
সাদ	-12255
▁Band	-12256
▁Nepal	-12257
▁Freder	-12258
▁products	-12259
▁আশেপাশের	-12260
▁নোট	-12261
▁merged	-12262
▁Premier	-12263
▁records	-12264
▁ইতিহাসবিদ	-12265
সীম	-12266
জনিত	-12267
▁era	-12268
▁2016.	-12269
▁contain	-12270
▁section	-12271
▁সম্মাননা	-12272
▁worldwide	-12273
▁appearance	-12274
▁Hun	-12275
োনিযা়	-12276
▁mechan	-12277
▁writes	-12278
▁দ্বন্দ্ব	-12279
▁৫১	-12280
দাতা	-12281
stone	-12282
▁সম্মিলিত	-12283
ificant	-12284
▁তাছাডা়	-12285
▁নভেম্বরে	-12286
▁shape	-12287
▁নির্মাতা	-12288
▁mathematician	-12289
dam	-12290
ista	-12291
▁rob	-12292
▁লেফ	-12293
▁প্রদেশে	-12294
▁শাসনামলে	-12295
▁1939	-12296
▁terror	-12297
▁widely	-12298
▁লর	-12299
ello	-12300
emic	-12301
ুপদী	-12302
▁বক্তব্য	-12303
▁physical	-12304
▁কিম	-12305
▁লুইস	-12306
▁সংজ্ঞা	-12307
▁কর্মীদের	-12308
bec	-12309
oli	-12310
▁শরী	-12311
▁টুইট	-12312
▁প্রথা	-12313
▁Master	-12314
▁parties	-12315
▁Hu	-12316
▁Pit	-12317
▁পরেই	-12318
▁categ	-12319
মধ্য	-12320
▁শীতল	-12321
▁গ্রাফ	-12322
▁নির্ণয়	-12323
down	-12324
▁সংলগ্ন	-12325
োযা়ন	-12326
▁Shah	-12327
▁কথিত	-12328
▁Brian	-12329
▁জোসেফ	-12330
adelphia	-12331
▁170	-12332
▁1949	-12333
▁পত্রিকায়	-12334
৯৬	-12335
▁1941	-12336
▁Karl	-12337
▁ends	-12338
▁সোহ	-12339
▁Writ	-12340
resh	-12341
পুত্র	-12342
▁1958	-12343
▁টেলি	-12344
reement	-12345
▁ঘটেছিল	-12346
▁শীঘ্রই	-12347
▁Captain	-12348
▁cultural	-12349
▁victory	-12350
▁politics	-12351
▁Lie	-12352
▁স্টক	-12353
▁2001.	-12354
▁কানাডা	-12355
▁খনন	-12356
িক্ষেপ	-12357
▁municipalities	-12358
▁Coast	-12359
▁carbon	-12360
ourney	-12361
৭৬	-12362
ibb	-12363
▁যেকোনো	-12364
▁তৃণ	-12365
▁কর্নেল	-12366
▁মিনিটে	-12367
-18	-12368
▁সিপি	-12369
▁আকৃতির	-12370
vis	-12371
▁peak	-12372
▁reject	-12373
▁প্রাণীর	-12374
িস্ক	-12375
কাম	-12376
▁dry	-12377
▁কাক	-12378
ত্তির	-12379
▁belief	-12380
▁deaths	-12381
▁সেগুলি	-12382
▁বিপ্লবের	-12383
▁cred	-12384
▁তত্ত্বের	-12385
ان	-12386
▁১৯৩৮	-12387
▁খেলতেন	-12388
শ্রুতিতে	-12389
▁Children	-12390
▁Argentine	-12391
és	-12392
ৃত্যু	-12393
▁রাজি	-12394
anchester	-12395
▁Norwegian	-12396
▁টার্মিনাল	-12397
▁Nar	-12398
▁বিন্দ	-12399
▁মরু	-12400
▁foss	-12401
weight	-12402
▁তিনজন	-12403
▁display	-12404
▁অট	-12405
▁অনেকেই	-12406
▁gre	-12407
▁rac	-12408
▁please	-12409
▁weapons	-12410
▁°	-12411
obe	-12412
▁নল	-12413
orer	-12414
নির্ব	-12415
▁পররাষ্ট্র	-12416
▁স্বর	-12417
▁সমাধি	-12418
hol	-12419
▁লেক	-12420
rogen	-12421
▁গণমাধ্য	-12422
▁ঔপনিবেশিক	-12423
খিক	-12424
▁Sax	-12425
?"	-12426
ইস	-12427
enez	-12428
▁তহবিল	-12429
intendo	-12430
▁অভিযোগে	-12431
▁northeast	-12432
ফু	-12433
||12	-12434
▁Moon	-12435
▁প্রমুখ	-12436
▁দিল্লির	-12437
zen	-12438
িমার	-12439
▁Moses	-12440
▁একাডেমিক	-12441
▁১৯৩৩	-12442
▁autom	-12443
▁অজানা	-12444
▁মানিক	-12445
▁হার্ট	-12446
▁ক্রস	-12447
াওযা়র	-12448
▁mayor	-12449
▁চালিত	-12450
▁property	-12451
▁দেশীয়	-12452
▁পুনর্ব	-12453
▁প্রজনন	-12454
▁জানুযা়রিতে	-12455
IV	-12456
▁É	-12457
rics	-12458
▁gone	-12459
▁enjoy	-12460
▁YouTube	-12461
▁Television	-12462
FC	-12463
▁উপকূলীয়	-12464
▁أ	-12465
▁গির	-12466
▁1957	-12467
▁Fair	-12468
▁অ্যাপ্ল	-12469
▁tradition	-12470
▁Kal	-12471
▁Son	-12472
▁রিভ	-12473
action	-12474
▁গ্রিন	-12475
▁ancest	-12476
৪২	-12477
নাগ	-12478
ক্ষমতা	-12479
▁ত্রুটি	-12480
▁আরোপ	-12481
ession	-12482
▁trust	-12483
ties	-12484
▁সাঁতার	-12485
▁সম্মানিত	-12486
ör	-12487
oses	-12488
কার্য	-12489
▁সংশোধন	-12490
▁হত্যাক	-12491
▁ফেডারেল	-12492
মূ	-12493
ety	-12494
▁Fil	-12495
▁অনুপস্থ	-12496
▁completed	-12497
ffic	-12498
uits	-12499
মল	-12500
োক্ত	-12501
istance	-12502
▁Voices	-12503
▁Ross	-12504
▁এবার	-12505
▁খুলে	-12506
▁জন্যও	-12507
▁Flight	-12508
বাড়ী	-12509
▁effects	-12510
▁প্রস্তুতি	-12511
▁corn	-12512
▁films	-12513
▁বিস্ম	-12514
▁মাওলানা	-12515
▁সংগঠনের	-12516
▁পাহাড়ের	-12517
▁পুরস্কারে	-12518
▁Marie	-12519
▁situation	-12520
▁Bir	-12521
▁টোক	-12522
ideos	-12523
▁Jenn	-12524
▁মহাপ	-12525
▁activities	-12526
▁179	-12527
ether	-12528
▁কৃষক	-12529
▁listed	-12530
ocks	-12531
izumi	-12532
রক্ষক	-12533
▁baby	-12534
▁কেননা	-12535
▁বৈষ্ণ	-12536
্ট্রি	-12537
▁Gord	-12538
▁কোথাও	-12539
▁ফাস্ট	-12540
▁রাস্তার	-12541
)"	-12542
ancial	-12543
▁2022)	-12544
▁ইউসুফ	-12545
▁মিনার	-12546
▁বক্তৃতা	-12547
▁violence	-12548
rang	-12549
▁আগত	-12550
▁টান	-12551
▁folk	-12552
sequ	-12553
▁নাগাদ	-12554
▁আর্মেন	-12555
▁পাথরের	-12556
▁Studies	-12557
▁নিয়োজিত	-12558
adi	-12559
sky	-12560
▁Police	-12561
aron	-12562
▁Sports	-12563
▁Ontario	-12564
▁Toronto	-12565
▁তাডা়	-12566
▁জয়ের	-12567
▁স্টাড	-12568
▁Jordan	-12569
▁নিয়েছেন	-12570
▁Jam	-12571
▁Fore	-12572
▁racing	-12573
▁freedom	-12574
▁এক্ষেত্রে	-12575
তিনি	-12576
েলার	-12577
▁জাগ	-12578
াঙ্গা	-12579
▁1934	-12580
▁১৯৩৫	-12581
▁যৌথভাবে	-12582
▁মুখ্যমন্ত্রী	-12583
▁ফেন	-12584
▁মেস	-12585
▁Jews	-12586
▁ফিল্ড	-12587
▁Muslims	-12588
▁Ay	-12589
▁Cur	-12590
▁যেত	-12591
▁Media	-12592
▁practice	-12593
▁individual	-12594
iop	-12595
▁Dig	-12596
▁Kor	-12597
alais	-12598
▁Dark	-12599
▁নর্থ	-12600
▁দূতাব	-12601
িসা	-12602
▁fell	-12603
rovers	-12604
▁Patrick	-12605
▁Christopher	-12606
book	-12607
▁দ্বীপে	-12608
▁songwriter	-12609
▁চ্যাম্পিয়নশীপ	-12610
▁মুম্বই	-12611
▁উপত্যকা	-12612
▁পার্শ্ববর্তী	-12613
lo	-12614
iled	-12615
▁Denmark	-12616
▁প্রারম্ভ	-12617
▁৫টি	-12618
after	-12619
▁সুবিধ	-12620
▁কারখানা	-12621
▁Douglas	-12622
▁reasons	-12623
▁reports	-12624
▁কমনওয়েল	-12625
"),	-12626
ধারী	-12627
▁চালানো	-12628
▁ট্র্যাক	-12629
▁confirmed	-12630
▁মৈ	-12631
াসেব	-12632
▁4.0	-12633
▁১৯২৯	-12634
▁attention	-12635
▁Ford	-12636
▁sons	-12637
▁জংশন	-12638
▁মল্ল	-12639
▁Sud	-12640
▁bit	-12641
ুখী	-12642
▁Chem	-12643
▁Cost	-12644
▁কম্ব	-12645
▁স্টেডিযা়মে	-12646
’,	-12647
কিন	-12648
ando	-12649
▁Tan	-12650
▁Trump	-12651
▁drive	-12652
▁Michel	-12653
▁Website	-12654
▁মার্শাল	-12655
▁Professor	-12656
▁Ho	-12657
সিসি	-12658
▁অবকাঠ	-12659
▁ইরানি	-12660
▁সিস্টেমের	-12661
▁নৃ	-12662
icks	-12663
▁4.1	-12664
▁Arm	-12665
তামূলক	-12666
সংখ্যা	-12667
▁স্বায়ত্ত	-12668
▁Information	-12669
০২	-12670
▁rich	-12671
▁গম্ব	-12672
▁১৯৪১	-12673
▁ডেভেল	-12674
▁নাসির	-12675
▁platform	-12676
▁enemy	-12677
▁location	-12678
▁স্পোর্টস	-12679
চয়	-12680
▁নও	-12681
pson	-12682
২০১২	-12683
▁Gil	-12684
▁Pap	-12685
▁1933	-12686
▁জাতিগত	-12687
▁literature	-12688
osa	-12689
▁কোর্ট	-12690
▁চলাকালীন	-12691
||11	-12692
েজার	-12693
▁ডেল	-12694
▁মোঃ	-12695
▁Call	-12696
center	-12697
▁chall	-12698
▁ফাংশন	-12699
▁Hungarian	-12700
La	-12701
৫৫	-12702
৯৭	-12703
▁বিগ	-12704
▁শপথ	-12705
▁স্ফ	-12706
▁temp	-12707
undesliga	-12708
EN	-12709
uki	-12710
ক্ষার	-12711
▁Vlad	-12712
▁পরাজ	-12713
▁বৈষম	-12714
▁সংখ্যাল	-12715
▁referred	-12716
▁recording	-12717
৮৮	-12718
খের	-12719
রিন	-12720
▁ভোল	-12721
▁উলুম	-12722
ন্ধন	-12723
▁Tag	-12724
▁থাই	-12725
▁সহস্র	-12726
▁Sydney	-12727
▁provided	-12728
▁younger	-12729
▁remained	-12730
'।	-12731
▁সুনাম	-12732
▁পুনর্গঠ	-12733
টপ	-12734
▁{	-12735
চেল	-12736
▁অহ	-12737
▁headqu	-12738
▁সেঞ্চুরি	-12739
▁Stone	-12740
▁reign	-12741
▁astronom	-12742
▁ফলশ্রুতিতে	-12743
এফসি	-12744
uther	-12745
▁খাবারের	-12746
▁পদার্থের	-12747
▁এপ	-12748
ঙ্কার	-12749
▁ل	-12750
imately	-12751
▁অনি	-12752
▁Head	-12753
▁১৯৩২	-12754
▁phone	-12755
▁reward	-12756
▁ফুটবলে	-12757
▁চেয়েছিলেন	-12758
▁responsible	-12759
শো	-12760
uran	-12761
▁Anna	-12762
anga	-12763
▁grant	-12764
▁আজারবাইজ	-12765
িকর	-12766
▁Gi	-12767
▁রোধ	-12768
▁Angl	-12769
▁1938	-12770
▁Rights	-12771
▁photos	-12772
▁Nintendo	-12773
▁কেমন	-12774
ections	-12775
ষা	-12776
রাও	-12777
acks	-12778
▁পড়েছে	-12779
▁stadium	-12780
▁twe	-12781
▁খুশ	-12782
▁নির্যাতন	-12783
▁কর্তৃপক্ষের	-12784
51	-12785
▁অক্সিজ	-12786
▁উত্তীর্ণ	-12787
▁৪৬	-12788
soft	-12789
▁Cab	-12790
▁খনিজ	-12791
▁রাউন্ড	-12792
▁versions	-12793
▁আযা়রল্যান্ড	-12794
▁Zh	-12795
coln	-12796
▁মোল	-12797
▁মঞ্জ	-12798
upp	-12799
▁via	-12800
▁ডোম	-12801
▁ভাস্কর্য	-12802
▁Dun	-12803
িয়েন	-12804
▁serve	-12805
▁স্থগিত	-12806
▁সুপারিশ	-12807
EF	-12808
lyn	-12809
▁মেরি	-12810
▁price	-12811
▁কোভিড	-12812
▁সুপ্রিম	-12813
▁বয়সভিত্তিক	-12814
oir	-12815
▁মুক	-12816
▁মোজ	-12817
▁কর্পোরেশনের	-12818
”।	-12819
ully	-12820
▁Der	-12821
ining	-12822
▁failed	-12823
agle	-12824
▁fort	-12825
▁2000.	-12826
▁Google	-12827
▁forward	-12828
▁starred	-12829
▁বেস	-12830
িন্দা	-12831
▁নেযা়র	-12832
New	-12833
▁Know	-12834
▁estim	-12835
▁বোঝানো	-12836
তাস	-12837
▁Circ	-12838
▁hope	-12839
▁mouth	-12840
▁ক্যাট	-12841
▁মিষ্টি	-12842
ère	-12843
▁নষ্ট	-12844
▁royal	-12845
▁couple	-12846
▁প্রমাণিত	-12847
▁পূর্বপুরুষ	-12848
utenant	-12849
ographic	-12850
▁সহায়তায়	-12851
wer	-12852
▁acid	-12853
▁খেতাব	-12854
▁স্পেন	-12855
▁অপরাজিত	-12856
elligence	-12857
োড়	-12858
▁Aqu	-12859
ঙ্গের	-12860
▁ন্যা	-12861
▁হয়৷	-12862
▁check	-12863
▁আরোহণ	-12864
▁forest	-12865
▁neighbor	-12866
long	-12867
▁mill	-12868
▁জর্ড	-12869
▁ফর্ম	-12870
▁Croat	-12871
▁কামাল	-12872
▁ব্যবসায়িক	-12873
▁ভট্টাচার্য	-12874
imum	-12875
▁Lim	-12876
oring	-12877
▁influence	-12878
▁কোযা়ন্টাম	-12879
▁রণ	-12880
▁Bos	-12881
্যুত্থ	-12882
▁কাউকে	-12883
▁Century	-12884
▁Philadelphia	-12885
স্তক	-12886
▁seem	-12887
▁Guard	-12888
▁অ্যাথ	-12889
▁বায়ুম	-12890
▁সুইজার	-12891
▁ত্রিপুরা	-12892
▁4.5	-12893
▁NAS	-12894
▁sir	-12895
inder	-12896
▁১৯২৮	-12897
▁জড়িয়ে	-12898
▁সিরিযা়র	-12899
▁এরফলে	-12900
▁ক্যালিফোর্নিযা়	-12901
▁হেই	-12902
▁1955	-12903
▁feed	-12904
▁shared	-12905
▁প্রক্রিযা়র	-12906
oa	-12907
গির	-12908
ippi	-12909
▁Foreign	-12910
▁বাড়িয়ে	-12911
▁মারাত্মক	-12912
▁ওযা়শিংটন	-12913
fit	-12914
২০১৪	-12915
▁বোর	-12916
essee	-12917
▁আটলান	-12918
ictional	-12919
▁উৎসাহিত	-12920
▁মার্টিন	-12921
▁সংসদীয়	-12922
▁প্রতিপক্ষ	-12923
atab	-12924
▁Ker	-12925
▁2002.	-12926
▁spend	-12927
বিধ	-12928
হাউ	-12929
▁youth	-12930
▁street	-12931
▁400	-12932
▁অমর	-12933
▁Alab	-12934
▁এদিকে	-12935
হুদ	-12936
▁গেট	-12937
▁লেফটেন	-12938
▁বিল্ডিং	-12939
▁experience	-12940
▁Lewis	-12941
▁cerem	-12942
▁অত্যা	-12943
▁ক্রোম	-12944
▁branch	-12945
▁ব্যস্ত	-12946
্টিভ	-12947
▁আবাসিক	-12948
▁মাদ্রাসার	-12949
▁ভূগোল	-12950
put	-12951
ৎকার	-12952
▁ক্ষত	-12953
▁ঘোষণ	-12954
▁নদীতে	-12955
▁Territ	-12956
িস্তানের	-12957
▁significant	-12958
pped	-12959
▁MAS	-12960
▁Pass	-12961
▁finally	-12962
গম	-12963
▁সন্	-12964
▁লাতিন	-12965
▁economy	-12966
▁কেন্দ্রগুলির	-12967
▁বলি	-12968
▁জানে	-12969
▁শত্রু	-12970
▁একসময়	-12971
▁টেব	-12972
▁1944	-12973
▁মস্তিষ্ক	-12974
RA	-12975
৭৭	-12976
orry	-12977
▁1959	-12978
▁সুরকার	-12979
দো	-12980
▁সম্পৃক্ত	-12981
▁Age	-12982
▁Alan	-12983
▁টাইপ	-12984
▁বলার	-12985
▁ইলেক্ট্র	-12986
▁নির্ভরশীল	-12987
িযা়ং	-12988
▁1929	-12989
▁Vienna	-12990
▁ঐতিহ্যের	-12991
ফাইন	-12992
▁শীর্ষস্থানীয়	-12993
coh	-12994
iminal	-12995
▁জোডা়	-12996
ফারেন্স	-12997
▁declared	-12998
▁legs	-12999
▁যশোর	-13000
▁হবেন	-13001
▁বিশুদ্ধ	-13002
ফিন	-13003
বেক	-13004
▁তের	-13005
▁remaining	-13006
▁therefore	-13007
২০০০	-13008
▁দ্বৈত	-13009
▁পর্বের	-13010
▁হচ্ছেন	-13011
▁content	-13012
▁থাইল্যান্ড	-13013
বাজ	-13014
ভারতীয়	-13015
▁ঘাঁ	-13016
▁হায়দ্র	-13017
যথ	-13018
ুনিযা়	-13019
▁জম্মু	-13020
▁ফস	-13021
ঙ্কা	-13022
▁allows	-13023
▁১০০০	-13024
▁split	-13025
▁contest	-13026
ন্ডা	-13027
▁শাল	-13028
▁আয়ন	-13029
▁Anthony	-13030
▁objects	-13031
rike	-13032
iat	-13033
owa	-13034
▁Liter	-13035
▁আত্মা	-13036
▁Lincoln	-13037
ভুত	-13038
াবা	-13039
িউল	-13040
▁flu	-13041
▁শতক	-13042
▁কর্তৃত্ব	-13043
ারেট	-13044
২০১০	-13045
▁dies	-13046
▁কালী	-13047
▁Board	-13048
▁Mississ	-13049
Don	-13050
তীর্ণ	-13051
▁moon	-13052
law	-13053
দিক	-13054
বিহীন	-13055
বিদ্যার	-13056
▁physicist	-13057
arp	-13058
শৈলী	-13059
▁emp	-13060
▁ille	-13061
▁দেহের	-13062
rot	-13063
evin	-13064
▁Burn	-13065
▁legisl	-13066
▁আওতায়	-13067
ফেন	-13068
▁Turn	-13069
▁nickn	-13070
▁জন্মের	-13071
▁calendar	-13072
▁Federation	-13073
লোড	-13074
▁Vik	-13075
দক্ষিণ	-13076
▁ঘুরে	-13077
▁দেবীর	-13078
▁হামিদ	-13079
৪৩	-13080
▁eye	-13081
▁পুত	-13082
▁Andre	-13083
▁broke	-13084
▁অনেকটা	-13085
▁হ্যারি	-13086
▁অবতীর্ণ	-13087
▁protests	-13088
▁Tennessee	-13089
▁জিতেছিলেন	-13090
▁worth	-13091
▁সিদ্দ	-13092
▁nearby	-13093
▁শিল্পে	-13094
▁pictures	-13095
▁অভ্যন্তরে	-13096
▁(_	-13097
▁lie	-13098
▁ষড়	-13099
ায়নে	-13100
▁নিউইয়	-13101
▁বেলজিযা়ম	-13102
▁Development	-13103
▁খল	-13104
onym	-13105
▁গাণিতিক	-13106
▁সমুদ্রের	-13107
টিই	-13108
যাপ	-13109
onds	-13110
▁৪০০	-13111
▁১৯৩৪	-13112
▁feature	-13113
▁১৯৪৩	-13114
▁উপযোগী	-13115
▁ঘটনায়	-13116
▁Metropolitan	-13117
worth	-13118
▁1928	-13119
▁ব্রিগ	-13120
▁এলিজ	-13121
▁চোখে	-13122
▁আর্টস	-13123
▁ফ্রেড	-13124
▁টাওযা়র	-13125
irt	-13126
olas	-13127
▁১৯৩১	-13128
▁পাখির	-13129
▁হঠ	-13130
▁Rang	-13131
▁touch	-13132
▁আল্লাহর	-13133
▁আন্তর্জাতিকে	-13134
দেশে	-13135
▁মেক	-13136
▁কাউন্	-13137
▁buried	-13138
▁believers	-13139
ainian	-13140
lah	-13141
▁Beat	-13142
▁Bush	-13143
▁ঘোডা়	-13144
▁pra	-13145
স্টের	-13146
গ্ধ	-13147
elli	-13148
ুমদার	-13149
▁ব্যাব	-13150
▁copies	-13151
▁da	-13152
alle	-13153
▁যাব	-13154
▁নীচে	-13155
৪১	-13156
লোক	-13157
▁হুগ	-13158
লাভিষ	-13159
▁ডেমোক	-13160
▁Six	-13161
▁lung	-13162
▁অতিথি	-13163
▁দৃশ্যমান	-13164
▁সাফ	-13165
▁1931	-13166
▁গেমস	-13167
▁লাইফ	-13168
▁score	-13169
▁থেকেও	-13170
▁আলোচনার	-13171
▁cup	-13172
▁দারুল	-13173
osphere	-13174
▁Lemmon	-13175
▁এন্টার	-13176
▁উপলব্ধি	-13177
▁লাইব্রেরি	-13178
্মি	-13179
▁pet	-13180
▁1935	-13181
▁1951	-13182
▁roll	-13183
▁রানী	-13184
enburg	-13185
▁কাপড়	-13186
▁spirit	-13187
ext	-13188
২০০১	-13189
▁পাদ	-13190
সূত্র	-13191
▁1900	-13192
▁একাদ	-13193
▁খ্রী	-13194
▁ধাতু	-13195
ংক্রিয়	-13196
▁scientist	-13197
গর্ভ	-13198
▁jump	-13199
▁2004,	-13200
▁গোলাম	-13201
▁স্বাদ	-13202
▁easily	-13203
▁brothers	-13204
TA	-13205
iva	-13206
২০১৫	-13207
▁Balt	-13208
▁master	-13209
▁স্প্যানিশ	-13210
▁Alabama	-13211
▁মুজিবুর	-13212
oiced	-13213
▁১৯২১	-13214
▁মহকুম	-13215
ovak	-13216
▁বাছাইপ	-13217
▁Finland	-13218
▁construction	-13219
oves	-13220
▁1932	-13221
▁1953	-13222
▁যানবাহ	-13223
▁তুরস্কের	-13224
▁beautiful	-13225
রণ্য	-13226
▁previously	-13227
CD	-13228
oons	-13229
▁দরজা	-13230
uctions	-13231
▁ক্রিস্ট	-13232
rier	-13233
জুড়ে	-13234
▁Kennedy	-13235
▁প্রোটিন	-13236
▁বিকাশের	-13237
▁completely	-13238
▁অণু	-13239
▁Doctor	-13240
▁ফাইনাল	-13241
▁ফিল্মফেযা়র	-13242
▁অবরোধ	-13243
▁Alfred	-13244
▁বার্সেল	-13245
▁স্ট্রিট	-13246
▁আজাদ	-13247
▁লঙ্ঘ	-13248
▁লিপি	-13249
▁suicide	-13250
cha	-13251
িসন	-13252
▁Ren	-13253
▁বেসরকারী	-13254
▁Plan	-13255
▁stream	-13256
▁element	-13257
▁প্রকৌশলী	-13258
▁স্থলাভিষ	-13259
▁চক	-13260
arily	-13261
▁treatment	-13262
▁প্রকৃতপক্ষে	-13263
sa	-13264
▁75	-13265
▁বন্ধন	-13266
▁ম্যানেজার	-13267
▁Ku	-13268
▁Tib	-13269
▁জোহ	-13270
▁১৯২৪	-13271
▁মজুমদার	-13272
িরের	-13273
ensis	-13274
▁thee	-13275
▁বর্ষপঞ্জির	-13276
▁1943	-13277
ensity	-13278
▁ফেসবুক	-13279
▁হোল	-13280
▁Please	-13281
heastern	-13282
achel	-13283
▁prec	-13284
▁trip	-13285
▁Build	-13286
▁সিরিযা়	-13287
▁Sciences	-13288
▁আসবে	-13289
▁picture	-13290
▁পরিচালনায়	-13291
ুহ	-13292
▁কিল	-13293
▁জেস	-13294
ন্দাজ	-13295
▁sense	-13296
কাজ	-13297
▁crew	-13298
▁warm	-13299
▁কন্ন	-13300
▁টি২০	-13301
▁সমকামী	-13302
▁বঙ্গবন্ধু	-13303
▁ডাব্লিউডাব্লিউ	-13304
ষার	-13305
র্পণ	-13306
▁Nev	-13307
▁ded	-13308
▁|2006	-13309
▁সফলতা	-13310
▁democr	-13311
▁Ministry	-13312
▁সূর্যের	-13313
US	-13314
৫০০	-13315
▁rat	-13316
Serie	-13317
▁Brad	-13318
▁সোনা	-13319
bourne	-13320
▁নমুনা	-13321
ইসলাম	-13322
▁gall	-13323
িওপ	-13324
town	-13325
২০০৭	-13326
▁ড্রাগ	-13327
▁ইতালির	-13328
েয়	-13329
aver	-13330
▁অফিসে	-13331
▁associated	-13332
▁HY	-13333
▁পাঠান	-13334
▁painting	-13335
▁সম্পূর্ণরূপে	-13336
▁স্থলাভিষিক্ত	-13337
come	-13338
eless	-13339
▁hearts	-13340
▁সুরক্ষিত	-13341
hens	-13342
▁4.2	-13343
▁ডক্টর	-13344
▁দ্বাদশ	-13345
▁Kle	-13346
▁helps	-13347
▁Tak	-13348
▁Maur	-13349
▁wall	-13350
তিবাচক	-13351
▁গেছেন	-13352
▁ইব্রাহিম	-13353
▁পরিদর্শন	-13354
▁কুক	-13355
▁রেখা	-13356
▁specific	-13357
agu	-13358
ঙ্ক্ষ	-13359
venture	-13360
জিও	-13361
▁বলছে	-13362
ভু	-13363
উইন	-13364
▁অভিম	-13365
▁পরস্প	-13366
▁revolution	-13367
▁সমিতির	-13368
▁ف	-13369
▁4.3	-13370
▁মৌল	-13371
▁৩য়	-13372
ship	-13373
ঞ্জার	-13374
▁Juan	-13375
agh	-13376
▁Vin	-13377
▁map	-13378
▁চাও	-13379
▁ফয়	-13380
hedral	-13381
▁bodies	-13382
▁সজ্জিত	-13383
▁consist	-13384
▁জ্ঞানের	-13385
▁অতীত	-13386
▁যাবার	-13387
▁Taiwan	-13388
▁উপজাতি	-13389
▁Sn	-13390
▁গঙ্গ	-13391
▁আমদান	-13392
▁নিকটে	-13393
▁disapp	-13394
▁Ut	-13395
র্টার	-13396
▁crash	-13397
▁রায়ের	-13398
▁Py	-13399
▁flows	-13400
▁dynasty	-13401
▁আবির্ভূত	-13402
্ছ	-13403
অনু	-13404
▁ইট	-13405
▁Cre	-13406
▁sand	-13407
▁Abraham	-13408
▁হোযা়ইট	-13409
▁Indonesia	-13410
ানন্দ	-13411
▁বিরল	-13412
▁পার্ল	-13413
room	-13414
▁রেস	-13415
▁votes	-13416
▁মিশ্রণ	-13417
▁প্রস্তাবিত	-13418
▁ফিলিস্তিনি	-13419
rim	-13420
set	-13421
osis	-13422
টিক্স	-13423
শাসন	-13424
▁Pic	-13425
▁deeds	-13426
▁শ্বাস	-13427
▁Philip	-13428
▁Messenger	-13429
▁স্বেচ্ছাসেব	-13430
জনে	-13431
গণিত	-13432
র্দার	-13433
▁Simon	-13434
▁Ib	-13435
ective	-13436
▁দের	-13437
▁ক্রমাগত	-13438
▁ক্ষমতায়	-13439
ার্ভ	-13440
▁prime	-13441
▁কারাগারে	-13442
▁Roll	-13443
iology	-13444
▁অভিজাত	-13445
▁carried	-13446
▁manufact	-13447
পান	-13448
▁Arn	-13449
▁বৈঠ	-13450
োত্তর	-13451
▁আগ্র	-13452
▁রক্ষার	-13453
▁প্রেক্ষাপ	-13454
ৌধ	-13455
ঞ্চল	-13456
▁ভিল	-13457
▁লেগে	-13458
▁মাদ্রি	-13459
▁constitution	-13460
des	-13461
▁মহাভার	-13462
▁ইন্দোনেশিযা়র	-13463
▁Loire	-13464
▁piano	-13465
▁আত্মীয়	-13466
▁straight	-13467
▁টুর্নামেন্ট	-13468
opt	-13469
ডম	-13470
▁182	-13471
▁pull	-13472
▁numer	-13473
▁মহাসড়ক	-13474
৯২	-13475
্কেল	-13476
২০০৮	-13477
২০০৯	-13478
▁1937	-13479
▁increased	-13480
▁ডাউন	-13481
▁strip	-13482
মিশ্র	-13483
▁translated	-13484
ygen	-13485
▁liqu	-13486
▁quest	-13487
▁কাপুর	-13488
▁moment	-13489
▁ম্যাক্স	-13490
▁গুহ	-13491
ource	-13492
▁ঘটায়	-13493
▁বিপর্য	-13494
har	-13495
ভির	-13496
▁রিল	-13497
▁আদালতে	-13498
মন্ত্রীর	-13499
▁বৈচিত্র্য	-13500
৭৮	-13501
▁যাদ	-13502
▁বহুল	-13503
▁শব্দটির	-13504
▁UN	-13505
▁ইনফ	-13506
▁Online	-13507
▁অর্থনীতির	-13508
▁mist	-13509
▁শর্মা	-13510
▁counties	-13511
।।	-13512
▁করবো	-13513
▁বৈষ্ণব	-13514
mes	-13515
▁পণ	-13516
নিটি	-13517
সূচক	-13518
▁Loc	-13519
▁favor	-13520
▁দারিদ্র	-13521
atar	-13522
ারিত	-13523
▁response	-13524
▁উল্লেখ্য	-13525
▁Manchester	-13526
▁bow	-13527
iform	-13528
▁প্রবর্তন	-13529
▁সংক্ষেপে	-13530
স্টন	-13531
▁ছদ্	-13532
▁বাহাদুর	-13533
▁চ্যাম্পিয়নশিপে	-13534
▁lic	-13535
রাণিক	-13536
▁নিষেধাজ্ঞা	-13537
▁ডাচ	-13538
▁মিজ	-13539
▁Rose	-13540
▁|2007	-13541
▁পাত্র	-13542
▁Alexand	-13543
EE	-13544
rat	-13545
idel	-13546
▁নিঃস	-13547
▁ক্ষমা	-13548
▁সংস্করণে	-13549
▁evolution	-13550
ত্যা	-13551
liest	-13552
▁আগমন	-13553
▁extra	-13554
▁deliver	-13555
▁controvers	-13556
ডস	-13557
▁ফুটবলের	-13558
েরও	-13559
োজা	-13560
▁(6	-13561
▁33	-13562
▁সিভিল	-13563
▁রাজনীতিতে	-13564
▁নিত	-13565
▁ভাঙ	-13566
▁graph	-13567
▁Howard	-13568
▁thousands	-13569
▁Jay	-13570
▁হেড	-13571
▁Bruce	-13572
▁Venez	-13573
▁তোলেন	-13574
▁উপায়ে	-13575
▁Ark	-13576
স্থানে	-13577
▁গোত্রের	-13578
▁মহাবিদ্যালয়	-13579
ক্ষাংশ	-13580
▁calcul	-13581
▁মানবিক	-13582
▁ব্যাঙ্ক	-13583
▁Hurricane	-13584
ante	-13585
ষ্ণের	-13586
▁Bull	-13587
▁ম্যাল	-13588
▁constitu	-13589
▁গ্রেগরীয়	-13590
vi	-13591
িয়েট	-13592
▁Creek	-13593
▁Affairs	-13594
▁4.7	-13595
▁cras	-13596
▁lies	-13597
▁Field	-13598
▁basic	-13599
▁Arabic	-13600
▁ঘূর্ণি	-13601
box	-13602
▁অরুণ	-13603
▁Jacob	-13604
▁Roger	-13605
▁ধারার	-13606
▁উৎসবের	-13607
bo	-13608
পৃষ্ঠ	-13609
▁চীনে	-13610
▁solid	-13611
▁custom	-13612
▁ব্রাজিলের	-13613
ভৌ	-13614
irty	-13615
্যাটিক	-13616
▁পালিত	-13617
▁levels	-13618
▁captured	-13619
▁জামে	-13620
▁comic	-13621
▁policy	-13622
াবলিক	-13623
▁ট্রেড	-13624
▁covers	-13625
▁রক্ষণভাগের	-13626
▁৪২	-13627
iques	-13628
▁Sport	-13629
▁রেখেছিলেন	-13630
▁talking	-13631
▁complications	-13632
▁দাশ	-13633
▁refers	-13634
▁Test	-13635
▁তুলতে	-13636
▁address	-13637
roduction	-13638
▁স্বর্ণপদক	-13639
পাই	-13640
▁48	-13641
▁নক্ষ	-13642
▁পতিত	-13643
▁রাইট	-13644
▁scientific	-13645
▁CE	-13646
▁হাবিব	-13647
▁personality	-13648
igg	-13649
lied	-13650
rain	-13651
||29	-13652
ীকৃত	-13653
▁কারাদ	-13654
▁হাস্যরস	-13655
oria	-13656
which	-13657
▁আনার	-13658
▁claimed	-13659
▁সরকারকে	-13660
▁recently	-13661
▁শাস্ত্রীয়	-13662
▁লেফটেন্যান্ট	-13663
tw	-13664
▁আদম	-13665
▁Liga	-13666
▁জনাব	-13667
▁Storm	-13668
▁কমনওয়েলথ	-13669
▁Azerbaijan	-13670
▁Mississippi	-13671
িজম	-13672
▁নিশ	-13673
▁Kelly	-13674
▁দলীয়	-13675
haps	-13676
||13	-13677
▁1999.	-13678
▁Stock	-13679
▁সমন্বিত	-13680
▁স্বামীর	-13681
lying	-13682
▁immedi	-13683
▁প্রচারণা	-13684
||14	-13685
▁HYG	-13686
▁Early	-13687
▁ব্যক্তিকে	-13688
▁ফেব্রুযা়রিতে	-13689
aval	-13690
▁মোটর	-13691
▁Bulgar	-13692
▁winter	-13693
▁Indiana	-13694
▁receive	-13695
▁নিক্ষেপ	-13696
▁ব্র্যান্ড	-13697
প্য	-13698
▁honor	-13699
▁|2005	-13700
গ্রাহ	-13701
▁নীতির	-13702
▁মূর্ত	-13703
▁opening	-13704
▁Heritage	-13705
▁cool	-13706
▁জাফর	-13707
▁Bible	-13708
▁বেতার	-13709
▁শুষ্ক	-13710
▁images	-13711
▁ফ্লাইট	-13712
▁directly	-13713
টায়	-13714
▁সংশোধ	-13715
▁Jess	-13716
▁১৯১৯	-13717
former	-13718
▁owner	-13719
▁ক্রয়	-13720
▁digital	-13721
▁ধনী	-13722
▁গীতিকার	-13723
▁মৃত্যুদণ্ড	-13724
-'	-13725
rin	-13726
▁hyp	-13727
ত্যের	-13728
▁Shin	-13729
▁সেন্স	-13730
▁Engine	-13731
▁profile	-13732
Is	-13733
ugby	-13734
াসনের	-13735
osition	-13736
▁defeat	-13737
▁succeed	-13738
৯৩	-13739
িওন	-13740
eller	-13741
▁পেট্র	-13742
▁Census	-13743
▁আপেক্ষ	-13744
▁composed	-13745
ইং	-13746
▁Fern	-13747
▁কালে	-13748
▁চুরি	-13749
িযা়মের	-13750
ayan	-13751
▁ভান	-13752
▁টাইট	-13753
কাহিনী	-13754
▁iron	-13755
▁কাটা	-13756
্যাটার	-13757
▁Grammy	-13758
▁improv	-13759
▁transfer	-13760
▁টেকনোলজি	-13761
▁প্রবেশের	-13762
কেরা	-13763
aging	-13764
▁হতাশ	-13765
friend	-13766
▁Allen	-13767
▁dream	-13768
▁wealth	-13769
▁সুন্নি	-13770
▁ইলেকট্রনিক	-13771
▁Il	-13772
▁Lank	-13773
▁videos	-13774
▁আগ্নেয়	-13775
▁অবস্থিত৷	-13776
–1	-13777
▁glass	-13778
▁একইভাবে	-13779
▁festival	-13780
▁ইন্ডিজের	-13781
▁সংগ্রহের	-13782
▁4.4	-13783
▁prem	-13784
▁reform	-13785
▁planned	-13786
▁দিনাজপুর	-13787
▁graduated	-13788
▁মধ্যপ্রাচ	-13789
▁মদিন	-13790
▁holds	-13791
onsin	-13792
▁serving	-13793
▁কর্ণাটক	-13794
▁মুক্তিযুদ্ধের	-13795
▁(15	-13796
AF	-13797
দিযা়	-13798
▁Moroc	-13799
▁generation	-13800
dy	-13801
াসনে	-13802
▁নাক	-13803
▁গোত্র	-13804
▁জাহাজের	-13805
▁প্রযুক্তির	-13806
ucks	-13807
চালক	-13808
amples	-13809
▁Station	-13810
▁condition	-13811
২০০৬	-13812
▁unc	-13813
▁অসাম	-13814
যা়রের	-13815
▁Video	-13816
▁|2004	-13817
▁Desert	-13818
▁earthquake	-13819
▁খ্রিষ্টাব্দ	-13820
৯৪	-13821
মেট	-13822
যা়ম	-13823
You	-13824
phab	-13825
▁আঙ্গ	-13826
▁আনোযা়র	-13827
▁হস্তক্ষেপ	-13828
PA	-13829
স্তা	-13830
▁চমৎকার	-13831
▁বিক্রয়	-13832
▁ক্ষেত্রেই	-13833
▁Scientists	-13834
▁আঘ	-13835
▁Tra	-13836
where	-13837
ছাত্র	-13838
▁Ivan	-13839
বুল	-13840
য়ো	-13841
▁1926	-13842
antasy	-13843
▁Deputy	-13844
▁পৌরসভার	-13845
▁পৌরাণিক	-13846
▁রাজনীতির	-13847
At	-13848
bro	-13849
▁হা	-13850
–0	-13851
inth	-13852
▁sym	-13853
▁gods	-13854
ম্যানের	-13855
achi	-13856
▁আমিন	-13857
▁চোখের	-13858
▁bacter	-13859
▁valley	-13860
▁blogger	-13861
▁অক্ষাংশ	-13862
▁আধিপত্য	-13863
apes	-13864
ৎস্য	-13865
▁পেট	-13866
▁Barn	-13867
▁ব্যাকটের	-13868
য়ত	-13869
▁ফার্সি	-13870
▁recognized	-13871
ogne	-13872
▁তিউ	-13873
iring	-13874
▁রাষ্ট্রপতির	-13875
▁জব	-13876
▁মাগ	-13877
াবশেষ	-13878
িপূর্ণ	-13879
▁বিক্র	-13880
abad	-13881
▁Pur	-13882
▁1927	-13883
▁sens	-13884
▁দিলে	-13885
▁বিকির	-13886
▁Ukrainian	-13887
icate	-13888
▁একদল	-13889
▁অনুষদ	-13890
▁সুস্থ	-13891
inosaur	-13892
▁Native	-13893
isconsin	-13894
ামিন	-13895
▁ভিজ	-13896
▁calls	-13897
▁ordered	-13898
▁নারীবাদী	-13899
▁Pa	-13900
▁Kon	-13901
▁আসনে	-13902
▁সুলত	-13903
▁হেরে	-13904
▁Ext	-13905
onent	-13906
নবিংশ	-13907
সংস্ক	-13908
▁Davis	-13909
▁connected	-13910
▁আউ	-13911
orney	-13912
▁এইসব	-13913
▁Dog	-13914
▁solo	-13915
▁গল্পের	-13916
").	-13917
▁৬টি	-13918
ucted	-13919
▁উত্স	-13920
▁forth	-13921
▁প্লাস	-13922
াঞ্চলের	-13923
▁council	-13924
▁fashion	-13925
▁Da	-13926
র্জন	-13927
্বেষ	-13928
▁১৯২২	-13929
▁Hills	-13930
ervation	-13931
▁নেতিবাচক	-13932
▁Corporation	-13933
arks	-13934
িন্ট	-13935
▁stre	-13936
াপক	-13937
্যুর	-13938
চ্যুত	-13939
ারেশনের	-13940
▁আর্দ্র	-13941
▁difference	-13942
▁কারন	-13943
▁বলছি	-13944
ailand	-13945
▁Hit	-13946
▁aired	-13947
▁মসজিদে	-13948
৫৬	-13949
rell	-13950
▁shop	-13951
▁নাইজের	-13952
▁বয়স্ক	-13953
▁টিউ	-13954
▁concert	-13955
ডোর	-13956
▁hy	-13957
anne	-13958
▁সৈন্যদের	-13959
▁Therefore	-13960
alog	-13961
▁লিব	-13962
বোর্ড	-13963
▁pray	-13964
স্থায়	-13965
▁শিশুর	-13966
▁কলেজটি	-13967
▁managed	-13968
▁শিরোনামে	-13969
▁তামিলনাড়ু	-13970
jo	-13971
City	-13972
▁Ten	-13973
▁Vers	-13974
▁ধারণাটি	-13975
▁মুক্তিযোদ্ধ	-13976
otte	-13977
▁(10	-13978
▁Bird	-13979
▁১৯২৬	-13980
▁ধ্রুব	-13981
▁restaur	-13982
চাঁ	-13983
২০০৫	-13984
▁থের	-13985
▁ধীর	-13986
মারের	-13987
▁boys	-13988
▁focus	-13989
▁মোস্ত	-13990
▁Rap	-13991
asure	-13992
▁বাষ্প	-13993
▁Oizumi	-13994
▁trains	-13995
▁consider	-13996
▁fal	-13997
▁ব্যবস্থায়	-13998
inent	-13999
▁conqu	-14000
▁শাখায়	-14001
▁monarch	-14002
▁অনুভূতি	-14003
কোট	-14004
▁Palace	-14005
▁পাউন্ড	-14006
বাড়িযা়	-14007
▁Microsoft	-14008
▁Wisconsin	-14009
▁Conference	-14010
▁34	-14011
cles	-14012
▁Kevin	-14013
▁এরপরে	-14014
▁যথাযথ	-14015
▁correct	-14016
ধন	-14017
iki	-14018
ামাণ	-14019
▁Walt	-14020
▁নিকোল	-14021
▁নৌবাহিনী	-14022
োলন	-14023
শালা	-14024
▁খালি	-14025
▁ডাবল	-14026
▁memory	-14027
▁Hungary	-14028
▁Rub	-14029
▁তেলে	-14030
ogether	-14031
▁জাপানে	-14032
▁ব্রিগেড	-14033
oen	-14034
▁গের	-14035
ব্রিজ	-14036
▁পায়ে	-14037
াবন	-14038
▁পতনের	-14039
▁পরিবেশে	-14040
ui	-14041
▁মঠ	-14042
▁শৈলী	-14043
▁urban	-14044
▁ranked	-14045
▁আদালতের	-14046
▁হোস্ট	-14047
!"	-14048
▁জম	-14049
▁growing	-14050
enue	-14051
▁(190	-14052
▁রীতি	-14053
▁upper	-14054
▁অংশটি	-14055
▁Margar	-14056
▁stated	-14057
▁আসামের	-14058
্যাঙ্কিং	-14059
▁সৃষ্টির	-14060
aded	-14061
resp	-14062
▁ওটা	-14063
▁সিস	-14064
otten	-14065
▁lands	-14066
▁উপাত্ত	-14067
▁সেইসাথে	-14068
▁পপ	-14069
▁ছেলের	-14070
▁ফিজ	-14071
▁কনফ	-14072
▁flat	-14073
mir	-14074
যদি	-14075
||15	-14076
▁(7	-14077
▁শ্রেণি	-14078
eous	-14079
▁limited	-14080
▁Airlines	-14081
▁centuries	-14082
PS	-14083
▁weather	-14084
▁হিসাবেও	-14085
▁organized	-14086
সাং	-14087
▁ঘুর	-14088
inian	-14089
oration	-14090
▁প্রচারের	-14091
▁স্টাডিজ	-14092
arus	-14093
্মান	-14094
▁গাঁ	-14095
▁বংশের	-14096
তন্ত্রের	-14097
▁academic	-14098
্স্ট	-14099
▁batt	-14100
▁মেলা	-14101
▁mentioned	-14102
▁Greg	-14103
▁ready	-14104
Ph	-14105
ading	-14106
▁happy	-14107
▁certainly	-14108
▁ইরাক	-14109
▁লাইট	-14110
ছুর	-14111
▁হত্যাকাণ্ড	-14112
▁Op	-14113
্বিত	-14114
▁Kash	-14115
▁গন্ধ	-14116
▁alive	-14117
▁defin	-14118
▁unknown	-14119
▁Thus	-14120
▁সিদ্দিক	-14121
▁সুবিধার	-14122
▁attended	-14123
হো	-14124
▁poll	-14125
▁অশোক	-14126
▁গ্রি	-14127
▁বললেন	-14128
ষ্কার	-14129
▁ধর্মান	-14130
▁প্রতিষ্ঠানটি	-14131
imir	-14132
▁178	-14133
▁জাহান	-14134
▁দাঁডা়য়	-14135
▁সামঞ্জস্য	-14136
ré	-14137
▁fictional	-14138
cks	-14139
▁inte	-14140
▁১৯২৭	-14141
▁Right	-14142
▁মহানগর	-14143
তুল্য	-14144
ড়িযা়	-14145
▁উপকরণ	-14146
▁seats	-14147
▁Indust	-14148
▁বর্ষসেরা	-14149
ES	-14150
die	-14151
▁(8	-14152
▁কোণ	-14153
▁বরফ	-14154
▁exhib	-14155
▁homes	-14156
▁উদ্ভব	-14157
▁ধ্যান	-14158
▁Persian	-14159
▁বসবাসকারী	-14160
▁স্থিতিশীল	-14161
ণি	-14162
▁চৌম্ব	-14163
াবেক্ষণ	-14164
▁comune	-14165
▁follows	-14166
orporated	-14167
▁লিথ	-14168
▁আপেক্ষিক	-14169
▁স্বয়ংক্রিয়	-14170
▁জলা	-14171
▁Billy	-14172
▁Queens	-14173
▁ক্লাবটি	-14174
▁খেলোযা়ড়দের	-14175
▁ঘোষিত	-14176
▁association	-14177
ডিট	-14178
||28	-14179
▁DNA	-14180
▁প্রশস্ত	-14181
▁৫৩	-14182
▁catch	-14183
দৈর্ঘ্য	-14184
▁ethnic	-14185
াবের	-14186
since	-14187
▁সঞ্চাল	-14188
▁Dal	-14189
▁Lib	-14190
▁Sky	-14191
▁জন্	-14192
▁coin	-14193
▁তফসিল	-14194
▁নাটকের	-14195
▁Country	-14196
▁অন্যদের	-14197
▁Venezuel	-14198
্তি	-14199
হারা	-14200
▁Leban	-14201
▁আরম্ভ	-14202
▁consists	-14203
eline	-14204
▁বর্জ	-14205
▁frogs	-14206
ুনে	-14207
▁হই	-14208
▁ঋষি	-14209
▁Real	-14210
▁plans	-14211
▁ডিএনএ	-14212
▁Theatre	-14213
▁purpose	-14214
▁প্রণয়ন	-14215
▁বিজয়ের	-14216
▁Kl	-14217
▁Yam	-14218
▁শ্রদ্ধা	-14219
▁কূটনৈতিক	-14220
খর	-14221
ালেম	-14222
▁Key	-14223
িকারের	-14224
▁Jimmy	-14225
▁Syria	-14226
▁Tamil	-14227
▁নিশ্চয়	-14228
▁বিনিময়	-14229
▁সমাপ্তি	-14230
▁entertain	-14231
▁Prefecture	-14232
▁নিয়ন্ত্রণে	-14233
▁টানা	-14234
▁Beach	-14235
▁ফ্যাক্ট	-14236
▁accepted	-14237
▁Ath	-14238
▁১৯১৮	-14239
▁Hawai	-14240
▁ভগবান	-14241
▁আক্রমণভাগের	-14242
৫৮	-14243
▁inn	-14244
▁কাচ	-14245
▁|2008	-14246
▁একাডেমী	-14247
▁খেলেছিলেন	-14248
▁pan	-14249
▁Tibet	-14250
▁Madrid	-14251
▁tennis	-14252
▁মাল্টি	-14253
ুং	-14254
▁হাক	-14255
▁huge	-14256
▁আইয়	-14257
▁করেই	-14258
▁কেজি	-14259
▁Delhi	-14260
▁কৌতুক	-14261
▁রৌপ্য	-14262
▁উত্তেজ	-14263
▁direction	-14264
▁খ্রিস্টীয়	-14265
▁65	-14266
||30	-14267
ন্দা	-14268
২০০৪	-14269
▁mel	-14270
▁বন্যপ্রাণ	-14271
রক	-14272
neum	-14273
▁Vis	-14274
▁ter	-14275
estic	-14276
Man	-14277
iley	-14278
▁আছি	-14279
▁নাব	-14280
▁safe	-14281
▁Siding	-14282
▁সীমা	-14283
▁কমিশনার	-14284
▁দর্শকদের	-14285
ূপে	-14286
▁স্যাট	-14287
▁lack	-14288
▁আনতে	-14289
▁খেয়ে	-14290
▁স্থপতি	-14291
▁অধিনায়কের	-14292
’।	-14293
anny	-14294
▁Bart	-14295
▁none	-14296
jab	-14297
net	-14298
oca	-14299
enh	-14300
চিক	-14301
ফোন	-14302
▁কপ	-14303
roit	-14304
▁আইনে	-14305
▁ভাষ্য	-14306
▁প্রতিবেশী	-14307
ুইন	-14308
▁Treat	-14309
▁এজেন্ট	-14310
ifer	-14311
isms	-14312
▁Any	-14313
▁alcoh	-14314
oda	-14315
....	-14316
active	-14317
▁কন্নড়	-14318
▁demonstr	-14319
▁অভ্যুত্থ	-14320
ষ্টিত	-14321
▁sick	-14322
▁sites	-14323
▁Frid	-14324
▁শ্রেণির	-14325
NS	-14326
olt	-14327
alem	-14328
▁ফেরত	-14329
isters	-14330
▁adopted	-14331
▁ক্যান্সার	-14332
▁ডেপ	-14333
▁বলো	-14334
▁Eric	-14335
▁শিবের	-14336
je	-14337
োলো	-14338
▁Whe	-14339
▁থ্র	-14340
▁পর্যাপ্ত	-14341
▁যাক	-14342
cules	-14343
▁showing	-14344
▁articles	-14345
iab	-14346
ড়ন	-14347
োপলি	-14348
▁উপাচার্য	-14349
asp	-14350
হির	-14351
জান্ডার	-14352
▁cricket	-14353
▁পরিবেশগত	-14354
raf	-14355
rait	-14356
▁chance	-14357
▁ব্যাংকের	-14358
বতী	-14359
▁alt	-14360
▁Dead	-14361
▁যুক্তরাজ্যে	-14362
▁ডেই	-14363
▁বাস্তবায়	-14364
zh	-14365
▁উদার	-14366
▁apart	-14367
তাই	-14368
andon	-14369
olves	-14370
▁বাজে	-14371
▁১৯২৫	-14372
▁Photo	-14373
akers	-14374
▁আলবেন	-14375
▁provinces	-14376
▁ir	-14377
fully	-14378
▁Take	-14379
▁ট্রাই	-14380
▁গম্বুজ	-14381
▁ট্রাস্ট	-14382
▁conflict	-14383
▁উচ্চতায়	-14384
rison	-14385
▁stone	-14386
▁seconds	-14387
||0||0||0||	-14388
▁Mars	-14389
পমেন্ট	-14390
▁bright	-14391
▁Between	-14392
▁Thailand	-14393
▁প্রযুক্তিগত	-14394
kov	-14395
ঙ্গিক	-14396
▁লাইভ	-14397
▁দেযা়ল	-14398
▁Fall	-14399
▁ব্লু	-14400
▁ইতালি	-14401
▁Sunday	-14402
ুজ্জামান	-14403
▁Antonio	-14404
পর্য	-14405
▁Mill	-14406
▁Nich	-14407
lahoma	-14408
▁Short	-14409
▁Danish	-14410
||16	-14411
▁১৫০	-14412
স্থার	-14413
▁রন্ধন	-14414
▁অ্যাকাউন্ট	-14415
▁tor	-14416
▁কাদ	-14417
▁বগু	-14418
ান্ডা	-14419
▁ability	-14420
▁বাইজেন্ট	-14421
▁এলিজাবে	-14422
ার্টমেন্ট	-14423
বাসী	-14424
িকেট	-14425
▁দেল	-14426
▁হ্যান্ড	-14427
▁Mountain	-14428
▁রাষ্ট্রদূত	-14429
▁কীর	-14430
▁সভা	-14431
▁2003,	-14432
▁Labor	-14433
▁৫৬	-14434
▁guide	-14435
কিলোমিটার	-14436
বিষ	-14437
▁জিত	-14438
ন্নাথ	-14439
▁Movie	-14440
▁দর্শক	-14441
▁দেখেন	-14442
▁height	-14443
▁কবিতার	-14444
▁প্রাতি	-14445
▁জেলাটির	-14446
▁রহমানের	-14447
▁সমান্তর	-14448
▁মূল্যায়ন	-14449
▁লিড	-14450
যাত্রা	-14451
▁union	-14452
▁powers	-14453
▁activity	-14454
▁উপাদানের	-14455
▁সন্ত্রাস	-14456
▁passengers	-14457
ৎপ	-14458
▁2001,	-14459
▁Security	-14460
elsh	-14461
▁|2003	-14462
▁টাঙ্গ	-14463
▁DC	-14464
▁110	-14465
▁diagn	-14466
▁মাথার	-14467
▁সহিংসতা	-14468
▁আফ্রিকায়	-14469
MS	-14470
▁Ka	-14471
vard	-14472
ামূল	-14473
▁Ban	-14474
▁হাদী	-14475
▁device	-14476
▁growth	-14477
▁তুলনামূলকভাবে	-14478
wise	-14479
▁Cart	-14480
▁Friend	-14481
▁দুইবার	-14482
▁উত্তরসূ	-14483
▁communities	-14484
km	-14485
▁ডির	-14486
ocked	-14487
▁1925	-14488
▁2016)	-14489
▁Ronald	-14490
▁স্বরূপ	-14491
▁Hi	-14492
Calais	-14493
▁Temple	-14494
▁answer	-14495
▁conductor	-14496
যা়জ	-14497
▁টেম	-14498
▁liber	-14499
▁উপভোগ	-14500
▁critics	-14501
▁উপন্যাসের	-14502
▁2022.	-14503
▁লোকজন	-14504
atabase	-14505
▁উদ্ভাবন	-14506
▁নেতৃত্বাধীন	-14507
hal	-14508
▁4.8	-14509
▁Map	-14510
▁নিন	-14511
▁১৯১৪	-14512
▁examples	-14513
২০১৬	-14514
▁4.6	-14515
▁ocean	-14516
▁আর্মি	-14517
▁Paraly	-14518
▁contact	-14519
▁তাত্ত্বিক	-14520
▁আম্প	-14521
father	-14522
▁2000,	-14523
▁Adams	-14524
▁মাজার	-14525
fish	-14526
life	-14527
atures	-14528
▁agreed	-14529
▁govern	-14530
▁injured	-14531
▁উপমহাদেশের	-14532
asa	-14533
▁১লা	-14534
▁wins	-14535
▁সর্বদা	-14536
নির্দিষ্ট	-14537
▁supposed	-14538
▁ইন্দোনেশিযা়	-14539
▁খাই	-14540
াবলম্ব	-14541
▁নৌবাহিনীর	-14542
ডেট	-14543
লির	-14544
শায়	-14545
▁cab	-14546
▁arms	-14547
▁গোলের	-14548
▁নায়ক	-14549
▁কাটিয়ে	-14550
▁প্রত্যাব	-14551
We	-14552
▁opin	-14553
▁বর্ম	-14554
▁ট্রফি	-14555
▁vs	-14556
▁খেলাধ	-14557
▁স্কোর	-14558
from	-14559
hard	-14560
▁sixth	-14561
▁Square	-14562
সকে	-14563
িংক	-14564
▁অলি	-14565
▁Area	-14566
▁snow	-14567
▁Technology	-14568
▁মুক্তিযুদ্ধ	-14569
▁DVD	-14570
▁Gri	-14571
encies	-14572
low	-14573
সেট	-14574
erto	-14575
▁দুটো	-14576
▁আগস্টে	-14577
▁emperor	-14578
▁longest	-14579
▁ঘূর্ণিঝ	-14580
▁household	-14581
শ্রী	-14582
শীলতা	-14583
▁আবেগ	-14584
▁সংসদে	-14585
IC	-14586
হত্যার	-14587
▁পানিতে	-14588
▁assistant	-14589
▁প্রারম্ভিক	-14590
▁খেলোযা়ড়ের	-14591
chi	-14592
দণ্ড	-14593
▁জনক	-14594
ীক্ষা	-14595
▁bear	-14596
ৃঙ্খলা	-14597
▁drugs	-14598
▁sources	-14599
▁Tropical	-14600
ইর	-14601
টিও	-14602
াড়ে	-14603
৫৭	-14604
▁ইস্প	-14605
▁emerg	-14606
▁ধর্মে	-14607
সই	-14608
iden	-14609
▁Five	-14610
▁Singh	-14611
▁instrument	-14612
▁£	-14613
▁আভ	-14614
▁৫ম	-14615
icht	-14616
▁সাক	-14617
▁atom	-14618
াবিজ্ঞ	-14619
▁notes	-14620
▁অবতার	-14621
▁ভারসাম	-14622
▁বিবাহের	-14623
▁রক্ষণাবেক্ষণ	-14624
▁gal	-14625
▁fans	-14626
▁পার্স	-14627
▁প্যাস	-14628
▁সংক্রমণ	-14629
olis	-14630
▁হাড়	-14631
▁staff	-14632
▁আযা়ত	-14633
▁twenty	-14634
▁goddess	-14635
▁Armenian	-14636
▁Oklahoma	-14637
▁Hand	-14638
▁জেলে	-14639
▁maint	-14640
▁রাজকুমার	-14641
▁operating	-14642
▁মুসলিমদের	-14643
াসিত	-14644
▁হারে	-14645
▁তথ্যের	-14646
▁পরমাণু	-14647
▁বোঝাতে	-14648
zona	-14649
▁নযা়	-14650
▁গেয়ে	-14651
▁Colorado	-14652
▁Dick	-14653
▁Site	-14654
▁script	-14655
▁concept	-14656
▁প্রামাণ	-14657
▁অধিগ্রহণ	-14658
▁অস্ট্রেলিযা়ন	-14659
৯১	-14660
িসার	-14661
ভিদের	-14662
▁১৯১২	-14663
▁pilot	-14664
▁পারস্য	-14665
▁যেগুলি	-14666
্ভব	-14667
কল্প	-14668
▁bes	-14669
▁pian	-14670
▁veget	-14671
▁বারবার	-14672
▁incident	-14673
▁টো	-14674
anner	-14675
▁রঞ্জ	-14676
▁ইযা়র	-14677
▁variety	-14678
bar	-14679
▁bag	-14680
▁ভিট	-14681
▁রোব	-14682
▁কল্পনা	-14683
োন্ন	-14684
▁acts	-14685
century	-14686
টিক্যাল	-14687
▁ভাইয়ের	-14688
ru	-14689
র্বর	-14690
▁সিজ	-14691
▁আটকে	-14692
▁অ্যাক্স	-14693
▁dangerous	-14694
anges	-14695
▁Paralymp	-14696
▁internet	-14697
▁আমেরিকায়	-14698
উড	-14699
cont	-14700
▁থিও	-14701
▁dogs	-14702
insula	-14703
ান্ট	-14704
▁ফজল	-14705
▁Mond	-14706
▁Business	-14707
▁পারদর্শী	-14708
iya	-14709
টেম	-14710
unch	-14711
▁এশিযা়য়	-14712
▁Has	-14713
▁bronze	-14714
▁escape	-14715
▁মিলিয়ে	-14716
▁ডন	-14717
োসের	-14718
▁Tel	-14719
▁উত্তম	-14720
▁southeast	-14721
▁ক্ষেত্রের	-14722
▁পরিকল্পনার	-14723
ুনি	-14724
াইলের	-14725
▁1998.	-14726
▁মাসিক	-14727
▁Bishop	-14728
▁রাজস্ব	-14729
▁উদ্যোগে	-14730
▁উপলক্ষে	-14731
স্থলে	-14732
▁Prof	-14733
ন্ত্রে	-14734
েন্সের	-14735
▁bound	-14736
ভুজ	-14737
ergy	-14738
ধারা	-14739
▁1924	-14740
▁hurt	-14741
▁floor	-14742
▁অববাহ	-14743
▁সতী	-14744
ান্তে	-14745
▁Rick	-14746
▁mamm	-14747
▁রচনার	-14748
leyball	-14749
▁নেপালি	-14750
▁বৌদ্ধবিহার	-14751
iner	-14752
▁sail	-14753
▁ছবিটির	-14754
▁নিউইয়র্ক	-14755
▁লেখেন	-14756
▁সংবেদন	-14757
▁জনগোষ্ঠী	-14758
কাস	-14759
েপণ	-14760
▁murd	-14761
▁বিপদ	-14762
▁brand	-14763
▁|2002	-14764
Jan	-14765
▁রোহ	-14766
▁লেগ	-14767
▁surg	-14768
▁explos	-14769
৬৮	-14770
▁চর্চা	-14771
▁সভ্যতার	-14772
▁প্রজন্মের	-14773
ালীর	-14774
▁১৯২৩	-14775
▁মাছের	-14776
▁target	-14777
▁prisoners	-14778
▁প্রতিবেদনে	-14779
▁৫৪	-14780
▁Obs	-14781
rieved	-14782
বর্তনের	-14783
▁column	-14784
▁প্রফেস	-14785
▁ফ্যাশন	-14786
▁বলেছিল	-14787
▁অপেক্ষাকৃত	-14788
্যাংক	-14789
▁seems	-14790
▁দুঃখ	-14791
োনাল্ড	-14792
▁ক্লোর	-14793
▁metres	-14794
aked	-14795
▁দযা়	-14796
▁চিকিৎসার	-14797
▁চট্টগ্রামের	-14798
uma	-14799
He	-14800
oles	-14801
oslav	-14802
▁ঘন্ট	-14803
▁টেক্সট	-14804
||18	-14805
াইটে	-14806
অভ	-14807
unny	-14808
▁thus	-14809
▁mercy	-14810
▁কোম্পান	-14811
▁headquarters	-14812
বক	-14813
বৃ	-14814
feld	-14815
▁হার্ভ	-14816
▁মনোভাব	-14817
▁medicine	-14818
▁অধিদ	-14819
▁বিজে	-14820
যুদ্ধে	-14821
▁choose	-14822
▁invented	-14823
▁programming	-14824
▁আলেকজান্ডার	-14825
May	-14826
্টিং	-14827
▁সেন্টি	-14828
ictionary	-14829
oni	-14830
▁শোষণ	-14831
মৃত্যু	-14832
▁Gordon	-14833
▁belongs	-14834
▁অপহ	-14835
▁পশু	-14836
▁চিনি	-14837
ín	-14838
just	-14839
||27	-14840
▁১০টি	-14841
▁Serge	-14842
▁বান্দ	-14843
▁ব্যতিক্রম	-14844
ফির	-14845
▁Rey	-14846
omp	-14847
বিএস	-14848
▁মেযা়দ	-14849
▁strength	-14850
Dec	-14851
▁৩৯	-14852
▁Laur	-14853
▁poly	-14854
বাহিনী	-14855
▁রিপাবলিক	-14856
▁weak	-14857
▁অধীনস্থ	-14858
▁মূল্যবান	-14859
▁ব্যবহারকারীদের	-14860
▁door	-14861
phabet	-14862
িযা়কে	-14863
▁শুনতে	-14864
য়েট	-14865
▁Ped	-14866
▁wave	-14867
▁হঠাৎ	-14868
ctions	-14869
িন্যাস	-14870
▁Fried	-14871
▁কাজটি	-14872
▁sounds	-14873
▁ফ্রন্ট	-14874
▁ব্রিটিশদের	-14875
rops	-14876
ুরীর	-14877
▁বাছাই	-14878
▁Mother	-14879
alid	-14880
▁1996.	-14881
igenous	-14882
▁learned	-14883
▁বিনামূল	-14884
▁মাপ	-14885
▁রোল	-14886
▁কাতার	-14887
▁মৎস্য	-14888
▁চালানোর	-14889
▁Iowa	-14890
▁pattern	-14891
▁pron	-14892
▁ক্রো	-14893
▁বিএন	-14894
▁Moore	-14895
▁Tunis	-14896
▁domin	-14897
▁তোলার	-14898
▁stayed	-14899
▁reaction	-14900
zi	-14901
aks	-14902
▁fat	-14903
▁Sarah	-14904
▁অ্যাকশন	-14905
oshi	-14906
▁হাতের	-14907
▁উদ্বেগ	-14908
▁বর্ধমান	-14909
▁সমতুল্য	-14910
েলো	-14911
▁সোল	-14912
standing	-14913
▁Dynasty	-14914
ভৌম	-14915
দেশের	-14916
▁অজ্ঞ	-14917
▁ভাইস	-14918
▁অপরাধের	-14919
▁জানিয়েছে	-14920
ভাবেই	-14921
▁Okay	-14922
▁জুটি	-14923
▁টাকার	-14924
▁সবাইকে	-14925
▁সামগ্রিক	-14926
erc	-14927
▁সফরের	-14928
▁extrem	-14929
▁সামগ্রী	-14930
▁questions	-14931
▁অর্থনীতিতে	-14932
দেশিক	-14933
▁fuel	-14934
▁মতোই	-14935
▁1997.	-14936
▁compared	-14937
tha	-14938
uins	-14939
▁Dak	-14940
▁Gulf	-14941
▁নৌকা	-14942
▁borders	-14943
▁Frederick	-14944
▁বিশ্বাসের	-14945
পত	-14946
্ডি	-14947
াগরে	-14948
▁গাল	-14949
▁ভার্জ	-14950
▁Member	-14951
▁rapper	-14952
▁birthday	-14953
▁horse	-14954
▁hosted	-14955
▁প্রবণতা	-14956
▁Kentucky	-14957
2),	-14958
▁উড়	-14959
▁দোষী	-14960
▁দ্রাঘ	-14961
▁সংমিশ্র	-14962
▁SS	-14963
াবলি	-14964
▁Upper	-14965
▁সাগরের	-14966
▁Program	-14967
▁অংশগ্রহণকারী	-14968
▁সমাজতান্ত্রিক	-14969
olph	-14970
▁কক্স	-14971
▁সাডা়	-14972
▁উৎক্ষেপ	-14973
▁জগন্নাথ	-14974
▁মেক্সিকো	-14975
▁Once	-14976
▁আকৃতি	-14977
▁130	-14978
▁বিরত	-14979
▁parish	-14980
▁designer	-14981
▁37	-14982
▁রিং	-14983
▁Champions	-14984
HO	-14985
▁sin	-14986
ামপুর	-14987
▁quarter	-14988
▁অভিবাসী	-14989
▁describe	-14990
োত্ত	-14991
▁ভের	-14992
▁Earl	-14993
▁Apple	-14994
োগ্রাফিক	-14995
▁wish	-14996
▁necess	-14997
▁actions	-14998
▁greater	-14999
▁গোবিন্দ	-15000
uro	-15001
▁Jose	-15002
▁tick	-15003
▁১৯১৭	-15004
▁পাশের	-15005
:00	-15006
bul	-15007
▁milk	-15008
▁রাণী	-15009
শিক্ষা	-15010
▁জনবহুল	-15011
▁athlete	-15012
▁computers	-15013
▁বাইজেন্টাইন	-15014
▁প্রক্রিযা়য়	-15015
▁Confeder	-15016
▁Community	-15017
আমের	-15018
▁Cher	-15019
▁আইরিশ	-15020
▁bigger	-15021
▁whatever	-15022
▁মন্ত্রিস	-15023
oka	-15024
▁id	-15025
াগুলিতে	-15026
কিউ	-15027
Name	-15028
▁Hal	-15029
▁thy	-15030
▁1995.	-15031
▁অক্সাইড	-15032
▁authorities	-15033
▁ডঃ	-15034
ilty	-15035
▁140	-15036
▁items	-15037
▁Railway	-15038
▁শ্রেণীব	-15039
▁পরিবেশের	-15040
.”	-15041
elve	-15042
uman	-15043
▁কমল	-15044
▁Clin	-15045
▁fine	-15046
▁materials	-15047
BN	-15048
hire	-15049
লাইনে	-15050
াযা়ন	-15051
▁bill	-15052
▁১৯০০	-15053
▁পুনরাব	-15054
▁মাযা়ন	-15055
▁চুক্তিতে	-15056
▁ধারাবাহিকে	-15057
পস	-15058
▁ign	-15059
েলাইট	-15060
▁ধরার	-15061
▁মহিলার	-15062
▁বিধায়ক	-15063
▁affected	-15064
▁×	-15065
▁ফৌ	-15066
▁mut	-15067
▁Again	-15068
▁concent	-15069
▁মালয়েশিযা়	-15070
fe	-15071
▁‌	-15072
oyd	-15073
otic	-15074
▁বিরাট	-15075
▁সমকাম	-15076
▁colour	-15077
▁ইন্ডাস্ট	-15078
▁Fel	-15079
▁Norm	-15080
▁এটাকে	-15081
bassador	-15082
top	-15083
enes	-15084
▁জোন	-15085
▁ডিউ	-15086
▁রাতের	-15087
▁Miller	-15088
▁আত্মসম	-15089
▁ওয়েলস	-15090
▁Prophet	-15091
bed	-15092
▁কস	-15093
ঙ্গো	-15094
▁কাপের	-15095
▁জানিয়েছেন	-15096
▁5.1	-15097
▁আখ্য	-15098
েম্বরের	-15099
▁উপকূলে	-15100
২০০৩	-15101
▁ভেতর	-15102
▁required	-15103
প্লে	-15104
মোহন	-15105
▁Vas	-15106
ন্দরী	-15107
▁Review	-15108
বৈজ্ঞানিক	-15109
uous	-15110
▁5.0	-15111
▁নামাজ	-15112
▁পাতার	-15113
▁Carlos	-15114
▁Survey	-15115
৮৯	-15116
lication	-15117
▁ধ্রুপদী	-15118
▁ম্যানচেস্টার	-15119
উদ	-15120
▁177	-15121
asters	-15122
াগুলোর	-15123
uin	-15124
ভীর	-15125
▁এট	-15126
▁ঢাল	-15127
▁combined	-15128
RS	-15129
▁দুইজন	-15130
▁Romania	-15131
▁বৈদেশিক	-15132
▁keyboard	-15133
▁160	-15134
▁Kit	-15135
▁কৌশ	-15136
izing	-15137
▁singing	-15138
আউট	-15139
▁কুত	-15140
ক্ষরিক	-15141
▁daily	-15142
▁পাইলট	-15143
▁ওযা়টার	-15144
▁জাহাঙ্গ	-15145
ারস	-15146
||26	-15147
▁স্য	-15148
▁global	-15149
▁illness	-15150
▁প্যারিস	-15151
াবী	-15152
য়েস	-15153
▁নাথ	-15154
▁Biography	-15155
▁background	-15156
▁আকবর	-15157
▁টোকিও	-15158
▁creating	-15159
▁presented	-15160
▁1923	-15161
▁Jerry	-15162
▁দ্বার	-15163
▁Labour	-15164
৬৭	-15165
9).	-15166
াইজেশন	-15167
▁ব্রিজ	-15168
▁বিদ্রোহের	-15169
umin	-15170
elson	-15171
iling	-15172
▁সম্মত	-15173
▁additional	-15174
িজীব	-15175
▁পল্লী	-15176
▁approx	-15177
▁প্রয়োজ	-15178
pan	-15179
▁|2001	-15180
▁Du	-15181
▁resc	-15182
▁আংশিক	-15183
▁কুস্ত	-15184
▁Connect	-15185
▁সম্পাদন	-15186
▁Adv	-15187
inals	-15188
▁নার্স	-15189
▁Hamilton	-15190
▁inspired	-15191
▁ban	-15192
▁Administ	-15193
▁হাইড্রোজেন	-15194
জাল	-15195
▁MAR	-15196
▁Rio	-15197
▁1922	-15198
▁Father	-15199
▁oxygen	-15200
▁pounds	-15201
▁Arizona	-15202
াত্য	-15203
▁copy	-15204
▁শেষদিকে	-15205
ski	-15206
েলস	-15207
▁38	-15208
▁৪৪	-15209
▁Ing	-15210
▁প্রের	-15211
▁প্রস্থ	-15212
iko	-15213
▁64	-15214
izes	-15215
পথের	-15216
▁সনে	-15217
▁pret	-15218
▁bands	-15219
▁শিলাল	-15220
▁ডেপুটি	-15221
▁ওয়েস্টার্ন	-15222
▁৬৪	-15223
inea	-15224
orig	-15225
▁dro	-15226
▁আবদ	-15227
▁দাত	-15228
▁লোহ	-15229
▁বাবু	-15230
▁স্কে	-15231
▁Kings	-15232
▁Puerto	-15233
▁Baseball	-15234
▁বিশ্বযুদ্ধ	-15235
▁ভিক্টোরিযা়	-15236
uda	-15237
▁mm	-15238
▁৪৩	-15239
▁Imp	-15240
▁Brun	-15241
▁Phot	-15242
▁ঐক্য	-15243
▁কমলা	-15244
ম্পন্ন	-15245
▁tries	-15246
▁hell	-15247
▁মাঝেম	-15248
▁gained	-15249
▁উদ্ভিদের	-15250
▁কার্যকার	-15251
▁মাও	-15252
▁Welsh	-15253
▁throw	-15254
▁turns	-15255
▁ফুলের	-15256
▁ডিভাইস	-15257
প্রদেশের	-15258
▁Matthew	-15259
ved	-15260
▁Gro	-15261
▁কার্টুন	-15262
▁কর্মচারী	-15263
▁রাও	-15264
▁লেজ	-15265
▁teen	-15266
▁grass	-15267
▁তুষার	-15268
▁spring	-15269
▁প্রতিবন্ধ	-15270
৬৪	-15271
▁1/	-15272
ুনার	-15273
▁Mrs	-15274
▁ধূম	-15275
▁রানার	-15276
▁theatre	-15277
ুরির	-15278
▁118	-15279
arrow	-15280
▁pneum	-15281
▁এজন্য	-15282
▁Guide	-15283
▁communes	-15284
▁সৌন্দর্য	-15285
▁প্রদর্শনের	-15286
sm	-15287
2).	-15288
see	-15289
▁মনের	-15290
▁টেস্টের	-15291
▁মুহূর্ত	-15292
oom	-15293
▁লং	-15294
২০০২	-15295
▁অবন	-15296
▁rare	-15297
▁ইস্ত	-15298
▁সবগুলো	-15299
mont	-15300
িসির	-15301
▁একা	-15302
্লিখিত	-15303
▁Season	-15304
abe	-15305
atin	-15306
▁Fle	-15307
▁contr	-15308
▁Medicine	-15309
boy	-15310
dorf	-15311
▁খাম	-15312
▁Corp	-15313
▁Nazi	-15314
▁ক্লে	-15315
▁গণেশ	-15316
▁জরিপ	-15317
▁টমাস	-15318
▁Forest	-15319
▁নেতাদের	-15320
▁বৌদ্ধধর্ম	-15321
▁বর্গকিলোমিটার	-15322
ès	-15323
din	-15324
▁42	-15325
ooth	-15326
▁Aud	-15327
▁Lower	-15328
atherine	-15329
ুয়ের	-15330
সম্পর্ক	-15331
▁partners	-15332
▁romantic	-15333
▁paintings	-15334
alty	-15335
▁বন্দুক	-15336
RI	-15337
সদ	-15338
ipur	-15339
▁মেট	-15340
▁মাঝারি	-15341
▁ল্যাটিন	-15342
▁ইন্সটিটি	-15343
▁renamed	-15344
▁Mountains	-15345
axy	-15346
oster	-15347
▁hang	-15348
||1||0||	-15349
▁notable	-15350
▁প্রত্যাবর্ত	-15351
▁organizations	-15352
ভিচ	-15353
আইএস	-15354
▁Bry	-15355
▁kills	-15356
▁শঙ্কর	-15357
▁শ্লোক	-15358
▁Margaret	-15359
তঃ	-15360
রার	-15361
িটি	-15362
্কেট	-15363
▁রিড	-15364
▁নরওয়ে	-15365
▁Ottoman	-15366
ét	-15367
▁Ko	-15368
▁ভী	-15369
▁lose	-15370
▁কমিক	-15371
▁কুরআনের	-15372
▁bloggers	-15373
▁provides	-15374
▁authority	-15375
▁জরুরি	-15376
▁বর্ধিত	-15377
▁রেখেছেন	-15378
▁প্রসিদ্ধ	-15379
▁প্রতিদ্বন্দ্বী	-15380
▁রতি	-15381
▁Maryland	-15382
পুট	-15383
গতির	-15384
পূর্বক	-15385
▁পারস্প	-15386
▁যাচ্ছি	-15387
▁controlled	-15388
érie	-15389
▁খুঁজ	-15390
▁illegal	-15391
▁Ast	-15392
্পনিক	-15393
▁firm	-15394
▁photo	-15395
▁অ্যাশ	-15396
▁জানেন	-15397
▁পড়েছিল	-15398
▁পৃষ্ঠপোষক	-15399
))	-15400
▁নথ	-15401
▁Samuel	-15402
▁জিজ্ঞাসা	-15403
▁এভ	-15404
pool	-15405
udden	-15406
▁felt	-15407
ns	-15408
▁55	-15409
▁যম	-15410
-199	-15411
▁ওরা	-15412
▁তাজ	-15413
▁acqu	-15414
icians	-15415
▁জন্যই	-15416
▁lasted	-15417
omm	-15418
চক্র	-15419
▁Benj	-15420
▁Cuba	-15421
▁stroke	-15422
▁মাদ্রাজ	-15423
▁মারিযা়	-15424
▁Imperial	-15425
▁Sid	-15426
▁নাত	-15427
▁inches	-15428
▁সনাক্ত	-15429
▁সার্বভৌম	-15430
▁বিভ্রান্ত	-15431
Ind	-15432
▁সাংস	-15433
▁Harris	-15434
▁নারীরা	-15435
▁বিবৃতি	-15436
▁সমালোচকদের	-15437
সেবা	-15438
▁ভিন	-15439
▁ছিলাম	-15440
▁exactly	-15441
▁প্রতিফলিত	-15442
rowd	-15443
দারি	-15444
▁জিহ	-15445
▁অ্যাব	-15446
▁লিবার	-15447
▁sequel	-15448
▁তিব্বত	-15449
▁scale	-15450
▁Follow	-15451
▁বয়সের	-15452
▁ভ্রমণের	-15453
▁normally	-15454
▁আখ্যায়িত	-15455
cott	-15456
▁Tal	-15457
▁repe	-15458
▁1994.	-15459
সংস্থান	-15460
▁financial	-15461
▁musicians	-15462
▁কমিয়ে	-15463
▁এপ্রিলে	-15464
মিল	-15465
সংখ্যক	-15466
▁labor	-15467
▁টেনিস	-15468
▁আবিষ্কারের	-15469
▁females	-15470
▁Hollywood	-15471
▁জনগোষ্ঠীর	-15472
▁পার্শ্বীয়	-15473
||17	-15474
▁Rud	-15475
ক্তিক	-15476
▁কলাম	-15477
▁brief	-15478
▁ব্রুন	-15479
৮২	-15480
rene	-15481
▁রেখ	-15482
▁Whit	-15483
▁shell	-15484
▁প্রফেসর	-15485
▁Lyn	-15486
▁জানো	-15487
▁begin	-15488
▁বিষ্ণুর	-15489
AD	-15490
▁Wy	-15491
▁Had	-15492
▁ঝাঁ	-15493
▁Mach	-15494
▁Prix	-15495
▁মর্যাদ	-15496
▁মেট্রোপলি	-15497
▁প্রাতিষ্ঠানিক	-15498
▁Punjab	-15499
▁সংবিধানের	-15500
aceae	-15501
mouth	-15502
▁2002,	-15503
▁Image	-15504
▁Johnny	-15505
▁highly	-15506
▁engineering	-15507
কোর	-15508
য়েই	-15509
▁Hou	-15510
মান্ড	-15511
▁দূষণ	-15512
▁অ্যাপ্লিকেশন	-15513
▁Ow	-15514
char	-15515
wick	-15516
২০১৭	-15517
▁Front	-15518
▁ওযা়হ	-15519
▁সার্জ	-15520
যার	-15521
odox	-15522
মুসল	-15523
▁ছত্র	-15524
▁Camer	-15525
৫৩	-15526
▁39	-15527
▁টপ	-15528
▁1.0	-15529
▁Run	-15530
▁বেক	-15531
▁মনোর	-15532
▁ডিস্ট	-15533
▁প্রসঙ্গে	-15534
▁শিক্ষকতা	-15535
▁বাধ্যতামূলক	-15536
ভো	-15537
ureau	-15538
▁স্মারক	-15539
apped	-15540
▁উৎসাহ	-15541
▁Malaysia	-15542
▁সংস্কৃতিতে	-15543
▁ok	-15544
▁আঁকা	-15545
▁ওখানে	-15546
▁বাদ্য	-15547
▁সকলের	-15548
▁officers	-15549
▁Osc	-15550
▁partner	-15551
▁Movement	-15552
▁মনোনিবেশ	-15553
▁সঙ্গীতশিল্পী	-15554
শির	-15555
orph	-15556
▁arrived	-15557
▁justice	-15558
▁সূক্ষ্ম	-15559
▁বন্ধুত্ব	-15560
্তা	-15561
▁Vladimir	-15562
▁officials	-15563
onne	-15564
স্কে	-15565
▁Reb	-15566
ingham	-15567
▁আন্ডার	-15568
▁Russell	-15569
▁মহিলারা	-15570
▁Memorial	-15571
▁Guy	-15572
▁১২০	-15573
শিযা়	-15574
▁সোযা়	-15575
▁রিযা়ল	-15576
সংক্রান্ত	-15577
▁ইসরায়েলি	-15578
▁cert	-15579
▁Carter	-15580
▁প্রশংসিত	-15581
▁ت	-15582
▁cm	-15583
▁row	-15584
ultan	-15585
▁ভুলে	-15586
▁caught	-15587
▁Champion	-15588
▁সাক্ষাৎকার	-15589
▁Ze	-15590
iday	-15591
▁defend	-15592
▁Several	-15593
▁অসমীযা়	-15594
▁প্রশাসক	-15595
▁Franklin	-15596
”.	-15597
্টো	-15598
▁Low	-15599
▁Sin	-15600
শ্বাস	-15601
▁ধরতে	-15602
▁সঙ্গী	-15603
▁প্রবাসী	-15604
▁স্ট্যান	-15605
▁ম্যাট্রিক	-15606
agen	-15607
ুমান	-15608
▁লিগে	-15609
▁বিদ্যুত	-15610
▁ক্যাম্পাস	-15611
▁ক্রীডা়বিদ	-15612
▁Ecu	-15613
▁অবস	-15614
৭১	-15615
৭২	-15616
▁বাচ্চা	-15617
▁agreement	-15618
▁Trib	-15619
▁বৃক্ষ	-15620
র্দান্ত	-15621
▁হিন্দুধর্ম	-15622
olo	-15623
▁৪১	-15624
▁মাথ	-15625
▁Detroit	-15626
▁forests	-15627
▁false	-15628
▁চলেছে	-15629
▁উপনিষদ	-15630
▁Culture	-15631
▁রেখেছিল	-15632
”,	-15633
িপির	-15634
▁Cape	-15635
▁খায়	-15636
usalem	-15637
▁scene	-15638
agement	-15639
▁অসম্ভব	-15640
▁Encyclopedia	-15641
বৃহ	-15642
▁Boe	-15643
▁ধাতব	-15644
▁রপ্তানি	-15645
▁progress	-15646
▁thinking	-15647
▁প্রতিষ্ঠানে	-15648
▁Cook	-15649
▁কপি	-15650
▁prote	-15651
▁চিত্ত	-15652
▁সকালে	-15653
▁bottom	-15654
▁স্যাটেলাইট	-15655
ার্ম	-15656
▁অসং	-15657
▁দাল	-15658
▁কোষের	-15659
▁ওযা়র্ক	-15660
WA	-15661
বিশ	-15662
ুরো	-15663
▁Sah	-15664
▁চার্জ	-15665
▁স্পিন	-15666
▁athlet	-15667
▁estimated	-15668
▁ডাব্লিউডাব্লিউই	-15669
är	-15670
▁ا	-15671
মাই	-15672
||22	-15673
োগান	-15674
▁Sure	-15675
▁Cooper	-15676
▁পুনর্জ	-15677
▁গণিতবিদ	-15678
vel	-15679
পাঠ	-15680
▁Mit	-15681
▁Sign	-15682
▁১৯০৫	-15683
▁তৈরিতে	-15684
ici	-15685
দ্ভুত	-15686
▁route	-15687
ৃশ	-15688
uzz	-15689
ados	-15690
▁1992.	-15691
▁|2000	-15692
▁priest	-15693
▁কাঠামোর	-15694
▁পূর্ণাঙ্গ	-15695
৬১	-15696
৮৩	-15697
চিব	-15698
্নী	-15699
▁হির	-15700
▁risk	-15701
▁বন্যা	-15702
ventures	-15703
▁flowers	-15704
▁সপ্তাহের	-15705
▁নিয়ন্ত্রণের	-15706
▁ফিউ	-15707
▁Gabri	-15708
▁সভায়	-15709
▁ফাযা়র	-15710
Nov	-15711
▁4.9	-15712
▁Rain	-15713
atively	-15714
6),	-15715
ুখে	-15716
▁pair	-15717
▁স্টাফ	-15718
[...]
