<pad>	0
<unk>	0
<s>	0
</s>	0
<0x00>	0
<0x01>	0
<0x02>	0
<0x03>	0
<0x04>	0
<0x05>	0
<0x06>	0
<0x07>	0
<0x08>	0
<0x09>	0
<0x0A>	0
<0x0B>	0
<0x0C>	0
<0x0D>	0
<0x0E>	0
<0x0F>	0
<0x10>	0
<0x11>	0
<0x12>	0
<0x13>	0
<0x14>	0
<0x15>	0
<0x16>	0
<0x17>	0
<0x18>	0
<0x19>	0
<0x1A>	0
<0x1B>	0
<0x1C>	0
<0x1D>	0
<0x1E>	0
<0x1F>	0
<0x20>	0
<0x21>	0
<0x22>	0
<0x23>	0
<0x24>	0
<0x25>	0
<0x26>	0
<0x27>	0
<0x28>	0
<0x29>	0
<0x2A>	0
<0x2B>	0
<0x2C>	0
<0x2D>	0
<0x2E>	0
<0x2F>	0
<0x30>	0
<0x31>	0
<0x32>	0
<0x33>	0
<0x34>	0
<0x35>	0
<0x36>	0
<0x37>	0
<0x38>	0
<0x39>	0
<0x3A>	0
<0x3B>	0
<0x3C>	0
<0x3D>	0
<0x3E>	0
<0x3F>	0
<0x40>	0
<0x41>	0
<0x42>	0
<0x43>	0
<0x44>	0
<0x45>	0
<0x46>	0
<0x47>	0
<0x48>	0
<0x49>	0
<0x4A>	0
<0x4B>	0
<0x4C>	0
<0x4D>	0
<0x4E>	0
<0x4F>	0
<0x50>	0
<0x51>	0
<0x52>	0
<0x53>	0
<0x54>	0
<0x55>	0
<0x56>	0
<0x57>	0
<0x58>	0
<0x59>	0
<0x5A>	0
<0x5B>	0
<0x5C>	0
<0x5D>	0
<0x5E>	0
<0x5F>	0
<0x60>	0
<0x61>	0
<0x62>	0
<0x63>	0
<0x64>	0
<0x65>	0
<0x66>	0
<0x67>	0
<0x68>	0
<0x69>	0
<0x6A>	0
<0x6B>	0
<0x6C>	0
<0x6D>	0
<0x6E>	0
<0x6F>	0
<0x70>	0
<0x71>	0
<0x72>	0
<0x73>	0
<0x74>	0
<0x75>	0
<0x76>	0
<0x77>	0
<0x78>	0
<0x79>	0
<0x7A>	0
<0x7B>	0
<0x7C>	0
<0x7D>	0
<0x7E>	0
<0x7F>	0
<0x80>	0
<0x81>	0
<0x82>	0
<0x83>	0
<0x84>	0
<0x85>	0
<0x86>	0
<0x87>	0
<0x88>	0
<0x89>	0
<0x8A>	0
<0x8B>	0
<0x8C>	0
<0x8D>	0
<0x8E>	0
<0x8F>	0
<0x90>	0
<0x91>	0
<0x92>	0
<0x93>	0
<0x94>	0
<0x95>	0
<0x96>	0
<0x97>	0
<0x98>	0
<0x99>	0
<0x9A>	0
<0x9B>	0
<0x9C>	0
<0x9D>	0
<0x9E>	0
<0x9F>	0
<0xA0>	0
<0xA1>	0
<0xA2>	0
<0xA3>	0
<0xA4>	0
<0xA5>	0
<0xA6>	0
<0xA7>	0
<0xA8>	0
<0xA9>	0
<0xAA>	0
<0xAB>	0
<0xAC>	0
<0xAD>	0
<0xAE>	0
<0xAF>	0
<0xB0>	0
<0xB1>	0
<0xB2>	0
<0xB3>	0
<0xB4>	0
<0xB5>	0
<0xB6>	0
<0xB7>	0
<0xB8>	0
<0xB9>	0
<0xBA>	0
<0xBB>	0
<0xBC>	0
<0xBD>	0
<0xBE>	0
<0xBF>	0
<0xC0>	0
<0xC1>	0
<0xC2>	0
<0xC3>	0
<0xC4>	0
<0xC5>	0
<0xC6>	0
<0xC7>	0
<0xC8>	0
<0xC9>	0
<0xCA>	0
<0xCB>	0
<0xCC>	0
<0xCD>	0
<0xCE>	0
<0xCF>	0
<0xD0>	0
<0xD1>	0
<0xD2>	0
<0xD3>	0
<0xD4>	0
<0xD5>	0
<0xD6>	0
<0xD7>	0
<0xD8>	0
<0xD9>	0
<0xDA>	0
<0xDB>	0
<0xDC>	0
<0xDD>	0
<0xDE>	0
<0xDF>	0
<0xE0>	0
<0xE1>	0
<0xE2>	0
<0xE3>	0
<0xE4>	0
<0xE5>	0
<0xE6>	0
<0xE7>	0
<0xE8>	0
<0xE9>	0
<0xEA>	0
<0xEB>	0
<0xEC>	0
<0xED>	0
<0xEE>	0
<0xEF>	0
<0xF0>	0
<0xF1>	0
<0xF2>	0
<0xF3>	0
<0xF4>	0
<0xF5>	0
<0xF6>	0
<0xF7>	0
<0xF8>	0
<0xF9>	0
<0xFA>	0
<0xFB>	0
<0xFC>	0
<0xFD>	0
<0xFE>	0
<0xFF>	0
ার	-0
য়	-1
▁স	-2
▁ক	-3
্র	-4
▁প	-5
ের	-6
▁ব	-7
্য	-8
▁এ	-9
ান	-10
▁ম	-11
▁হ	-12
্ত	-13
▁অ	-14
▁ত	-15
▁কর	-16
▁আ	-17
টি	-18
▁ন	-19
যা	-20
▁দ	-21
েন	-22
র্	-23
াল	-24
িক	-25
িত	-26
▁জ	-27
▁প্র	-28
ng	-29
িন	-30
li	-31
য়ে	-32
যা়	-33
িল	-34
▁র	-35
্ব	-36
কে	-37
▁শ	-38
▁t	-39
াম	-40
্ট	-41
▁বি	-42
▁গ	-43
বং	-44
▁উ	-45
▁এবং	-46
▁য	-47
▁এক	-48
he	-49
ায়	-50
াব	-51
▁চ	-52
▁পর	-53
াদ	-54
▁১	-55
াস	-56
▁করে	-57
▁ভ	-58
▁ও	-59
াত	-60
ছিল	-61
▁a	-62
ন্	-63
sh	-64
লে	-65
্ষ	-66
▁(	-67
▁ই	-68
▁E	-69
ির	-70
ুর	-71
িস	-72
▁B	-73
াই	-74
্যা	-75
ছে	-76
lish	-77
▁Eng	-78
▁English	-79
েশ	-80
▁নি	-81
াজ	-82
ুল	-83
▁সম	-84
তে	-85
েল	-86
ali	-87
থে	-88
▁Be	-89
তি	-90
▁Beng	-91
▁Bengali	-92
াক	-93
▁the	-94
্থ	-95
▁ফ	-96
▁অন	-97
▁২	-98
্প	-99
▁ল	-100
িযা়	-101
▁সাল	-102
re	-103
▁হয়	-104
িনি	-105
▁বা	-106
বে	-107
▁জন	-108
▁তার	-109
▁খ	-110
্চ	-111
ীয়	-112
▁o	-113
্ক	-114
▁একটি	-115
▁w	-116
ড়	-117
ক্ষ	-118
er	-119
াহ	-120
ক্ত	-121
▁১৯	-122
nd	-123
▁i	-124
▁যা	-125
ou	-126
▁তিনি	-127
▁হয়ে	-128
ধ্য	-129
দের	-130
at	-131
দ্	-132
▁এই	-133
▁করা	-134
▁২০	-135
ন্ত	-136
▁থে	-137
▁সং	-138
▁থেকে	-139
াপ	-140
▁s	-141
▁ড	-142
্যান	-143
বি	-144
ষ্	-145
▁পরি	-146
on	-147
না	-148
্ড	-149
্ল	-150
▁সা	-151
▁যে	-152
▁ছিল	-153
্ম	-154
নের	-155
or	-156
▁করেন	-157
ীর	-158
▁জন্য	-159
▁উপ	-160
াগ	-161
্দ	-162
▁দে	-163
▁সালে	-164
▁b	-165
োগ	-166
▁এর	-167
en	-168
কার	-169
স্থ	-170
▁ধ	-171
ওযা়	-172
▁ট	-173
an	-174
াবে	-175
নি	-176
িয়ে	-177
▁ব্য	-178
es	-179
ৃত	-180
্গ	-181
নে	-182
মি	-183
▁f	-184
দ্ধ	-185
্স	-186
র্ব	-187
্রে	-188
▁c	-189
ed	-190
জন	-191
রে	-192
গুল	-193
মান	-194
ঙ্গ	-195
▁-	-196
ar	-197
ll	-198
▁অব	-199
ুক্ত	-200
রা	-201
▁বিশ	-202
▁of	-203
াশ	-204
▁কো	-205
ষ্ট	-206
ডা	-207
র্ত	-208
▁সে	-209
▁m	-210
▁হিস	-211
ষ্ঠ	-212
▁p	-213
িম	-214
তা	-215
ন্দ	-216
্ন	-217
▁মধ্য	-218
ing	-219
▁প্রতি	-220
▁d	-221
ডা়	-222
াদের	-223
ুন	-224
it	-225
ারণ	-226
is	-227
▁পার	-228
▁h	-229
রি	-230
▁to	-231
▁থ	-232
াকে	-233
▁and	-234
ত্ত	-235
▁I	-236
▁A	-237
▁রাজ	-238
▁অনু	-239
▁"	-240
ানে	-241
্যাল	-242
ারা	-243
গ্র	-244
▁নাম	-245
▁ঘ	-246
▁ছ	-247
▁মা	-248
▁না	-249
চ্চ	-250
ছেন	-251
িকে	-252
েম	-253
থম	-254
িতে	-255
েক	-256
স্ত	-257
▁অভ	-258
▁y	-259
োর	-260
om	-261
▁T	-262
ংশ	-263
▁in	-264
্রি	-265
▁th	-266
▁আম	-267
▁সাথে	-268
▁,	-269
োল	-270
▁কি	-271
▁এটি	-272
▁মধ্যে	-273
▁আর	-274
ছিলেন	-275
স্ট	-276
র্ম	-277
▁২০১	-278
▁ব্যব	-279
in	-280
ুরু	-281
ংল	-282
▁ভার	-283
বার	-284
▁দ্ব	-285
▁গ্র	-286
le	-287
..	-288
▁you	-289
িত্র	-290
▁সালের	-291
▁পা	-292
as	-293
▁আল	-294
▁মু	-295
িশ	-296
▁স্ব	-297
ধান	-298
▁S	-299
al	-300
ীন	-301
▁n	-302
ত্র	-303
ic	-304
▁সম্প	-305
স্ক	-306
▁বিশ্ব	-307
ভাবে	-308
মে	-309
▁প্রথম	-310
▁ইউ	-311
্জ	-312
াচ	-313
ion	-314
রণ	-315
খন	-316
▁দু	-317
▁কা	-318
রের	-319
েবে	-320
▁হল	-321
০০	-322
িজ	-323
ve	-324
টা	-325
▁নে	-326
▁ভারত	-327
▁বাংল	-328
▁বিভ	-329
▁স্থ	-330
ot	-331
▁চল	-332
▁হিসেবে	-333
ঞ্চ	-334
প্র	-335
▁সু	-336
র্ণ	-337
াণ	-338
▁ক্র	-339
েষ	-340
যোগ	-341
ানের	-342
িং	-343
য়ের	-344
িব	-345
▁প্রক	-346
বর্ত	-347
র্থ	-348
লের	-349
▁g	-350
▁পরিচ	-351
▁সর	-352
াঁ	-353
টার	-354
সে	-355
হার	-356
▁তাদের	-357
য়েছে	-358
▁ছিলেন	-359
▁M	-360
ুম	-361
▁হয়েছিল	-362
st	-363
য়ন	-364
▁be	-365
ান্ত	-366
াদেশ	-367
▁যায়	-368
▁করতে	-369
ুদ্ধ	-370
্ঞ	-371
িপ	-372
▁মহ	-373
ীব	-374
লা	-375
ন্ত্র	-376
্যান্ড	-377
▁H	-378
োট	-379
▁অবস্থ	-380
▁W	-381
ূল	-382
▁মার	-383
টির	-384
▁রয়েছে	-385
চ্	-386
▁একজন	-387
োন	-388
োক	-389
ীত	-390
ent	-391
▁হয়েছে	-392
▁C	-393
িক্ষ	-394
ow	-395
োম	-396
▁করার	-397
▁রা	-398
▁মে	-399
খানে	-400
▁খেল	-401
টে	-402
▁২০০	-403
ay	-404
মন	-405
▁দেখ	-406
▁বছ	-407
▁অংশ	-408
বিদ	-409
▁.	-410
▁চলচ্চ	-411
সল	-412
▁বেশ	-413
▁বাংলাদেশ	-414
▁অধ	-415
াধ	-416
দি	-417
▁e	-418
▁স্ট	-419
ক্র	-420
▁কার	-421
▁is	-422
▁কাজ	-423
ঞ্জ	-424
▁ক্ষ	-425
যা়র	-426
▁পর্য	-427
id	-428
হণ	-429
ছু	-430
▁মান	-431
▁পূ	-432
▁P	-433
ut	-434
িকা	-435
se	-436
ন্ড	-437
▁সাম	-438
▁কোন	-439
▁সহ	-440
▁re	-441
াত্র	-442
্বর	-443
োপ	-444
▁ব্যা	-445
▁দিয়ে	-446
▁নিয়ে	-447
্যের	-448
▁wh	-449
▁আই	-450
▁আস	-451
▁প্রত	-452
লেখ	-453
am	-454
াষ	-455
et	-456
▁সময়	-457
েন্ট	-458
ad	-459
েন্দ	-460
▁পুর	-461
দেশ	-462
▁৩	-463
▁জাত	-464
ন্ম	-465
ারে	-466
▁জেল	-467
শন	-468
জাত	-469
তার	-470
পর	-471
্টি	-472
ড়ে	-473
▁করেছিলেন	-474
িযা়র	-475
▁কিছু	-476
িন্ন	-477
▁বে	-478
ac	-479
ver	-480
▁on	-481
চে	-482
াভ	-483
▁শহ	-484
জ্ঞ	-485
র্ক	-486
▁করেছেন	-487
▁জান	-488
▁চলচ্চিত্র	-489
১৯	-490
▁for	-491
সম	-492
পুর	-493
▁।	-494
জি	-495
▁প্রতিষ্ঠ	-496
ন্ধ	-497
▁আগ	-498
▁বলে	-499
ur	-500
▁সরকার	-501
িড	-502
▁শুরু	-503
িস্ট	-504
ষণ	-505
স্য	-506
াডা়	-507
▁হিসাবে	-508
▁উত্ত	-509
▁সব	-510
▁দ্বারা	-511
▁ব্যবহার	-512
াকা	-513
েন্দ্র	-514
িন্ত	-515
▁The	-516
িকার	-517
চার	-518
▁সদ	-519
▁হন	-520
োযা়	-521
ir	-522
কাল	-523
গুলি	-524
▁he	-525
খে	-526
বাদ	-527
▁বল	-528
),	-529
▁কারণ	-530
কের	-531
▁বিদ	-532
ri	-533
ল্প	-534
▁অভিন	-535
▁লি	-536
▁তারা	-537
বা	-538
্যার	-539
▁u	-540
▁কে	-541
lo	-542
▁শিক্ষ	-543
▁মাধ্য	-544
▁ইউনি	-545
▁মত	-546
ro	-547
ন্ন	-548
িউ	-549
শ্চ	-550
ুব	-551
র্ড	-552
ক্ষে	-553
▁পর্যন্ত	-554
▁that	-555
▁বছর	-556
▁দক্ষ	-557
▁১৮	-558
...	-559
▁পারে	-560
▁প্রধান	-561
▁L	-562
▁D	-563
ওযা়র	-564
ld	-565
ূপ	-566
িণ	-567
▁G	-568
এর	-569
ষ্ট্র	-570
ুক	-571
িস্ত	-572
gh	-573
াতে	-574
▁আব	-575
▁ভাষ	-576
গুলো	-577
ly	-578
▁রে	-579
▁দেশ	-580
▁তাকে	-581
▁প্রকাশ	-582
ুযা়	-583
িত্ব	-584
▁১৯৯	-585
▁টি	-586
▁অন্য	-587
▁নির্ব	-588
▁থাকে	-589
▁it	-590
ধারণ	-591
▁এল	-592
োধ	-593
▁তৈ	-594
▁্	-595
▁৫	-596
▁জাতীয়	-597
জে	-598
im	-599
▁আমি	-600
ীদের	-601
নার	-602
থা	-603
্যাম	-604
▁প্রায়	-605
্যালয়	-606
▁সি	-607
▁কিন্ত	-608
ুট	-609
▁সর্ব	-610
তিক	-611
্যাস	-612
▁অনেক	-613
েশন	-614
বর্তী	-615
পূ	-616
গত	-617
ত্ব	-618
▁তু	-619
ঙ্ক	-620
দান	-621
▁বিষ	-622
▁জীব	-623
তম	-624
▁যুক্ত	-625
▁'	-626
▁কিন্তু	-627
▁দক্ষিণ	-628
▁৪	-629
▁নামে	-630
▁বিভিন্ন	-631
ill	-632
▁উৎ	-633
ation	-634
▁কম	-635
োস	-636
▁অঞ্চ	-637
▁মূল	-638
▁কেন্দ্র	-639
▁N	-640
▁পরিচাল	-641
তিহ	-642
▁নির্	-643
ter	-644
ানি	-645
েত	-646
▁থাক	-647
্যাক	-648
ct	-649
▁1	-650
▁পরে	-651
িযা়ন	-652
ত্য	-653
্ভ	-654
২০	-655
▁ক্রিকে	-656
স্কার	-657
চ্ছে	-658
▁অর্থ	-659
▁স্ক	-660
▁ওযা়	-661
▁দল	-662
খ্যা	-663
▁উল	-664
ce	-665
▁পে	-666
োব	-667
োজ	-668
▁স্থান	-669
যুক্ত	-670
িও	-671
▁R	-672
▁অবস্থিত	-673
▁ha	-674
▁মাধ্যমে	-675
▁নির্বাচ	-676
▁ভূ	-677
দার	-678
বাহ	-679
গ্রহণ	-680
িন্দ	-681
নী	-682
▁জন্ম	-683
ra	-684
ুদ	-685
সং	-686
▁তাঁ	-687
▁হার	-688
ুপ	-689
▁বার	-690
▁সাধারণ	-691
▁উপর	-692
▁সদস্য	-693
ith	-694
ণ্ড	-695
▁F	-696
▁we	-697
বল	-698
াইন	-699
▁বৃ	-700
াব্দ	-701
েস	-702
od	-703
কারী	-704
▁সঙ্গ	-705
▁পাল	-706
▁হবে	-707
▁তবে	-708
োহ	-709
▁ব্র	-710
▁শেষ	-711
▁বির	-712
▁১৯৭	-713
▁অন্ত	-714
▁হতে	-715
▁আছে	-716
▁ইন	-717
ক্তি	-718
▁সাহ	-719
লি	-720
েম্বর	-721
ুত	-722
শ্চিম	-723
▁O	-724
▁ঐ	-725
▁তা	-726
ানা	-727
ীল	-728
▁not	-729
▁কর্ম	-730
▁নার	-731
▁বিশ্ববিদ	-732
▁ভারতের	-733
ভার	-734
▁যোগ	-735
▁যার	-736
াট	-737
▁বৈ	-738
ুগ	-739
াউ	-740
াস্ত	-741
্যাপ	-742
▁চে	-743
▁অভি	-744
▁মাস	-745
▁অর্	-746
▁আন্ত	-747
্যে	-748
▁অফ	-749
িতা	-750
সি	-751
▁১৯৮	-752
সের	-753
▁ভারতীয়	-754
ুষ	-755
▁st	-756
িল্প	-757
ch	-758
ড়ি	-759
▁নির্ম	-760
▁৬	-761
ষ্টি	-762
▁করেছে	-763
▁2	-764
▁উত্তর	-765
বেশ	-766
▁বিভাগ	-767
▁ক্ল	-768
দিন	-769
▁প্রশ	-770
▁পূর্ব	-771
▁ধর্ম	-772
▁উই	-773
▁পরিচিত	-774
▁পুরস্কার	-775
▁যদি	-776
্যান্য	-777
▁উচ্চ	-778
ak	-779
▁অন্যান্য	-780
▁তৈরি	-781
▁Y	-782
▁উদ	-783
▁with	-784
▁বর্ত	-785
ভা	-786
▁লাভ	-787
সলাম	-788
▁চার	-789
▁অপ	-790
▁দলের	-791
েব	-792
ৃত্য	-793
▁শত	-794
op	-795
rom	-796
ght	-797
▁বর্তমান	-798
▁হত	-799
▁are	-800
ীক	-801
এস	-802
ভূ	-803
▁কল	-804
▁নিয়	-805
িদ	-806
▁বেশি	-807
▁আপ	-808
▁মন	-809
▁উদ্	-810
▁যুদ্ধ	-811
her	-812
▁পাক	-813
র্শ	-814
ারের	-815
য়ী	-816
সব	-817
▁দুই	-818
দী	-819
all	-820
▁li	-821
▁স্প	-822
▁অনুষ্ঠ	-823
il	-824
▁an	-825
জ্ঞান	-826
▁দিকে	-827
্লেখ	-828
th	-829
▁ইসলাম	-830
▁they	-831
র্গ	-832
▁বিশেষ	-833
র্জাত	-834
▁মার্ক	-835
খ্য	-836
▁উল্লেখ	-837
▁পশ্চিম	-838
▁ট্র	-839
াইল	-840
▁k	-841
▁আন্তর্জাত	-842
▁ডি	-843
ag	-844
▁মি	-845
▁ম্যা	-846
িত্ত	-847
▁৭	-848
▁জেলার	-849
সা	-850
রিক	-851
▁কাছে	-852
▁লেখ	-853
▁শ্র	-854
▁have	-855
তুন	-856
েট	-857
চনা	-858
▁মৌ	-859
▁তিন	-860
us	-861
াইট	-862
▁বিপ	-863
▁কলে	-864
▁দায়	-865
▁গঠ	-866
গুলির	-867
▁১৯৬	-868
▁চাল	-869
▁করেছিল	-870
তিহাস	-871
্টার	-872
ah	-873
িতীয়	-874
ানো	-875
▁আন্তর্জাতিক	-876
স্থা	-877
▁)	-878
কল	-879
িনী	-880
▁আদ	-881
▁মুক্ত	-882
em	-883
▁লোক	-884
নিক	-885
জের	-886
ছি	-887
ম্ব	-888
▁পাকিস্ত	-889
▁them	-890
মা	-891
▁অন্তর্	-892
ছাডা়	-893
ভাব	-894
ক্রম	-895
▁কারণে	-896
াতা	-897
▁তোম	-898
▁হচ্ছে	-899
▁পরবর্তী	-900
য়েক	-901
র্ষ	-902
▁দ্বিতীয়	-903
▁ফুট	-904
▁ধর	-905
▁মানুষ	-906
▁পদ	-907
▁দেখা	-908
▁as	-909
ৃতি	-910
▁বিক	-911
▁will	-912
▁নতুন	-913
ul	-914
▁চর	-915
▁দ্য	-916
▁মাল	-917
▁স্ত	-918
▁অনুস	-919
▁সেন	-920
▁আন	-921
▁who	-922
▁বাংলাদেশের	-923
োর্	-924
্রিয়	-925
▁নিউ	-926
িত্রে	-927
▁তাঁর	-928
▁ঢ	-929
▁তাল	-930
ডি	-931
▁from	-932
▁যেখানে	-933
▁রাখ	-934
▁সেই	-935
▁সার	-936
▁মিল	-937
▁We	-938
ীপ	-939
▁কয়েক	-940
▁He	-941
▁যখন	-942
ist	-943
াক্ষ	-944
ক্স	-945
▁আমার	-946
▁৮	-947
▁দশ	-948
ers	-949
▁গণ	-950
▁শহর	-951
▁ব্রি	-952
▁se	-953
▁sh	-954
▁বড়	-955
াফ	-956
▁do	-957
)।	-958
▁দেয়	-959
▁ঘট	-960
▁পুন	-961
সু	-962
▁দিন	-963
▁J	-964
▁মতো	-965
াধীন	-966
▁বহ	-967
▁আফ	-968
▁মার্কিন	-969
▁এছাডা়	-970
▁ওয়ে	-971
ৈতিক	-972
িযা়ম	-973
▁–	-974
▁লে	-975
▁রাষ্ট্র	-976
▁গে	-977
▁১৯৫	-978
িয়ন	-979
▁কাল	-980
াপ্ত	-981
▁খ্র	-982
জেল	-983
▁গুরু	-984
ুরুষ	-985
িষ্ট	-986
কা	-987
ক্ষণ	-988
ুই	-989
nt	-990
▁গ্রাম	-991
▁পি	-992
▁পরিবর্ত	-993
▁আয়	-994
মাণ	-995
▁ইউনিয়ন	-996
▁এমন	-997
00	-998
est	-999
▁কথা	-1000
▁পৃ	-1001
um	-1002
▁বয়	-1003
▁me	-1004
ীতে	-1005
▁বাহ	-1006
ome	-1007
▁রেল	-1008
ষণা	-1009
▁দেওযা়	-1010
▁de	-1011
▁শু	-1012
▁আহ	-1013
▁শিল্প	-1014
▁মৃত্য	-1015
ol	-1016
▁নয়	-1017
▁পাশ	-1018
▁বো	-1019
ভাগ	-1020
ম্প	-1021
▁ফলে	-1022
▁:	-1023
▁এখন	-1024
▁l	-1025
চিত	-1026
াজার	-1027
কি	-1028
▁শব	-1029
ভুক্ত	-1030
েড	-1031
▁শ্রে	-1032
▁ঘো	-1033
▁উপজেল	-1034
▁বিষয়	-1035
আই	-1036
▁খ্রিস্ট	-1037
▁পান	-1038
and	-1039
ক্ষা	-1040
েরা	-1041
▁জার	-1042
▁কর্ত	-1043
▁এখানে	-1044
ain	-1045
▁দায়িত্ব	-1046
▁K	-1047
েত্রে	-1048
▁পু	-1049
ওয়ে	-1050
নৈতিক	-1051
ফল	-1052
টের	-1053
▁উন্ন	-1054
▁দেব	-1055
▁সংস্ক	-1056
প্ত	-1057
গর	-1058
▁পাওযা়	-1059
▁যেমন	-1060
ভি	-1061
েন্স	-1062
▁ব্ল	-1063
ক্ট	-1064
▁মহিল	-1065
▁গ্রহণ	-1066
▁সম্ম	-1067
ার্থ	-1068
▁বর্ণ	-1069
▁সূ	-1070
▁your	-1071
ঁচ	-1072
▁অ্যা	-1073
▁by	-1074
ত্ত্ব	-1075
েই	-1076
▁১০	-1077
র্ঘ	-1078
সভা	-1079
res	-1080
ess	-1081
▁was	-1082
▁বন্ধ	-1083
ুযা়রি	-1084
▁অভিনয়	-1085
োজন	-1086
ুজ	-1087
পূর্ণ	-1088
▁Th	-1089
্লে	-1090
▁প্রা	-1091
চ্ছ	-1092
▁৯	-1093
▁তখন	-1094
▁আইন	-1095
▁খেলোযা়	-1096
▁this	-1097
▁১৯৪	-1098
্রিক	-1099
ূহ	-1100
াকার	-1101
▁একই	-1102
▁ভাল	-1103
ore	-1104
▁ছোট	-1105
▁এটা	-1106
un	-1107
▁মুসল	-1108
▁হিন্দ	-1109
টিশ	-1110
▁বলা	-1111
স্ট্র	-1112
াম্ম	-1113
মিক	-1114
▁বাস	-1115
▁সির	-1116
▁কার্য	-1117
টিতে	-1118
নাম	-1119
▁গো	-1120
▁মনে	-1121
▁গা	-1122
▁পুরুষ	-1123
▁ne	-1124
▁All	-1125
▁You	-1126
▁খেলোযা়ড়	-1127
ুদ্ধে	-1128
▁ক্ষেত্রে	-1129
▁সম্পর্ক	-1130
▁And	-1131
▁প্রদান	-1132
সর	-1133
ায়ের	-1134
ant	-1135
▁go	-1136
▁দূ	-1137
েস্ট	-1138
ate	-1139
▁ক্রিকেট	-1140
স্ব	-1141
▁লক্ষ	-1142
▁দেন	-1143
ন্দির	-1144
▁গবে	-1145
তির	-1146
▁পালন	-1147
▁পরিবার	-1148
▁বিদ্যালয়	-1149
▁U	-1150
েলে	-1151
▁তারি	-1152
▁ব্যক্তি	-1153
▁স্থাপ	-1154
ণের	-1155
▁মিশ	-1156
▁১৫	-1157
রী	-1158
▁at	-1159
▁কন	-1160
▁ধারণ	-1161
▁নির	-1162
ia	-1163
াখ	-1164
ন্থ	-1165
োড	-1166
র্বে	-1167
যোগ্য	-1168
ৃষ্টি	-1169
তেন	-1170
▁আরও	-1171
ust	-1172
▁ডিস	-1173
▁সম্প্র	-1174
▁ঠ	-1175
▁কর্তৃ	-1176
▁প্রয়	-1177
▁যিনি	-1178
▁পৌ	-1179
▁মোট	-1180
মাত্র	-1181
▁তুমি	-1182
▁কমি	-1183
চেয়ে	-1184
▁নামক	-1185
ab	-1186
ংরে	-1187
▁আগে	-1188
▁কলেজ	-1189
el	-1190
▁সম্ভ	-1191
্রম	-1192
গ্রহ	-1193
ুস	-1194
▁হলে	-1195
▁প্রদ	-1196
ীরা	-1197
থমিক	-1198
▁এম	-1199
▁আক	-1200
pp	-1201
ord	-1202
▁দুটি	-1203
ন্য	-1204
ংস	-1205
▁ঝ	-1206
▁their	-1207
▁সবচেয়ে	-1208
০০০	-1209
নায়	-1210
াদা	-1211
▁আশ	-1212
▁প্রাথমিক	-1213
▁পাঠ	-1214
▁১৭	-1215
পি	-1216
▁মস	-1217
ok	-1218
▁v	-1219
os	-1220
▁পরিষ	-1221
্যাম্প	-1222
▁শব্দ	-1223
▁স্বাধীন	-1224
▁সঙ্গে	-1225
▁সংস	-1226
▁গোল	-1227
▁জেলা	-1228
ould	-1229
জার	-1230
▁মাদ	-1231
▁সংখ্যা	-1232
▁ধরনের	-1233
▁বিশ্ববিদ্যালয়	-1234
▁গুরুত্ব	-1235
ig	-1236
▁রান	-1237
লিক	-1238
োভ	-1239
▁রূপ	-1240
ন্দ্র	-1241
▁বিরুদ্ধে	-1242
▁ফ্র	-1243
▁ব্রিটিশ	-1244
▁অভিনে	-1245
াবাহ	-1246
▁অন্যতম	-1247
▁যুক্তরা	-1248
▁খুব	-1249
▁হলো	-1250
▁প্রতিষ্ঠিত	-1251
▁মুক্তি	-1252
ষ্ণ	-1253
িফ	-1254
▁সী	-1255
ard	-1256
▁কু	-1257
ment	-1258
▁ফিল	-1259
্ধ	-1260
▁যান	-1261
র্শন	-1262
ঠে	-1263
▁মন্দির	-1264
▁“	-1265
দে	-1266
পাত	-1267
পার	-1268
ুমার	-1269
▁কৃ	-1270
▁ইতিহাস	-1271
▁অংশগ্রহণ	-1272
ালি	-1273
ালী	-1274
▁জল	-1275
▁ফুটবল	-1276
▁উৎপ	-1277
হৃত	-1278
▁আমের	-1279
▁ভিত্ত	-1280
▁অর্জন	-1281
art	-1282
নীতি	-1283
▁হওযা়র	-1284
ity	-1285
াড	-1286
▁আত	-1287
▁;	-1288
ন্দর	-1289
▁টেস্ট	-1290
▁বর্তমানে	-1291
র্কে	-1292
দ্ব	-1293
্রিযা়	-1294
▁|	-1295
▁শাস	-1296
িভ	-1297
▁অস্ট্র	-1298
▁ইউর	-1299
▁ঘটে	-1300
▁জনসং	-1301
▁বিমান	-1302
▁বাই	-1303
▁যৌ	-1304
বর	-1305
▁প্রভাব	-1306
▁বিল	-1307
▁অঞ্চল	-1308
▁গান	-1309
▁জু	-1310
ালে	-1311
োদ	-1312
▁ব্যবহৃত	-1313
▁বু	-1314
▁মসজি	-1315
▁প্রচ	-1316
▁সংগ	-1317
য়নের	-1318
▁‘	-1319
ure	-1320
▁১২	-1321
▁প্রাচ	-1322
ুণ	-1323
▁ধরে	-1324
▁তুল	-1325
▁con	-1326
▁১৯৩	-1327
▁সময়ে	-1328
▁চিত্র	-1329
ন্ত্রণ	-1330
র্জ	-1331
সার	-1332
▁এসে	-1333
ci	-1334
▁তথ	-1335
িট	-1336
াইড	-1337
্রাস	-1338
▁হাস	-1339
▁বিজ	-1340
▁আমরা	-1341
এম	-1342
তু	-1343
▁বই	-1344
ম্যান	-1345
iv	-1346
▁প্রাক	-1347
▁অনুষ্ঠিত	-1348
টিকে	-1349
লার	-1350
▁নির্মাণ	-1351
াযা়	-1352
ose	-1353
▁বর	-1354
▁মাঝ	-1355
ূলক	-1356
▁তাই	-1357
▁চলে	-1358
▁১৬	-1359
ন্ত্রী	-1360
▁পৃথ	-1361
াও	-1362
▁বিধান	-1363
▁ছে	-1364
▁প্রস্ত	-1365
▁ইংরে	-1366
▁এস	-1367
ংক	-1368
শীল	-1369
▁প্রতিযোগ	-1370
শ্ব	-1371
ন্স	-1372
out	-1373
ব্য	-1374
▁lo	-1375
▁জন্মগ্রহণ	-1376
▁Allah	-1377
▁বাব	-1378
▁অন্তর্ভুক্ত	-1379
▁শে	-1380
▁ভাই	-1381
▁has	-1382
ive	-1383
▁আমাদের	-1384
র্ধ	-1385
▁আন্দ	-1386
pe	-1387
▁পো	-1388
▁ছবি	-1389
hen	-1390
▁আজ	-1391
▁প্রকাশিত	-1392
▁or	-1393
▁তারিখে	-1394
প্ট	-1395
কালে	-1396
াগুল	-1397
যায়ী	-1398
▁বিশ্ববিদ্যাল	-1399
▁নদী	-1400
▁মার্চ	-1401
শ্য	-1402
▁ক্লাব	-1403
▁com	-1404
ort	-1405
▁নিজে	-1406
now	-1407
▁যদিও	-1408
▁উপস্থ	-1409
▁এন	-1410
ূর্ণ	-1411
ud	-1412
▁জুল	-1413
▁মুহ	-1414
▁সেখানে	-1415
▁ex	-1416
▁কোনো	-1417
▁ab	-1418
pt	-1419
▁বৃহ	-1420
▁সাক্ষ	-1421
মার	-1422
▁জীবন	-1423
▁সাধারণত	-1424
▁খান	-1425
▁le	-1426
▁pro	-1427
▁all	-1428
▁শতাব্দ	-1429
▁ফির	-1430
▁সম্পর্কে	-1431
▁এছাডা়ও	-1432
ান্স	-1433
▁রাজ্যের	-1434
▁টেল	-1435
▁সাং	-1436
▁19	-1437
▁স্কুল	-1438
▁পায়	-1439
ট্র	-1440
▁জয়	-1441
▁যারা	-1442
▁নাট	-1443
▁V	-1444
fe	-1445
গ্রাম	-1446
িহ	-1447
▁j	-1448
▁ফর	-1449
▁so	-1450
▁বিন	-1451
our	-1452
ট্ট	-1453
▁ডে	-1454
ast	-1455
দ্র	-1456
ry	-1457
▁২০২	-1458
▁আধ	-1459
রাজ	-1460
পূর্ব	-1461
কালীন	-1462
▁পড়ে	-1463
▁অনুযায়ী	-1464
াড়	-1465
▁শিক্ষা	-1466
আর	-1467
▁ব্যাপ	-1468
▁ইন্ড	-1469
▁শিশ	-1470
▁অস্ট্রেল	-1471
েজ	-1472
▁নারী	-1473
১৮	-1474
▁দ্র	-1475
▁সরকারি	-1476
এন	-1477
কো	-1478
▁কাউ	-1479
▁In	-1480
ুখ	-1481
▁Wh	-1482
▁হিন্দু	-1483
মিটার	-1484
াব্দে	-1485
▁অনুসারে	-1486
▁যেতে	-1487
▁মুসলিম	-1488
▁১৪	-1489
কর	-1490
িৎ	-1491
▁মাত্র	-1492
qu	-1493
মের	-1494
▁শহরের	-1495
প্রিয়	-1496
▁ধার	-1497
▁মূলত	-1498
▁গিয়ে	-1499
▁উভ	-1500
ans	-1501
▁আত্ম	-1502
▁মো	-1503
▁একটা	-1504
ষ্ক	-1505
▁স্ম	-1506
বী	-1507
▁নেত	-1508
▁রাজ্য	-1509
িকভাবে	-1510
▁১৩	-1511
ায	-1512
লী	-1513
▁ভাষা	-1514
▁১১	-1515
্যান্ডের	-1516
▁গুরুত্বপূর্ণ	-1517
াসের	-1518
▁নেই	-1519
▁what	-1520
▁কর্তৃক	-1521
▁নির্বাচিত	-1522
▁নিক	-1523
▁প্রজাত	-1524
▁সাহিত	-1525
গান	-1526
বন্ধ	-1527
ান্তর	-1528
▁নভ	-1529
▁স্থানীয়	-1530
▁সিন	-1531
▁তথ্য	-1532
▁অবস্থান	-1533
ষ্টা	-1534
▁কখন	-1535
▁ইউরোপ	-1536
▁এশ	-1537
▁২০১১	-1538
▁us	-1539
শেষ	-1540
সমূহ	-1541
▁নাগ	-1542
▁পেয়ে	-1543
্লাহ	-1544
ind	-1545
টন	-1546
াম্মদ	-1547
▁অক্ট	-1548
▁শুধ	-1549
▁him	-1550
▁আক্রম	-1551
▁মাসে	-1552
ামী	-1553
ুঁ	-1554
▁বিপক্ষে	-1555
াশি	-1556
িকান	-1557
▁দী	-1558
▁জনপ্রিয়	-1559
ায়ক	-1560
▁প্রাচীন	-1561
▁ch	-1562
াবাদ	-1563
▁ইংল	-1564
ack	-1565
ich	-1566
তের	-1567
▁স্টেশন	-1568
▁বাংলা	-1569
ew	-1570
▁অথ	-1571
▁my	-1572
গের	-1573
▁গঠিত	-1574
▁কলক	-1575
ub	-1576
▁যুক্তরাষ্ট্র	-1577
▁()	-1578
ন্ট	-1579
▁রহ	-1580
▁মহিলা	-1581
ame	-1582
তন	-1583
ড়িয়ে	-1584
েব্র	-1585
▁চরিত্রে	-1586
one	-1587
ke	-1588
প্রিল	-1589
▁বছরের	-1590
▁wor	-1591
▁know	-1592
▁পদ্ধ	-1593
▁অক্টোব	-1594
গণ	-1595
rou	-1596
▁ক্ষম	-1597
▁আন্দোল	-1598
গঞ্জ	-1599
সন	-1600
▁ঘোষণা	-1601
টিং	-1602
ত্রী	-1603
▁শাহ	-1604
খ্যাত	-1605
▁can	-1606
ভূত	-1607
▁পরী	-1608
ামা	-1609
▁sa	-1610
▁হওযা়	-1611
▁রাজনৈতিক	-1612
ুদ্র	-1613
▁সুর	-1614
ost	-1615
▁pe	-1616
▁মুখ	-1617
▁সফ	-1618
▁সমাজ	-1619
▁এপ্রিল	-1620
▁?	-1621
▁তালিকা	-1622
▁up	-1623
হত	-1624
▁প্রদেশ	-1625
▁প্ল	-1626
াবি	-1627
▁there	-1628
▁পূর্বে	-1629
▁পুনর	-1630
▁his	-1631
টিক	-1632
▁ইর	-1633
▁বৃদ্ধ	-1634
▁সেপ্ট	-1635
২০০	-1636
েনের	-1637
িসি	-1638
▁অল	-1639
▁ছাডা়	-1640
▁ভূম	-1641
▁[	-1642
ইন	-1643
▁মর	-1644
▁সকল	-1645
▁ফেব্র	-1646
▁আলো	-1647
্যাট	-1648
▁al	-1649
▁জুলাই	-1650
বন	-1651
red	-1652
▁বিজ্ঞান	-1653
্‌	-1654
বেন	-1655
▁দেশের	-1656
▁উপজেলার	-1657
▁অ্যাল	-1658
গুলোর	-1659
পতি	-1660
কেট	-1661
▁আবার	-1662
শিষ্ট	-1663
ear	-1664
ৃত্ব	-1665
▁সঙ্গীত	-1666
▁এরপর	-1667
▁সৈ	-1668
▁কয়েকটি	-1669
িনিধ	-1670
▁গ্রে	-1671
ালা	-1672
▁স্ন	-1673
▁জার্ম	-1674
▁মসজিদ	-1675
▁কোম্প	-1676
▁সমর্থ	-1677
ck	-1678
▁আগস্ট	-1679
িনীর	-1680
▁ভাগ	-1681
ake	-1682
ীনে	-1683
ies	-1684
▁জুন	-1685
শে	-1686
▁বিস্ত	-1687
▁সংস্থা	-1688
▁নিম	-1689
গার	-1690
▁খ্রি	-1691
▁কেন	-1692
াধিক	-1693
▁রাম	-1694
▁ছাত্র	-1695
▁অ্যান্ড	-1696
▁১৯২	-1697
▁পুল	-1698
▁শ্রেণ	-1699
▁but	-1700
ople	-1701
ালের	-1702
▁পেশ	-1703
▁লাই	-1704
▁গেছে	-1705
▁It	-1706
▁দ্বীপ	-1707
াঙ্গ	-1708
োনা	-1709
ang	-1710
ায়ী	-1711
কদের	-1712
িনা	-1713
▁তোমার	-1714
▁বিষয়ে	-1715
▁চৌ	-1716
বেদ	-1717
▁পাঁচ	-1718
age	-1719
▁পরিচালনা	-1720
▁প্রতিনিধ	-1721
োচ্চ	-1722
▁ঢাকা	-1723
▁ডিসেম্বর	-1724
▁সমস্ত	-1725
▁চিক	-1726
ide	-1727
▁তর	-1728
▁r	-1729
▁ব্যক্ত	-1730
lie	-1731
▁জেন	-1732
ne	-1733
▁গ্রন্থ	-1734
ight	-1735
াদার	-1736
ৃহ	-1737
▁অঞ্চলে	-1738
িলো	-1739
▁চেয়ে	-1740
▁সাহায	-1741
াৎ	-1742
ক্ষম	-1743
▁প্রয়োজন	-1744
ap	-1745
দিকে	-1746
▁পরিচালিত	-1747
▁যুগ	-1748
র্ন	-1749
▁ভাষায়	-1750
২০১	-1751
▁পরিবর্তন	-1752
জন্ম	-1753
▁বিশ্বাস	-1754
▁tr	-1755
▁সিং	-1756
ian	-1757
▁অধিকার	-1758
ৃতিক	-1759
িল্ল	-1760
01	-1761
▁অথবা	-1762
ace	-1763
ous	-1764
গা	-1765
্রী	-1766
্রাজ	-1767
▁দেযা়	-1768
জা	-1769
▁উৎস	-1770
সহ	-1771
িপি	-1772
▁পক্ষে	-1773
▁তৃত	-1774
▁তিনটি	-1775
ধার	-1776
▁বিবে	-1777
াদি	-1778
▁!	-1779
▁নিজ	-1780
াকায়	-1781
▁ব্যবস্থা	-1782
াত্ম	-1783
vers	-1784
▁সম্পাদ	-1785
▁কাছ	-1786
▁দীর্ঘ	-1787
িয়	-1788
▁শক্ত	-1789
▁মোহ	-1790
াপাশি	-1791
▁তো	-1792
াজিক	-1793
▁হাম	-1794
ৌশ	-1795
▁বিধানসভা	-1796
▁খেলায়	-1797
▁সম্ভব	-1798
▁পাশাপাশি	-1799
এফ	-1800
ায়ন	-1801
▁রাজা	-1802
log	-1803
▁উল্লেখযোগ্য	-1804
▁পডা়	-1805
োর্ট	-1806
▁আরব	-1807
ালো	-1808
খান	-1809
▁সৌ	-1810
▁নিজের	-1811
▁পার্	-1812
▁নির্মিত	-1813
▁জাপ	-1814
ber	-1815
ুনিক	-1816
▁মানব	-1817
▁সর্বোচ্চ	-1818
ুলে	-1819
▁ঐতিহ	-1820
av	-1821
▁প্রবেশ	-1822
▁আর্	-1823
▁সভ	-1824
▁প্রাণ	-1825
▁St	-1826
▁সংসদ	-1827
▁অধ্য	-1828
▁উৎপাদ	-1829
▁তৃতীয়	-1830
▁those	-1831
বহ	-1832
▁অক্টোবর	-1833
▁Ch	-1834
▁মারা	-1835
▁আক্রমণ	-1836
ge	-1837
▁পরবর্তীতে	-1838
ধর্ম	-1839
্ডার	-1840
▁কাপ	-1841
▁ইন্টার	-1842
▁বাদ	-1843
তো	-1844
োগ্র	-1845
▁প্রশাস	-1846
দা	-1847
উট	-1848
▁one	-1849
▁আবি	-1850
িযা়য়	-1851
▁চ্যাম্প	-1852
▁সেন্ট	-1853
িকল্প	-1854
▁নব	-1855
▁ইব	-1856
মিত	-1857
▁জনসংখ্যা	-1858
▁নির্দেশ	-1859
▁জাহ	-1860
▁খ্রিষ্ট	-1861
োপা	-1862
জীব	-1863
▁ইউনিয়নের	-1864
ুশ	-1865
তী	-1866
▁পরিস	-1867
তায়	-1868
সূ	-1869
্যু	-1870
ুরি	-1871
িতার	-1872
▁শির	-1873
▁সিরিজ	-1874
▁সৃষ্টি	-1875
▁২০১৮	-1876
▁people	-1877
▁কব	-1878
▁শী	-1879
▁সিদ্ধ	-1880
if	-1881
▁নভেম্বর	-1882
▁উদ্দেশ	-1883
সাম	-1884
▁ফিরে	-1885
করণ	-1886
িশন	-1887
▁করবে	-1888
▁out	-1889
▁করতেন	-1890
▁সেরা	-1891
্সি	-1892
ধা	-1893
িযা়ল	-1894
▁পর্ব	-1895
▁রো	-1896
েও	-1897
নাথ	-1898
▁বেশির	-1899
ফা	-1900
▁রোগ	-1901
এই	-1902
▁হলেন	-1903
▁রাজনীতি	-1904
স্প	-1905
▁কী	-1906
▁man	-1907
▁অধীনে	-1908
▁মাই	-1909
▁দিক	-1910
▁সেপ্টেম্বর	-1911
▁পুলিশ	-1912
▁চিকিৎ	-1913
▁বের	-1914
▁উভয়	-1915
▁২০১৪	-1916
েক্স	-1917
শা	-1918
াতি	-1919
িলোমিটার	-1920
▁বেল	-1921
ary	-1922
▁গড়ে	-1923
▁পাকিস্তান	-1924
▁অফিস	-1925
▁জাম	-1926
▁সরকারের	-1927
▁ফার	-1928
চের	-1929
▁চলচ্চিত্রে	-1930
▁অনুম	-1931
▁বাণ	-1932
▁নেতৃত্ব	-1933
▁সন্ত	-1934
্যাশন	-1935
▁ফেব্রুযা়রি	-1936
পথ	-1937
ৃত্ত	-1938
▁about	-1939
▁অঞ্চলের	-1940
▁এলাকা	-1941
▁গঠন	-1942
▁রেখে	-1943
গুলিতে	-1944
▁অ্যান	-1945
▁অভিষ	-1946
▁এতে	-1947
▁were	-1948
▁চুক্ত	-1949
▁হাই	-1950
▁পরিকল্প	-1951
▁এক্স	-1952
▁আরো	-1953
▁বাক	-1954
বান	-1955
ক্রান্ত	-1956
▁গুল	-1957
au	-1958
▁কাম	-1959
াসী	-1960
▁আধুনিক	-1961
▁নদ	-1962
▁ডিগ্র	-1963
▁একে	-1964
▁বিভাগের	-1965
▁পারেন	-1966
▁সংগঠ	-1967
▁su	-1968
াতার	-1969
▁বোল	-1970
াওযা়	-1971
▁ঠিক	-1972
্যাগ	-1973
▁দৈ	-1974
▁চ্যাম্পিয়ন	-1975
▁বোঝ	-1976
ীতি	-1977
▁মের	-1978
▁২৫	-1979
▁মানুষের	-1980
রাধ	-1981
▁নেন	-1982
▁আসে	-1983
▁২০১৩	-1984
কম	-1985
▁বস	-1986
▁করছে	-1987
▁পরিণ	-1988
▁আট	-1989
▁প্রতিষ্ঠান	-1990
▁ঘটনা	-1991
▁কোনও	-1992
▁সাই	-1993
▁খেলার	-1994
▁বান	-1995
▁বলেন	-1996
ষ্ঠান	-1997
▁বাল	-1998
▁রেলওয়ে	-1999
্দের	-2000
▁ইত্য	-2001
▁ম্যান	-2002
▁২০১২	-2003
▁২০১৯	-2004
াটি	-2005
স্ত্র	-2006
▁when	-2007
▁শিশু	-2008
▁জার্মান	-2009
▁বৃহত্ত	-2010
▁no	-2011
কটি	-2012
াস্থ	-2013
▁ফেল	-2014
▁গভ	-2015
দার্থ	-2016
্যাব	-2017
▁টেলিভ	-2018
▁পৃথিব	-2019
িগ	-2020
▁কাঠ	-2021
ষি	-2022
াত্ত	-2023
▁জানুযা়রি	-2024
▁তুলে	-2025
▁পরিচালক	-2026
দিষ্ট	-2027
▁দিতে	-2028
▁সামাজিক	-2029
▁২০১০	-2030
▁pl	-2031
▁৩০	-2032
▁সম্প্রদ	-2033
▁বংশ	-2034
▁সংর	-2035
▁প্রচার	-2036
▁ফল	-2037
ীরে	-2038
very	-2039
▁dis	-2040
▁দার	-2041
▁বর্ণনা	-2042
▁সংবাদ	-2043
▁which	-2044
▁ইয়	-2045
▁বেশিরভাগ	-2046
▁বৌ	-2047
▁ব্যবস্থ	-2048
▁২০১৫	-2049
ress	-2050
▁পরিবেশ	-2051
ুরী	-2052
▁চট্ট	-2053
▁বন্দ	-2054
মন্ত্রী	-2055
সী	-2056
বঙ্গ	-2057
▁সাক্ষর	-2058
▁বিশ্বের	-2059
ুপ্ত	-2060
right	-2061
▁২০১৬	-2062
এল	-2063
▁বিভাগে	-2064
▁চালু	-2065
রূপ	-2066
িহ্ন	-2067
েক্ষ	-2068
▁মিটার	-2069
▁মতে	-2070
▁বাজ	-2071
▁ইযা়	-2072
ংগ	-2073
স্থান	-2074
▁সংগ্রহ	-2075
▁সাম্রাজ	-2076
বিজ্ঞান	-2077
▁say	-2078
▁পুত্র	-2079
▁সামরিক	-2080
▁লেখক	-2081
▁শ্রেষ্ঠ	-2082
ther	-2083
▁টু	-2084
▁আপনি	-2085
▁অভিষেক	-2086
▁একাড	-2087
▁আনু	-2088
▁জায়	-2089
▁গবেষণা	-2090
তর	-2091
▁বয়সে	-2092
▁ক্রিকেটে	-2093
ানোর	-2094
▁ফ্ল	-2095
▁God	-2096
▁গল্প	-2097
িতি	-2098
▁পত্র	-2099
▁লী	-2100
▁বাড়	-2101
ep	-2102
reat	-2103
শ্রে	-2104
▁প্রতিষ্ঠা	-2105
▁সাহিত্য	-2106
▁মনোন	-2107
▁সিল	-2108
▁জো	-2109
▁যাতে	-2110
▁if	-2111
াস্ট	-2112
াতের	-2113
চিত্র	-2114
▁বাণিজ	-2115
স্টি	-2116
▁কিলোমিটার	-2117
▁ডান	-2118
▁ঐতিহ্য	-2119
▁রাজধান	-2120
ন্যাস	-2121
▁রেক	-2122
▁তাহ	-2123
▁সম্পূর্ণ	-2124
▁মাদ্রাস	-2125
▁ঈ	-2126
টেড	-2127
▁বিখ্যাত	-2128
▁কর্মক	-2129
▁কম্প	-2130
▁ভূমিকা	-2131
▁আলী	-2132
▁তত্ত্ব	-2133
▁এদের	-2134
▁বৌদ্ধ	-2135
are	-2136
ুটি	-2137
▁২০১৭	-2138
▁নিম্ন	-2139
ie	-2140
▁পদার্থ	-2141
ডেল	-2142
▁বিচার	-2143
▁যৌন	-2144
▁আকার	-2145
▁pr	-2146
ল্যান্ড	-2147
ction	-2148
▁কোর	-2149
▁সত্য	-2150
▁রহমান	-2151
▁ag	-2152
ুযা়র	-2153
ite	-2154
সুমে	-2155
ারি	-2156
▁সিদ্ধান্ত	-2157
ামের	-2158
▁কেউ	-2159
▁আফ্র	-2160
▁been	-2161
▁উন্নয়ন	-2162
১৯৯	-2163
ক্ষিত	-2164
ens	-2165
্যন্ত	-2166
▁সংঘ	-2167
ook	-2168
রত	-2169
ount	-2170
▁স্বাধীনতা	-2171
▁বহু	-2172
▁#	-2173
▁...	-2174
▁ভারতে	-2175
▁ব্যাপক	-2176
োলা	-2177
াজিত	-2178
▁ওয়েব	-2179
স্টার	-2180
▁ডিজ	-2181
াসি	-2182
িনের	-2183
▁প্রকল্প	-2184
▁কেবল	-2185
▁চী	-2186
▁বিরোধ	-2187
াহী	-2188
▁১৯১	-2189
▁হয়েছিলেন	-2190
র্তি	-2191
cc	-2192
▁পঞ্চ	-2193
ory	-2194
▁করলে	-2195
▁দৃ	-2196
▁শিব	-2197
▁পরিণত	-2198
▁লিখে	-2199
▁পরিমাণ	-2200
▁po	-2201
▁200	-2202
যুদ্ধ	-2203
জ্জ	-2204
াব্য	-2205
▁রাখা	-2206
▁হাজার	-2207
▁সাক্ষরতার	-2208
্ফ	-2209
্রেস	-2210
▁রাশ	-2211
▁So	-2212
▁শাখ	-2213
ার্থী	-2214
▁মৌসুমে	-2215
▁কিং	-2216
▁সীমান	-2217
▁স্থাপন	-2218
▁অতি	-2219
▁সক	-2220
▁চেষ্টা	-2221
দুল	-2222
▁এলাকায়	-2223
▁অ্যাস	-2224
▁ভাষার	-2225
▁দি	-2226
▁অত	-2227
▁লাল	-2228
▁দলে	-2229
▁শেখ	-2230
▁দর	-2231
▁চিহ্ন	-2232
য়েল	-2233
▁২০০৮	-2234
so	-2235
যোজ	-2236
▁আরে	-2237
▁বাস্ত	-2238
▁পাকিস্তানের	-2239
ান্দ	-2240
▁সমালো	-2241
▁তাম	-2242
▁বৃদ্ধি	-2243
▁সংস্করণ	-2244
▁সদর	-2245
▁মৃত্যু	-2246
▁সপ্ত	-2247
াযোগ	-2248
▁ধর্মীয়	-2249
▁ধ্ব	-2250
▁উপাদ	-2251
▁স্নাত	-2252
▁ভে	-2253
াবেক	-2254
▁থাকা	-2255
▁রেকর্ড	-2256
▁ধারণা	-2257
▁রাজনীতিবিদ	-2258
▁ভিত্তি	-2259
▁অভিনেত্রী	-2260
▁201	-2261
19	-2262
▁শীর্ষ	-2263
▁নদীর	-2264
▁তাপ	-2265
ারেল	-2266
▁ইংরেজ	-2267
▁চাই	-2268
▁শহরে	-2269
াহরণ	-2270
▁নিয়ন্ত্রণ	-2271
▁২১	-2272
▁সুযোগ	-2273
▁২০০৯	-2274
▁লেখা	-2275
্যাশনাল	-2276
▁বৈশিষ্ট	-2277
▁any	-2278
▁উদ্ব	-2279
ৃতির	-2280
own	-2281
▁বাবা	-2282
▁বিবাহ	-2283
বো	-2284
েম্ব	-2285
▁গ্রুপ	-2286
্যায়ে	-2287
▁সেনাবাহ	-2288
▁ড্র	-2289
ue	-2290
▁প্রযুক্ত	-2291
▁২৪	-2292
শিল্প	-2293
▁বর্গ	-2294
ile	-2295
▁ঐতিহাস	-2296
▁লাগ	-2297
াবার	-2298
▁শি	-2299
▁অন্তর্গত	-2300
▁ইত্যাদি	-2301
▁ev	-2302
▁ফ্রান্স	-2303
▁সময়ের	-2304
▁সহায়	-2305
▁চলচ্চিত্রের	-2306
▁ক্যা	-2307
▁কেন্দ্রীয়	-2308
্তন	-2309
▁বাহিনী	-2310
ath	-2311
▁শক্তি	-2312
▁ডাক	-2313
▁রাজধানী	-2314
শ্রেণ	-2315
তান	-2316
▁গ্ল	-2317
▁জমি	-2318
▁নেয়	-2319
ine	-2320
▁সক্ষম	-2321
গো	-2322
▁Lord	-2323
ুড	-2324
▁১৯০	-2325
িম্প	-2326
▁মৃত্যুর	-2327
▁প্রক্রিযা়	-2328
▁said	-2329
▁দূর	-2330
মেন্ট	-2331
ond	-2332
▁পড়	-2333
▁নিশ্চ	-2334
সুম	-2335
▁রায়	-2336
েপ	-2337
▁ষ	-2338
▁ধারাবাহ	-2339
og	-2340
▁like	-2341
ff	-2342
▁পথ	-2343
▁প্রতিনিধিত্ব	-2344
র্দ	-2345
▁প্রতির	-2346
▁পল	-2347
▁বাঁ	-2348
ip	-2349
iz	-2350
▁ইবনে	-2351
te	-2352
্লিউ	-2353
াপন	-2354
খল	-2355
েনে	-2356
ib	-2357
▁বাণিজ্য	-2358
▁ক্ষমতা	-2359
▁শৈ	-2360
ল্ড	-2361
▁আসন	-2362
▁মেয়ে	-2363
ভাষ	-2364
▁বন	-2365
▁লক্ষ্য	-2366
াংশ	-2367
▁সুল	-2368
▁নির্বাচনে	-2369
▁নিরাপ	-2370
িজ্ঞ	-2371
▁২০০১	-2372
▁সাহায্য	-2373
▁থাকেন	-2374
ade	-2375
▁ar	-2376
▁তৎ	-2377
▁right	-2378
প্রাপ্ত	-2379
ime	-2380
খ্যার	-2381
%।	-2382
▁স্বীক	-2383
▁বসব	-2384
▁প্রস্তাব	-2385
▁সম্মান	-2386
র্ষণ	-2387
োষ	-2388
ভর	-2389
▁সম্পর্কিত	-2390
▁যুক্তরাষ্ট্রের	-2391
be	-2392
▁আমাকে	-2393
ক্ষেপ	-2394
▁am	-2395
▁উদাহরণ	-2396
স্যা	-2397
▁টেলিভিশন	-2398
▁নির্দিষ্ট	-2399
▁মাঝে	-2400
র্য	-2401
নো	-2402
▁প্রমাণ	-2403
ৌশল	-2404
গে	-2405
▁পদ্ধতি	-2406
েন্ড	-2407
▁প্রাপ্ত	-2408
▁হাত	-2409
াইম	-2410
িয়েত	-2411
▁দ্রুত	-2412
ass	-2413
▁পশ্চিমবঙ্গ	-2414
াপতি	-2415
▁আমেরিকান	-2416
িক্ত	-2417
▁বিপর	-2418
ish	-2419
▁সংযুক্ত	-2420
পরি	-2421
▁বিত	-2422
▁জে	-2423
▁শতাব্দীর	-2424
▁Un	-2425
▁জ্ঞ	-2426
ব্র	-2427
▁চৌধ	-2428
▁অভিনেতা	-2429
▁খাদ	-2430
লিত	-2431
▁প্রেস	-2432
▁রাস্ত	-2433
ال	-2434
ally	-2435
▁পত	-2436
▁পৌর	-2437
কর্ম	-2438
▁প্রতিটি	-2439
কাপ	-2440
▁আসেন	-2441
here	-2442
▁বায়	-2443
▁স্ত্রী	-2444
▁সাত	-2445
▁হত্যা	-2446
।"	-2447
▁শান্ত	-2448
▁=	-2449
▁যোগাযোগ	-2450
▁গৃহ	-2451
▁নাগরিক	-2452
শিপ	-2453
▁ছয়	-2454
▁ছেলে	-2455
▁হয়নি	-2456
▁করছেন	-2457
ign	-2458
▁খেলা	-2459
▁প্রদর্শন	-2460
▁নেপ	-2461
ical	-2462
oll	-2463
▁নির্বাচন	-2464
▁মিড	-2465
▁Ind	-2466
▁২০২০	-2467
▁বলতে	-2468
▁দেখে	-2469
▁প্রাক্তন	-2470
পত্র	-2471
ase	-2472
েক্ট	-2473
শ্র	-2474
▁মিলিয়ন	-2475
▁ত্রি	-2476
act	-2477
▁হাতে	-2478
▁কার্যক্রম	-2479
▁সফল	-2480
ili	-2481
▁চরিত্র	-2482
▁un	-2483
ইউ	-2484
▁যুদ্ধের	-2485
▁ছিলো	-2486
পু	-2487
▁উপন্যাস	-2488
ire	-2489
▁সাবেক	-2490
▁রাষ্ট্রপতি	-2491
▁পুনরায়	-2492
বায়	-2493
▁আবিষ্ক	-2494
পক্ষ	-2495
িরা	-2496
▁No	-2497
▁একমাত্র	-2498
"।	-2499
▁ভাবে	-2500
িকায়	-2501
▁প্রশিক্ষ	-2502
▁২০০৬	-2503
মু	-2504
▁দেখতে	-2505
▁বস্ত	-2506
▁নক	-2507
▁২২	-2508
▁রঙ	-2509
).	-2510
▁পর্যায়ে	-2511
ice	-2512
বির	-2513
▁রচনা	-2514
▁চট্টগ্রাম	-2515
ru	-2516
ড়িত	-2517
▁চতু	-2518
▁২৩	-2519
▁some	-2520
ph	-2521
▁te	-2522
ফার	-2523
▁শর	-2524
▁স্থানে	-2525
বের	-2526
▁পরিবারের	-2527
▁ইংল্যান্ড	-2528
▁২০০৭	-2529
▁উঠে	-2530
▁নিকট	-2531
ানী	-2532
েমন	-2533
ীডা়	-2534
▁ইত	-2535
▁স্বাস্থ	-2536
▁ইংরেজি	-2537
▁একক	-2538
▁ভিন্ন	-2539
▁০	-2540
▁শার	-2541
েন্টি	-2542
▁But	-2543
▁her	-2544
মশ	-2545
▁would	-2546
▁নর	-2547
▁অ্যাক	-2548
ence	-2549
▁belie	-2550
▁দেশে	-2551
▁বসবাস	-2552
রণের	-2553
we	-2554
▁পৌঁ	-2555
▁অগ্র	-2556
▁পূর্ণ	-2557
▁অধ্যাপ	-2558
তন্ত্র	-2559
▁নৌ	-2560
▁পরিকল্পনা	-2561
ুমাত্র	-2562
▁নামের	-2563
▁যাত্র	-2564
▁ঐতিহাসিক	-2565
▁ঘর	-2566
▁সারা	-2567
▁3	-2568
▁সাব	-2569
▁মৌসুম	-2570
▁সিস্ট	-2571
▁had	-2572
▁উইকেট	-2573
",	-2574
▁দাবি	-2575
▁দাঁ	-2576
▁অপর	-2577
▁বিজয়ী	-2578
ঙ্	-2579
ance	-2580
▁পের	-2581
▁সমর্থন	-2582
▁ভালো	-2583
▁শ্রী	-2584
▁They	-2585
▁সুবি	-2586
▁পাব	-2587
▁বিব	-2588
▁পরাজিত	-2589
▁বিশ্বকাপ	-2590
হের	-2591
েমি	-2592
▁১৮৯	-2593
বেদন	-2594
ায়ে	-2595
র্ধ্ব	-2596
▁গবেষণ	-2597
▁জিন	-2598
▁নিউজ	-2599
বিক	-2600
সময়	-2601
▁বিশিষ্ট	-2602
টো	-2603
াপুর	-2604
▁ভবন	-2605
▁কংগ	-2606
য়র	-2607
▁উপাদান	-2608
▁get	-2609
▁জুড়ে	-2610
িতায়	-2611
েশনের	-2612
▁কোম্পানি	-2613
ঙ্গল	-2614
▁সমস্যা	-2615
▁did	-2616
শ্রেণীর	-2617
িডিও	-2618
▁অধিক	-2619
fter	-2620
▁ব্যবস	-2621
স্বর	-2622
্বিক	-2623
▁অনুর	-2624
▁ডিগ্রি	-2625
ত্রে	-2626
▁প্রযোজ	-2627
▁see	-2628
▁গার	-2629
কেল	-2630
▁ক্রিকেটার	-2631
urn	-2632
▁ক্যাল	-2633
▁গড়	-2634
▁জাহাজ	-2635
▁বাইরে	-2636
খিত	-2637
▁This	-2638
▁তারপর	-2639
▁রেড	-2640
▁অভিযোগ	-2641
ings	-2642
▁তাহলে	-2643
▁বৈশিষ্ট্য	-2644
ামে	-2645
ধি	-2646
ty	-2647
▁other	-2648
orm	-2649
ated	-2650
▁জন্যে	-2651
▁ঋ	-2652
▁ব্যক্তিগত	-2653
▁মুহাম্মদ	-2654
▁শিক্ষক	-2655
▁হলেও	-2656
▁প্রত্য	-2657
rit	-2658
▁ম্যাক	-2659
aw	-2660
▁শুধুমাত্র	-2661
খ্যান	-2662
▁বিয়ে	-2663
▁তে	-2664
▁দৃষ্টি	-2665
▁থেকেই	-2666
পা	-2667
১৭	-2668
other	-2669
▁খ্রিস্টাব্দে	-2670
▁here	-2671
ations	-2672
গুলিকে	-2673
ink	-2674
ণ্ডিত	-2675
▁বুঝ	-2676
▁নং	-2677
বাদী	-2678
ষ্য	-2679
▁Is	-2680
েলা	-2681
▁মূ	-2682
▁কলকাতা	-2683
▁যুদ্ধে	-2684
▁সমুদ্র	-2685
▁দশকে	-2686
▁উইল	-2687
এইচ	-2688
▁সেল	-2689
▁just	-2690
▁সহযোগ	-2691
▁অনুষ্ঠান	-2692
▁ক্রীডা়	-2693
▁নিযুক্ত	-2694
▁উপজেলা	-2695
▁বিদ্য	-2696
বরাহ	-2697
▁অবস্থায়	-2698
১৯৮	-2699
▁গেম	-2700
বাস	-2701
▁দিব	-2702
▁জানা	-2703
বারের	-2704
▁রস	-2705
▁শতা	-2706
্যান্ট	-2707
১০	-2708
▁নেট	-2709
▁আফগান	-2710
▁ভিডিও	-2711
িযা়স	-2712
▁এড	-2713
▁সম্পন্ন	-2714
োঁ	-2715
▁চ্যান	-2716
▁বৃহত্তম	-2717
▁মাম	-2718
▁@	-2719
নীত	-2720
▁ম্যাচ	-2721
▁সিস্টেম	-2722
▁ব্যাংক	-2723
▁ত্র	-2724
▁then	-2725
▁ব্যাট	-2726
▁Re	-2727
মেদ	-2728
ন্টি	-2729
▁২৬	-2730
▁গু	-2731
ong	-2732
▁কখনও	-2733
▁মডেল	-2734
িত্তিক	-2735
োপাধ্য	-2736
▁বিমানব	-2737
▁চারটি	-2738
▁তৎকালীন	-2739
▁our	-2740
▁অভিয	-2741
▁যাবে	-2742
▁ইন্দ	-2743
ায়িত	-2744
ণ্য	-2745
ম্ভ	-2746
▁Sh	-2747
াত্মক	-2748
৫০	-2749
▁কবি	-2750
লেক	-2751
▁shall	-2752
ক্ল	-2753
▁রি	-2754
▁কঠ	-2755
খা	-2756
ফি	-2757
▁পিতা	-2758
ন্দ্ব	-2759
▁সুই	-2760
▁জি	-2761
▁অনূ	-2762
ect	-2763
▁জীবনের	-2764
▁রাস	-2765
▁gu	-2766
স্টিটি	-2767
▁চৌধুরী	-2768
▁দিল্ল	-2769
▁আবদুল	-2770
▁কাজের	-2771
▁রক্ত	-2772
জর	-2773
sel	-2774
▁ইম	-2775
িনে	-2776
▁মহাস	-2777
▁স্বাস্থ্য	-2778
▁পাহ	-2779
সিং	-2780
▁যাওযা়	-2781
▁—	-2782
ীকার	-2783
▁সুপার	-2784
কু	-2785
ult	-2786
বাহিত	-2787
▁কর্মকর্ত	-2788
▁উপস্থিত	-2789
▁আলাদা	-2790
▁লন্ড	-2791
▁সরবরাহ	-2792
▁বাড়ি	-2793
▁অর্থনৈতিক	-2794
▁im	-2795
ড়ক	-2796
▁তেল	-2797
▁কাহ	-2798
ঘাত	-2799
াইজ	-2800
▁অত্য	-2801
▁নিশ্চিত	-2802
▁যাওযা়র	-2803
▁হাসপাত	-2804
ত্তা	-2805
▁রোমান	-2806
▁ডেভ	-2807
▁উৎপাদন	-2808
▁অপরাধ	-2809
▁What	-2810
▁আব্দ	-2811
চি	-2812
▁সন্তান	-2813
▁ইনস্টিটি	-2814
▁অবশ্য	-2815
▁পরীক্ষ	-2816
▁কথ	-2817
tern	-2818
ত্তি	-2819
▁মহাক	-2820
▁don	-2821
▁সান	-2822
ial	-2823
▁ভূমিক	-2824
ach	-2825
গু	-2826
▁পেশাদার	-2827
িলের	-2828
ree	-2829
▁দখল	-2830
▁যেটি	-2831
▁টেস্টে	-2832
fore	-2833
▁পৃষ্ঠ	-2834
▁নির্ভর	-2835
িলা	-2836
ave	-2837
▁মাহ	-2838
▁ঘন	-2839
▁বাত	-2840
to	-2841
▁বন্ধু	-2842
ric	-2843
▁আপনার	-2844
▁day	-2845
▁খেলে	-2846
▁উপরে	-2847
▁দেওযা়র	-2848
▁সংশ	-2849
▁ইনি	-2850
▁২৭	-2851
ডা়ই	-2852
▁চিন্ত	-2853
্যো	-2854
▁মোহাম্মদ	-2855
িপ্ত	-2856
▁অলিম্প	-2857
▁প্রযুক্তি	-2858
দ্দিন	-2859
▁গ্রী	-2860
▁শুধু	-2861
per	-2862
াগত	-2863
দ্দ	-2864
▁২০২১	-2865
▁হোস	-2866
▁নামকরণ	-2867
▁আন্দোলন	-2868
▁২৮	-2869
▁নগর	-2870
সিক	-2871
▁কণ	-2872
▁গাছ	-2873
▁সংস্থ	-2874
▁পাখ	-2875
▁দশকের	-2876
▁প্রভ	-2877
▁ইউনিভার	-2878
▁গোপ	-2879
িসের	-2880
বাদিক	-2881
▁ধ্বংস	-2882
ক্য	-2883
বু	-2884
োর্ড	-2885
▁২০০৫	-2886
েত্র	-2887
▁চিহ্নিত	-2888
▁বিভক্ত	-2889
▁ধারাবাহিক	-2890
▁রচিত	-2891
ওযা়র্ড	-2892
োটি	-2893
▁প্রশাসনিক	-2894
▁করত	-2895
ling	-2896
▁জড়িত	-2897
যা়ন	-2898
▁বাজার	-2899
▁কুর	-2900
▁অধ্যাপক	-2901
▁বর্ষ	-2902
▁খুঁ	-2903
lic	-2904
▁কম্পিউ	-2905
▁চাক	-2906
িক্স	-2907
▁বোর্ড	-2908
▁জেলায়	-2909
র্ভ	-2910
াস্ত্র	-2911
্যায়	-2912
way	-2913
▁ভ্রম	-2914
▁off	-2915
▁over	-2916
▁ফুল	-2917
▁২০০০	-2918
চক	-2919
▁again	-2920
▁মনো	-2921
▁এফ	-2922
▁উপক	-2923
▁ফেলে	-2924
মহ	-2925
▁সাংবাদিক	-2926
ারী	-2927
▁দিয়েছিলেন	-2928
▁থাকতে	-2929
▁বিস্তৃত	-2930
▁নেতা	-2931
মূলক	-2932
▁কৃষ্ণ	-2933
স্বরূপ	-2934
হীন	-2935
▁আও	-2936
ধ্যে	-2937
▁মেড	-2938
▁new	-2939
সাধ	-2940
▁want	-2941
▁more	-2942
োদ্ধ	-2943
▁উৎসব	-2944
্নে	-2945
▁উদ্ভ	-2946
▁শাসন	-2947
লাভ	-2948
▁ম্যাচে	-2949
▁নীতি	-2950
▁(19	-2951
▁চাপ	-2952
ful	-2953
▁As	-2954
▁আহমেদ	-2955
▁শিকার	-2956
▁নারীদের	-2957
▁মাদ্রাসা	-2958
▁An	-2959
ition	-2960
লেন	-2961
ক্ক	-2962
১৫	-2963
▁বিপ্ল	-2964
াত্ত্বিক	-2965
ডা়র	-2966
▁ال	-2967
▁only	-2968
▁প্রত্যা	-2969
▁কান	-2970
▁রিপ	-2971
▁২০০৪	-2972
▁উত	-2973
শের	-2974
▁অঙ্গ	-2975
▁bec	-2976
উন	-2977
▁en	-2978
nder	-2979
ren	-2980
ise	-2981
১৯৭	-2982
▁than	-2983
▁বয়স	-2984
ভিত্তিক	-2985
ান্তরিত	-2986
িকাংশ	-2987
port	-2988
▁প্রয়োগ	-2989
▁প্রতিক	-2990
▁সক্রিয়	-2991
্টা	-2992
▁বীর	-2993
▁Al	-2994
ks	-2995
▁বিদ্র	-2996
▁বুদ্ধ	-2997
োতে	-2998
▁বিজ্ঞ	-2999
▁গ্রামে	-3000
▁]	-3001
▁চেযা়র	-3002
নিবেশ	-3003
থি	-3004
▁একাধিক	-3005
াদু	-3006
▁সহায়তা	-3007
▁জেনারেল	-3008
▁আর্থ	-3009
▁ব্যাখ্যা	-3010
▁হ্যা	-3011
▁res	-3012
▁শ্রীল	-3013
▁বাঙ	-3014
▁শতকের	-3015
▁দেবী	-3016
hed	-3017
▁ওপর	-3018
▁শব্দটি	-3019
▁শতাংশ	-3020
ail	-3021
▁ওয়েস্ট	-3022
▁নিজস্ব	-3023
▁চো	-3024
▁কোর্	-3025
▁ফরাসি	-3026
াগর	-3027
▁অধিকাংশ	-3028
হিত	-3029
শাল	-3030
▁time	-3031
▁৫০	-3032
শোর	-3033
১৬	-3034
▁ear	-3035
বণ	-3036
াণ্ড	-3037
কৃত	-3038
▁অনূর্ধ্ব	-3039
▁বিনি	-3040
▁স্নাতক	-3041
▁অনুবাদ	-3042
▁জগ	-3043
▁আবু	-3044
লেও	-3045
▁লাহ	-3046
▁নিবন্ধ	-3047
▁এটিকে	-3048
েরি	-3049
▁ইঞ্জ	-3050
▁দুর্গ	-3051
▁সম্পাদক	-3052
▁তামিল	-3053
▁কানা	-3054
▁জৈ	-3055
▁ওয়েবস	-3056
▁প্রচলিত	-3057
▁১০০	-3058
▁২৯	-3059
▁ফিল্ম	-3060
▁ওঠে	-3061
mer	-3062
ায়ণ	-3063
eth	-3064
াসরি	-3065
▁১৮৮	-3066
▁সূত্র	-3067
▁খ্রিষ্টাব্দে	-3068
▁good	-3069
▁মূল্য	-3070
ত্তর	-3071
শ্বর	-3072
▁চলচ্চিত্রটি	-3073
▁দর্শ	-3074
▁চতুর্থ	-3075
▁Se	-3076
▁পানি	-3077
▁ইস	-3078
▁বিদেশ	-3079
▁মুসলমান	-3080
▁ইউরোপীয়	-3081
▁part	-3082
ালয়	-3083
▁ক্ষেত্র	-3084
▁ad	-3085
১২	-3086
▁পৃথক	-3087
▁সিটি	-3088
পশ্চিম	-3089
ানার	-3090
▁নীল	-3091
াসন	-3092
▁অ্যাড	-3093
▁খাদ্য	-3094
াব্দের	-3095
্রেড	-3096
▁চুক্তি	-3097
▁কম্পিউটার	-3098
▁/	-3099
▁মিনি	-3100
▁নিতে	-3101
▁come	-3102
▁তুলনায়	-3103
জনের	-3104
▁প্রদেশের	-3105
াশে	-3106
▁জর্জ	-3107
▁পরিষদ	-3108
▁অসম	-3109
ান্ত্রিক	-3110
▁প্রেম	-3111
াক্ত	-3112
▁অভ্যন্ত	-3113
▁যন্ত্র	-3114
):	-3115
দন্ত	-3116
▁পণ্ডিত	-3117
বাহী	-3118
▁এন্ড	-3119
▁কাউন্স	-3120
ূডা়	-3121
▁১৯৭১	-3122
কোন	-3123
▁বাম	-3124
▁পডা়শ	-3125
োপাধ্যায়	-3126
▁কাজে	-3127
ষ্ঠী	-3128
মির	-3129
▁হাল	-3130
▁প্রোগ্র	-3131
গ্ন	-3132
▁back	-3133
ন্ধান	-3134
▁বঙ্গ	-3135
্প্র	-3136
ause	-3137
▁মাধ্যমিক	-3138
▁খেলেন	-3139
ন্ব	-3140
ুতে	-3141
দিনের	-3142
▁বিদ্রোহ	-3143
▁অর্থাৎ	-3144
▁সরাসরি	-3145
ওযা়র্ক	-3146
oc	-3147
▁উদ্দেশ্যে	-3148
▁হে	-3149
▁পার্শ্ব	-3150
স্কৃতিক	-3151
ved	-3152
▁পরীক্ষা	-3153
▁মিউ	-3154
▁সংগঠন	-3155
ild	-3156
চন্দ্র	-3157
▁বিবেচনা	-3158
▁লাইন	-3159
▁ঔ	-3160
▁নিজেদের	-3161
ানির	-3162
▁ছেড়ে	-3163
াশের	-3164
▁প্রায়শ	-3165
ীদ	-3166
োফ	-3167
▁মিস	-3168
▁হতো	-3169
▁বদ	-3170
▁down	-3171
▁অস্ট্রেলিযা়	-3172
▁cont	-3173
▁শ্রীলঙ্ক	-3174
▁থাকার	-3175
▁সর্বাধিক	-3176
েকে	-3177
▁করো	-3178
পরে	-3179
▁কুমার	-3180
▁অত্যন্ত	-3181
▁ভোট	-3182
▁আনুষ্ঠান	-3183
হর	-3184
▁প্রস	-3185
থায়	-3186
▁যুব	-3187
▁প্রধানমন্ত্রী	-3188
ম্ম	-3189
▁পার্টি	-3190
▁Ar	-3191
▁১৯৯০	-3192
াং	-3193
ves	-3194
▁পার্থ	-3195
▁প্যার	-3196
▁গ্রীষ্	-3197
▁sp	-3198
▁কখনো	-3199
▁ওযা়র্	-3200
দ্য	-3201
▁এযা়র	-3202
▁অর	-3203
টাই	-3204
▁২০০৩	-3205
▁নিজেকে	-3206
uth	-3207
▁কাশ	-3208
ান্ড	-3209
শিল্পী	-3210
▁পারি	-3211
▁চূডা়	-3212
সমান	-3213
াঞ্চ	-3214
▁(;	-3215
▁টার	-3216
▁চ্যানেল	-3217
িন্স	-3218
ational	-3219
▁নেওযা়	-3220
▁ভাব	-3221
ভূমি	-3222
▁বাধ্য	-3223
▁now	-3224
▁জনসংখ্যার	-3225
▁বলেছেন	-3226
হা	-3227
▁যত	-3228
্ণ	-3229
মশুমার	-3230
▁বোলিং	-3231
ামূলক	-3232
na	-3233
ঙ্গা	-3234
▁রোড	-3235
wo	-3236
লাইন	-3237
▁সম্ভবত	-3238
▁এসেছে	-3239
▁মালিক	-3240
▁অ্যাপ	-3241
▁সমন্ব	-3242
নীয়	-3243
▁কর্প	-3244
▁blog	-3245
▁আদমশুমার	-3246
লো	-3247
▁প্রতীক	-3248
ার্স	-3249
old	-3250
▁দক্ষিণে	-3251
▁সপ্তাহ	-3252
▁জ্ঞান	-3253
ুতি	-3254
▁প্রাকৃতিক	-3255
▁অস্ত্র	-3256
িলে	-3257
ামো	-3258
▁মনোনীত	-3259
able	-3260
ূর	-3261
▁বিদ্যমান	-3262
▁টাকা	-3263
▁এমনকি	-3264
্যাপী	-3265
▁প্রশিক্ষণ	-3266
▁comp	-3267
▁সংরক্ষণ	-3268
চর	-3269
্জন	-3270
▁মাছ	-3271
ivers	-3272
▁ম্যাগ	-3273
▁ব্যর্থ	-3274
টস	-3275
ons	-3276
ily	-3277
াবিদ	-3278
▁বাংলাদেশে	-3279
▁টুই	-3280
বার্ট	-3281
িশালী	-3282
▁আলোচনা	-3283
▁এটির	-3284
▁নিয়োগ	-3285
▁নাটক	-3286
▁bet	-3287
▁সাংস্কৃতিক	-3288
হ্ম	-3289
▁পরাম	-3290
▁জীবনে	-3291
▁সমগ্র	-3292
মাস	-3293
মী	-3294
▁তোমাকে	-3295
▁সভাপতি	-3296
্যান্স	-3297
▁ময়	-3298
▁এইচ	-3299
্টিক	-3300
▁এলাকার	-3301
▁That	-3302
▁প্রণ	-3303
▁need	-3304
্না	-3305
▁প্রথমে	-3306
▁বিদ্যাল	-3307
▁যাদের	-3308
ডার	-3309
▁প্রস্তুত	-3310
▁spe	-3311
রির	-3312
▁নিউজিল	-3313
▁শো	-3314
▁every	-3315
▁সোভ	-3316
▁আফ্রিক	-3317
▁পছ	-3318
▁দর্শন	-3319
উল	-3320
রূপে	-3321
▁comm	-3322
az	-3323
▁কর্তৃপক্ষ	-3324
▁২০২২	-3325
াঙ্ক	-3326
▁সম্প্রদায়ের	-3327
যুদ্ধের	-3328
গুলোতে	-3329
িলি	-3330
▁(2	-3331
য়্যার	-3332
▁প্রতিযোগিতা	-3333
▁কৃত	-3334
ীকরণ	-3335
▁গৌ	-3336
▁অনুমতি	-3337
জ্ঞানিক	-3338
েম্বরে	-3339
াউন	-3340
▁বাংলাদেশী	-3341
▁রং	-3342
▁after	-3343
▁আয়োজন	-3344
▁কমান	-3345
১৩	-3346
হু	-3347
াউন্ড	-3348
▁ইঞ্জিন	-3349
ৃদ্ধ	-3350
▁পদক	-3351
▁চন্দ্র	-3352
▁করি	-3353
াস্ক	-3354
▁br	-3355
▁কৃষ	-3356
১৯৬	-3357
োধন	-3358
১৪	-3359
▁২০০২	-3360
ষ্ট্রে	-3361
▁প্রতিষ্ঠাতা	-3362
▁মহিলাদের	-3363
▁পৃথিবীর	-3364
ধর	-3365
▁ক্ষতি	-3366
▁অক্স	-3367
▁বিমানবন্দর	-3368
▁সৈন্য	-3369
▁মন্ত্রণ	-3370
▁পাথ	-3371
▁কোষ	-3372
▁হ্রাস	-3373
▁বোম	-3374
্ষিক	-3375
ুয়ে	-3376
াগার	-3377
▁দান	-3378
▁how	-3379
ধানে	-3380
রাস	-3381
ound	-3382
▁পার্ক	-3383
▁বছরে	-3384
▁শক্তিশালী	-3385
▁সফর	-3386
▁সিংহ	-3387
▁may	-3388
নেট	-3389
াকি	-3390
বার্গ	-3391
▁If	-3392
▁দেহ	-3393
▁জাতি	-3394
াগুলি	-3395
▁শীত	-3396
▁year	-3397
▁De	-3398
▁ইউনিভার্সি	-3399
▁সাম্রাজ্যের	-3400
▁চ্যাম্পিয়নশিপ	-3401
▁ক্যার	-3402
▁জানুযা়র	-3403
য়েড	-3404
যুগ	-3405
্যোগ	-3406
াচার	-3407
▁প্লে	-3408
▁উঠ	-3409
▁উত্তরে	-3410
▁আহম	-3411
▁বিস	-3412
ions	-3413
▁মিন	-3414
form	-3415
দানের	-3416
▁চেযা়রম্যান	-3417
▁সার্ভ	-3418
▁গতি	-3419
ঘর	-3420
▁সুলতান	-3421
▁এখনও	-3422
▁ছড়িয়ে	-3423
সাধারণ	-3424
▁rem	-3425
▁স্টেড	-3426
▁চক্র	-3427
▁প্রায়শই	-3428
▁অর্ধ	-3429
ুরা	-3430
▁পরামর্শ	-3431
গোল	-3432
▁লিখেছেন	-3433
ভে	-3434
াহিত	-3435
▁জিতে	-3436
▁যুক্তরাজ	-3437
▁যাই	-3438
উই	-3439
▁পাঞ্জ	-3440
▁প্রেসিড	-3441
▁এরা	-3442
বিধান	-3443
▁অতির	-3444
▁১৯৯৬	-3445
াধিকার	-3446
▁পুরো	-3447
▁আদাল	-3448
▁মুদ্র	-3449
উন্ড	-3450
েতু	-3451
▁বিশাল	-3452
▁অস্ব	-3453
▁উপল	-3454
iss	-3455
▁অম	-3456
▁ফলা	-3457
▁ন্যাশনাল	-3458
দেব	-3459
▁প্রতিযোগিতায়	-3460
▁ইসলামী	-3461
▁বক্ত	-3462
▁চাঁ	-3463
▁হিম	-3464
▁অনুমোদ	-3465
▁সোভিয়েত	-3466
্রাট	-3467
▁His	-3468
▁উচিত	-3469
▁My	-3470
কারীদের	-3471
▁ইয়র্ক	-3472
▁ফেড	-3473
▁বাস্তব	-3474
▁পাকিস্তানি	-3475
▁পরিষে	-3476
▁বিতর্ক	-3477
▁টেক	-3478
▁হক	-3479
▁পরিবর্তে	-3480
ুকে	-3481
াভাব	-3482
▁নিচে	-3483
্যুৎ	-3484
▁গত	-3485
int	-3486
▁নেটওযা়র্ক	-3487
▁ইনস্টিটিউট	-3488
ষিত	-3489
▁আমির	-3490
▁should	-3491
▁বাঙালি	-3492
▁সংস্কৃতি	-3493
▁ফের	-3494
▁স্বাক্ষ	-3495
▁দূরে	-3496
▁rec	-3497
োসিয়ে	-3498
▁প্রান্ত	-3499
▁qu	-3500
ময়	-3501
▁নিয়মিত	-3502
▁সৃ	-3503
্যাঙ্ক	-3504
▁মাইল	-3505
▁Ph	-3506
▁সীমান্ত	-3507
▁শেষে	-3508
▁আব্দুল	-3509
▁লা	-3510
▁দাব	-3511
▁before	-3512
ran	-3513
▁অধ্যয়ন	-3514
▁তাপমাত্র	-3515
▁ক্রম	-3516
▁পরবর্তীকালে	-3517
▁কুম	-3518
পদ	-3519
▁খাবার	-3520
▁4	-3521
▁পদে	-3522
▁অনুসরণ	-3523
▁পণ্য	-3524
▁পরিবহ	-3525
▁গ্যাস	-3526
ft	-3527
▁১৯৮০	-3528
▁ind	-3529
▁সাদা	-3530
▁গুণ	-3531
▁উদ্দেশ্য	-3532
াজা	-3533
ঙ্গে	-3534
▁রাখে	-3535
্যাত	-3536
▁ওয়েবসাইট	-3537
ুরে	-3538
▁অবদান	-3539
▁সবাই	-3540
রো	-3541
▁একাডেমি	-3542
▁&	-3543
াচ্	-3544
ব্যাপী	-3545
▁পুরুষদের	-3546
ob	-3547
ict	-3548
িস্থ	-3549
▁১৯৯৯	-3550
কাশ	-3551
হেতু	-3552
▁des	-3553
▁সামনে	-3554
▁বিশ্ববিদ্যালয়ে	-3555
াইপ	-3556
▁সংখ্য	-3557
▁নেতৃত্বে	-3558
টু	-3559
▁way	-3560
▁সংযোগ	-3561
▁নৃত্য	-3562
৩০	-3563
▁দিয়েছে	-3564
শেষে	-3565
▁সংস্কৃত	-3566
▁অংশে	-3567
▁ইংল্যান্ডের	-3568
▁অতিরিক্ত	-3569
▁আফগানিস্ত	-3570
▁বাহিনীর	-3571
▁প্রকৃত	-3572
eed	-3573
টেন	-3574
▁পরের	-3575
াবল	-3576
▁Pro	-3577
▁ধীরে	-3578
▁she	-3579
ward	-3580
▁ভ্রমণ	-3581
▁মিশ্র	-3582
ove	-3583
man	-3584
▁কন্যা	-3585
▁আইস	-3586
vi	-3587
িসং	-3588
ারেশন	-3589
▁পক্ষ	-3590
oh	-3591
▁যোগদান	-3592
▁ফিফ	-3593
▁per	-3594
▁দৃশ্য	-3595
▁হোসেন	-3596
▁আন্দোলনের	-3597
বিষ্য	-3598
ত্ত্বেও	-3599
তল	-3600
▁ট্রেন	-3601
▁নামেও	-3602
জান	-3603
ন্দে	-3604
▁পশ্চিমে	-3605
▁also	-3606
▁বজ	-3607
▁গভীর	-3608
রম	-3609
িকের	-3610
▁জোর	-3611
নাট	-3612
দ্বীপ	-3613
▁সঠ	-3614
▁লডা়ই	-3615
▁আরেকটি	-3616
াধি	-3617
▁চিকিৎসা	-3618
▁স্বামী	-3619
▁ইন্ডিযা়	-3620
পাল	-3621
irst	-3622
▁সংজ্ঞ	-3623
▁চিকিৎস	-3624
াপ্র	-3625
▁ভুল	-3626
ick	-3627
▁শাখা	-3628
▁তৈরী	-3629
চন	-3630
িংস	-3631
নং	-3632
▁New	-3633
▁জানিয়ে	-3634
▁দৈর্ঘ	-3635
▁সিনেম	-3636
▁হেল	-3637
▁১৯৭০	-3638
সভার	-3639
▁ধরা	-3640
▁সংগীত	-3641
ীকে	-3642
লস	-3643
তাবাদ	-3644
▁একাডেম	-3645
▁সমান	-3646
্নি	-3647
▁স্ল	-3648
▁সরকারী	-3649
ুরের	-3650
▁মর্য	-3651
ঞ্চলিক	-3652
▁পার্টির	-3653
▁ইতাল	-3654
দ্বন্দ্ব	-3655
ents	-3656
▁নম	-3657
▁মন্ত্র	-3658
▁সেনাবাহিনী	-3659
▁হাজ	-3660
▁১৮৭	-3661
▁ভবিষ্য	-3662
▁ওযা়র্ড	-3663
শাক	-3664
ল্ল	-3665
▁কমিশন	-3666
ors	-3667
াদী	-3668
▁স্থায়ী	-3669
rie	-3670
▁নির্ধারণ	-3671
▁Com	-3672
▁করুন	-3673
▁think	-3674
▁পরিচয়	-3675
▁তুর্ক	-3676
▁পর্যবে	-3677
্ঠ	-3678
সান	-3679
▁world	-3680
াসে	-3681
▁হাউ	-3682
্লেষণ	-3683
▁call	-3684
াকাল	-3685
তিক্রম	-3686
▁into	-3687
▁১৯৯১	-3688
▁ব্যাপারে	-3689
▁সংস্কার	-3690
আন	-3691
▁নিহত	-3692
▁রাজবং	-3693
▁উক্ত	-3694
▁পোস্ট	-3695
▁স্বীকৃতি	-3696
ীরের	-3697
round	-3698
▁got	-3699
মত	-3700
্কে	-3701
▁মিশর	-3702
েলের	-3703
দর্শন	-3704
▁সৌদি	-3705
▁সম্রাট	-3706
ফে	-3707
▁অবসর	-3708
xt	-3709
ning	-3710
▁প্রতিরোধ	-3711
▁সম্প্রদায়	-3712
▁বিরোধী	-3713
▁%	-3714
▁প্রচে	-3715
ঠি	-3716
▁রু	-3717
▁সাধ	-3718
▁কৃষি	-3719
য়েন্ট	-3720
েনীয়	-3721
▁count	-3722
▁বাগ	-3723
oy	-3724
▁এসব	-3725
াদশ	-3726
▁পাত	-3727
▁its	-3728
▁প্রয়োজনীয়	-3729
▁চূডা়ন্ত	-3730
▁ব্রহ্ম	-3731
▁শিল্পী	-3732
▁thou	-3733
▁app	-3734
সম্যান	-3735
ark	-3736
▁আচ	-3737
▁অবস্থা	-3738
▁লিগ	-3739
▁আয়তন	-3740
োগ্রাফ	-3741
ater	-3742
▁বেগ	-3743
▁অভিনয়ের	-3744
য়িক	-3745
▁বিষয়ক	-3746
▁আবিষ্কার	-3747
▁৪০	-3748
▁দুইটি	-3749
▁জ্যো	-3750
▁শিক্ষার	-3751
▁অধিন	-3752
▁জমিদার	-3753
▁আফ্রিকা	-3754
▁মন্ত	-3755
▁অক্ষ	-3756
▁প্রোগ্রাম	-3757
ood	-3758
▁কালো	-3759
▁সড়ক	-3760
▁আঞ্চলিক	-3761
▁where	-3762
▁গভর্ন	-3763
▁স্টি	-3764
াহ্ম	-3765
চ্ছিন্ন	-3766
▁কবিতা	-3767
▁পিছ	-3768
▁চীন	-3769
মেন	-3770
▁হো	-3771
াযা়র	-3772
▁আওযা়	-3773
▁নাট্য	-3774
শনের	-3775
ক্ষিপ্ত	-3776
করা	-3777
▁উদ্ধ	-3778
টিল	-3779
▁সুন্দর	-3780
গাঁ	-3781
▁উন্নত	-3782
▁চীনা	-3783
▁জায়গ	-3784
িদের	-3785
▁প্রতিদ্বন্দ্ব	-3786
▁বিধ	-3787
▁খুঁজে	-3788
pl	-3789
▁দিয়েছেন	-3790
ather	-3791
ভেন	-3792
▁ফাইন	-3793
▁পাস	-3794
▁পোল	-3795
য়েশ	-3796
▁খাল	-3797
bs	-3798
▁গ্রামের	-3799
ফোর্ড	-3800
▁স্বাক্ষর	-3801
্রমে	-3802
▁মজ	-3803
▁তাঁকে	-3804
▁work	-3805
cy	-3806
▁acc	-3807
▁মুহাম্ম	-3808
▁made	-3809
▁যুক্তরাষ্ট্রে	-3810
iversity	-3811
▁উন্ম	-3812
▁মিথ	-3813
সাথে	-3814
▁প্যা	-3815
▁কেন্দ্রের	-3816
▁5	-3817
বাম	-3818
▁কোটি	-3819
গুলোকে	-3820
▁খার	-3821
ঢ়	-3822
▁হয়েছেন	-3823
য়নে	-3824
▁মেডিক	-3825
▁প্রজাতির	-3826
াব্লিউ	-3827
▁মাসের	-3828
▁কৌশল	-3829
▁এশিযা়	-3830
ov	-3831
্বল	-3832
▁মঞ্চ	-3833
▁নিরাপত্তা	-3834
▁পাহাড়	-3835
টিভ	-3836
▁ব্যবহারের	-3837
▁বী	-3838
▁কোযা়	-3839
নির	-3840
▁আসলে	-3841
▁রক্ষা	-3842
▁শিল	-3843
▁বিজয়	-3844
হাট	-3845
খণ্ড	-3846
ull	-3847
ডে	-3848
নিষ্ঠ	-3849
▁প্রকার	-3850
▁ডলার	-3851
▁হুম	-3852
চনার	-3853
▁তোমাদের	-3854
▁সর্বশেষ	-3855
▁বেন	-3856
▁make	-3857
▁যথে	-3858
▁Do	-3859
▁আয়োজ	-3860
▁অভিজ্ঞ	-3861
▁সোন	-3862
▁আদর্শ	-3863
▁যেহেতু	-3864
▁মাত	-3865
▁ক্যাপ	-3866
▁মন্ত্রী	-3867
▁ক্যাম্প	-3868
▁যাচ্ছে	-3869
োরে	-3870
▁বিস্তার	-3871
▁There	-3872
▁inc	-3873
▁ভর্তি	-3874
ার্ট	-3875
াইস	-3876
▁১৯৯৮	-3877
ওয়্যার	-3878
▁does	-3879
▁বোন	-3880
▁পত্রিকা	-3881
▁স্যার	-3882
▁পরিস্থ	-3883
▁sc	-3884
wn	-3885
োকে	-3886
▁আগ্রহ	-3887
▁এক্সপ	-3888
▁মহান	-3889
▁কের	-3890
▁সংরক্ষিত	-3891
▁৩১	-3892
▁সন	-3893
াসা	-3894
▁কলেজে	-3895
▁আক্রান্ত	-3896
▁পছন্দ	-3897
▁pre	-3898
▁ছাডা়ও	-3899
▁take	-3900
টর	-3901
▁প্রভাবিত	-3902
)-	-3903
▁ব্যবস্থাপ	-3904
▁আফ্রিকার	-3905
▁পশ	-3906
▁১৯৬০	-3907
বাড়	-3908
▁On	-3909
কুমার	-3910
▁বাংলার	-3911
▁প্রজাতি	-3912
দর্শ	-3913
াচল	-3914
▁নিয়ন্ত্র	-3915
মিন	-3916
▁অভিব	-3917
মুখ	-3918
▁বন্দর	-3919
▁ব্রাহ্ম	-3920
▁trans	-3921
▁could	-3922
▁স্তর	-3923
olog	-3924
▁জয়লাভ	-3925
▁খ্রিস্টপূর্ব	-3926
▁সংক্রান্ত	-3927
ৈত	-3928
১১	-3929
▁স্কুলে	-3930
▁আলোক	-3931
বিত্র	-3932
▁মুর	-3933
▁লিঙ্গ	-3934
▁অল্প	-3935
▁সম্মেল	-3936
▁যাকে	-3937
▁অন্যদিকে	-3938
ces	-3939
রাষ্ট্র	-3940
▁চি	-3941
▁সংক্ষিপ্ত	-3942
▁প্রতিক্রিযা়	-3943
▁কমপ	-3944
াজন	-3945
২৩	-3946
▁মেল	-3947
▁পডা়শোনা	-3948
▁সাম্প্র	-3949
▁ra	-3950
▁রেজ	-3951
বিজ্ঞ	-3952
▁Q	-3953
ble	-3954
▁গ্রীষ্ম	-3955
▁শিরোন	-3956
▁ভি	-3957
▁ইল	-3958
▁দাস	-3959
▁মুক্তিয	-3960
▁যথেষ্ট	-3961
ik	-3962
▁তিব	-3963
▁জায়গা	-3964
েরণ	-3965
▁ইউনিভার্সিটি	-3966
▁বিক্ষ	-3967
কান	-3968
▁পাঁচটি	-3969
সভ	-3970
ান্য	-3971
▁গিয়েছিল	-3972
▁poli	-3973
ফের	-3974
cept	-3975
▁ph	-3976
▁পাওযা়র	-3977
▁ভূমিকায়	-3978
▁সেবা	-3979
িমা	-3980
▁উইলিযা়ম	-3981
য়দ	-3982
▁শেষের	-3983
▁অজ	-3984
▁believe	-3985
▁ওযা়র্ল্ড	-3986
tt	-3987
্যতা	-3988
▁পরিষেবা	-3989
বিতে	-3990
▁against	-3991
vern	-3992
▁এত	-3993
োনেশ	-3994
▁আকর্ষণ	-3995
২১	-3996
▁গানের	-3997
▁যাত্রা	-3998
▁সেক	-3999
▁বেড়ে	-4000
▁চীনের	-4001
▁মেট্র	-4002
▁unt	-4003
▁হস্ত	-4004
▁শারীর	-4005
শাস	-4006
ever	-4007
▁জ্যোতি	-4008
▁অস্ট্রেলিযা়র	-4009
ness	-4010
▁১৮৬	-4011
সংখ্য	-4012
▁লম্ব	-4013
▁যেন	-4014
নগর	-4015
▁রক্ষণ	-4016
িসংঘ	-4017
▁লীগ	-4018
▁under	-4019
▁সত	-4020
▁আঘাত	-4021
ডা়য়	-4022
▁প্রার্থী	-4023
▁How	-4024
▁নাই	-4025
▁কর্পোর	-4026
পন	-4027
▁খুবই	-4028
▁বিহার	-4029
মানের	-4030
▁উসমান	-4031
▁ro	-4032
োসাই	-4033
কারি	-4034
▁প্রচুর	-4035
ার্ড	-4036
▁prot	-4037
▁উপজাত	-4038
ুরুর	-4039
▁জেম	-4040
▁প্রদর্শ	-4041
তাব	-4042
▁মধ	-4043
কীয়	-4044
▁মৌলিক	-4045
▁এজ	-4046
াইভ	-4047
▁মুজ	-4048
▁বলেছিলেন	-4049
▁ব্রাজ	-4050
▁সচ	-4051
োযা়র	-4052
▁থাকবে	-4053
▁১৯৯৭	-4054
ates	-4055
▁ওই	-4056
ভাগের	-4057
▁কিমি	-4058
led	-4059
▁বার্ষিক	-4060
▁ব্যক্তির	-4061
ষে	-4062
▁বেসর	-4063
▁two	-4064
▁ইতি	-4065
▁লিমি	-4066
▁Z	-4067
▁উদ্যোগ	-4068
▁কিংবা	-4069
কালের	-4070
াপের	-4071
ত্বের	-4072
জিক	-4073
▁act	-4074
▁পেয়েছে	-4075
▁কেন্দ্রটি	-4076
▁199	-4077
▁||	-4078
োর্ন	-4079
▁জাদু	-4080
সারিত	-4081
▁নোব	-4082
দু	-4083
িরে	-4084
▁ভিত্তিতে	-4085
▁সহজ	-4086
▁শতাব্দীতে	-4087
▁লোকসভা	-4088
▁যথ	-4089
▁ক্যাম	-4090
▁ভিত্তিক	-4091
▁প্রত্যেক	-4092
▁বাড়িতে	-4093
৪০	-4094
▁জাতিসংঘ	-4095
▁ইভ	-4096
edia	-4097
▁ইউন	-4098
ject	-4099
্রয়	-4100
ell	-4101
ics	-4102
▁পোশাক	-4103
ণে	-4104
▁হিন্দি	-4105
ীযা়	-4106
▁জটিল	-4107
▁উদ্ভিদ	-4108
▁অস্ত	-4109
▁ব্যাটসম্যান	-4110
▁ser	-4111
▁কার্যকর	-4112
▁নকশা	-4113
▁life	-4114
▁ক্ষুদ্র	-4115
▁মৃত	-4116
▁কংগ্রে	-4117
▁সুবিধা	-4118
তত্ত্ব	-4119
▁জিম	-4120
রীণ	-4121
▁ঠাক	-4122
▁কত	-4123
▁University	-4124
amp	-4125
প্রাণ	-4126
▁ভৌ	-4127
▁কর্মকর্তা	-4128
▁খর	-4129
▁খুল	-4130
▁হাসান	-4131
▁রয়ে	-4132
▁পরিসং	-4133
▁ফিলিপ	-4134
▁ধর্মের	-4135
সমূহের	-4136
▁তরুণ	-4137
▁ফলাফল	-4138
▁সিক	-4139
▁সম্প্রচার	-4140
জনক	-4141
▁অ্যাম	-4142
টল	-4143
▁ব্যক্তিত্ব	-4144
▁পৌঁছ	-4145
▁ছবিটি	-4146
▁লিমিটেড	-4147
▁Le	-4148
▁কঠিন	-4149
▁অন্ধ	-4150
▁বিদ্যুৎ	-4151
২২	-4152
▁ব্যবসায়	-4153
র্প	-4154
▁ইতিহাসে	-4155
▁ওঠ	-4156
▁১৯৯২	-4157
▁অনেকে	-4158
▁সাম্রাজ্য	-4159
হে	-4160
com	-4161
▁পার্থক্য	-4162
▁সার্ব	-4163
ont	-4164
▁শ্ব	-4165
লাই	-4166
▁পেয়েছিলেন	-4167
▁আদমশুমারি	-4168
▁তারিখ	-4169
▁পরিসংখ্যান	-4170
▁এখান	-4171
▁প্রজাতন্ত্র	-4172
▁ঘণ	-4173
ামার	-4174
প্রথম	-4175
▁হবার	-4176
▁সীম	-4177
ollow	-4178
েন্টের	-4179
গণের	-4180
▁কাছাকা	-4181
সারণ	-4182
▁রাখতে	-4183
▁বৈদ	-4184
▁স্বর্ণ	-4185
▁আদেশ	-4186
বিদ্যা	-4187
বীন্দ্র	-4188
▁ওর	-4189
বাদের	-4190
▁টিভি	-4191
▁শিখ	-4192
▁হ্র	-4193
▁পাশে	-4194
▁ভো	-4195
্কার	-4196
▁হারিয়ে	-4197
▁কাছাকাছি	-4198
▁তিব্ব	-4199
▁প্রার্থ	-4200
▁শিরোপা	-4201
line	-4202
▁জ্যাক	-4203
▁সেনাবাহিনীর	-4204
▁রাখার	-4205
ert	-4206
▁বিষ্ণ	-4207
▁পৌরসভা	-4208
▁সংস্থার	-4209
▁কিশোর	-4210
▁কোড	-4211
▁বেঁ	-4212
▁কাঁ	-4213
ব্লিউ	-4214
▁ঐতিহ্যবাহী	-4215
▁many	-4216
ব্ধ	-4217
ানু	-4218
▁ডিভ	-4219
▁জনগণ	-4220
থার	-4221
▁অগ	-4222
▁সিরিজের	-4223
▁ফিফা	-4224
▁earth	-4225
▁অনুশীল	-4226
▁কাহিনী	-4227
রিং	-4228
▁বাণিজ্যিক	-4229
▁অধি	-4230
য়েন	-4231
▁পরিম	-4232
▁বিবেচিত	-4233
▁পরিবহন	-4234
▁ইলেক	-4235
▁বিক্রি	-4236
েশ্বর	-4237
▁বস্তু	-4238
ায়নিক	-4239
সম্প	-4240
▁কক্ষ	-4241
▁১৯৭২	-4242
aj	-4243
▁মুম্ব	-4244
▁গুলি	-4245
▁আসা	-4246
▁18	-4247
▁সায়	-4248
▁পবিত্র	-4249
▁আনন্দ	-4250
▁একবার	-4251
▁বিপরীতে	-4252
▁সৈয়দ	-4253
▁অ্যাসোসিয়ে	-4254
▁বোঝায়	-4255
রস	-4256
▁স্টার	-4257
বর্তমান	-4258
ষিদ্ধ	-4259
▁করবেন	-4260
▁name	-4261
▁সঠিক	-4262
▁ইন্দোনেশ	-4263
▁পথে	-4264
row	-4265
▁পরিব	-4266
▁শুরুতে	-4267
▁কীভাবে	-4268
alk	-4269
du	-4270
▁রেডিও	-4271
▁ছবিতে	-4272
▁পর্যবেক্ষণ	-4273
▁সত্ত্বেও	-4274
পুরের	-4275
▁ঘরোযা়	-4276
vernment	-4277
▁ইসলামি	-4278
▁অর্থনীতি	-4279
lp	-4280
▁বহন	-4281
ড়ের	-4282
▁আহমদ	-4283
২৫	-4284
▁সাদ	-4285
▁কাউন্সিল	-4286
▁আমেরিকার	-4287
ত্রের	-4288
▁ভয়	-4289
▁সাফল	-4290
▁সম্ব	-4291
▁টাইম	-4292
▁কাউন্টি	-4293
ys	-4294
ছিলাম	-4295
istory	-4296
▁সোসাই	-4297
শব	-4298
▁এগ	-4299
les	-4300
েক্ষা	-4301
uck	-4302
▁সংবাদপত্র	-4303
▁অধিব	-4304
▁গণিত	-4305
▁আল্লাহ	-4306
▁look	-4307
▁নিষিদ্ধ	-4308
▁চায়	-4309
▁আঁ	-4310
▁রাখেন	-4311
nds	-4312
দল	-4313
১৯৫	-4314
▁sent	-4315
▁ভূমি	-4316
▁For	-4317
▁তালিকায়	-4318
▁হোম	-4319
▁প্রব	-4320
▁ইন্টারন	-4321
▁শহীদ	-4322
▁তম	-4323
▁ডিম	-4324
▁তুর	-4325
▁wom	-4326
▁Him	-4327
▁স্ট্র	-4328
▁অবশ্যই	-4329
▁দিল	-4330
ফিল	-4331
হোক	-4332
▁তোমরা	-4333
thing	-4334
▁প্রশ্ন	-4335
▁কর্মজীব	-4336
▁কাব	-4337
▁অনুমান	-4338
ষ্ঠীর	-4339
▁শিক্ষার্থ	-4340
ইল	-4341
▁রবীন্দ্র	-4342
▁পাই	-4343
▁যুগের	-4344
▁জলবায়	-4345
▁খে	-4346
ভঙ্গ	-4347
▁পাঞ্জাব	-4348
ামি	-4349
▁even	-4350
▁কর্ণ	-4351
▁একত্র	-4352
চা	-4353
ালার	-4354
▁বৈজ্ঞানিক	-4355
▁কল্প	-4356
লেট	-4357
▁ঘটনার	-4358
▁আর্ম	-4359
▁বিশ্লেষণ	-4360
▁তথা	-4361
▁কমে	-4362
ters	-4363
েনা	-4364
োরি	-4365
মূহ	-4366
▁জ্ব	-4367
▁দিবস	-4368
▁অসু	-4369
▁পাবলিক	-4370
ork	-4371
োরা	-4372
▁হর	-4373
▁১৯৯৫	-4374
▁ক্লাবের	-4375
▁ট্রান্স	-4376
বাচ	-4377
▁cl	-4378
▁সিলেট	-4379
▁ফেস	-4380
াকালীন	-4381
স্তি	-4382
▁এগুলো	-4383
▁প্রাণী	-4384
▁মিডিযা়	-4385
▁রুশ	-4386
▁চালিয়ে	-4387
ফর্ম	-4388
▁কলেজের	-4389
▁হ্যার	-4390
পুঞ্জ	-4391
▁খেলোযা়ড়ী	-4392
▁অবি	-4393
▁খণ্ড	-4394
াভাবিক	-4395
day	-4396
াক্রমে	-4397
▁ভর	-4398
▁রেলপথ	-4399
▁বিচ্ছিন্ন	-4400
▁ত্যাগ	-4401
▁কোচ	-4402
▁bl	-4403
র্নাম	-4404
▁জায়গায়	-4405
▁আরবি	-4406
▁বরং	-4407
িন্দু	-4408
▁অভিযান	-4409
▁sec	-4410
াধান	-4411
▁কলকাতার	-4412
জু	-4413
▁ইচ্ছ	-4414
▁১৯৯৪	-4415
▁ভিত	-4416
▁সংসদের	-4417
▁নির্মাণের	-4418
▁তাদেরকে	-4419
্টিন	-4420
্যাড	-4421
▁অণ	-4422
▁মুখ্য	-4423
▁প্রথমবারের	-4424
lig	-4425
▁first	-4426
ale	-4427
ধীন	-4428
▁অস্থ	-4429
▁পট	-4430
▁রাসায়নিক	-4431
▁১৯৫০	-4432
্যুত	-4433
▁রিস	-4434
▁ইসলামের	-4435
েক্টর	-4436
▁নোবেল	-4437
▁১৯৯৩	-4438
▁মৃত্যুব	-4439
▁গুজ	-4440
িয়েটার	-4441
▁দিনের	-4442
▁নী	-4443
াইয়ের	-4444
▁these	-4445
▁বিষয়টি	-4446
▁গি	-4447
▁যৌথ	-4448
▁মানে	-4449
প্রকাশ	-4450
raph	-4451
▁গোল্ড	-4452
▁ইন্ডিযা়ন	-4453
▁turn	-4454
▁গ্যাল	-4455
কন	-4456
শি	-4457
▁রাজশ	-4458
▁স্বতন্ত্র	-4459
▁ন্যায়	-4460
ালয়ের	-4461
▁কর্মী	-4462
▁বৃত্ত	-4463
▁সাঁ	-4464
▁সম্ভাব	-4465
▁অস্তিত্ব	-4466
ঠের	-4467
▁Mar	-4468
ুচ	-4469
▁sure	-4470
▁সমাধান	-4471
▁বিলুপ্ত	-4472
সিল	-4473
নাকে	-4474
▁ব্যাটিং	-4475
োলার	-4476
▁নিউজিল্যান্ড	-4477
▁অবল	-4478
up	-4479
াবদ্ধ	-4480
▁মেডিকেল	-4481
▁let	-4482
▁লীগের	-4483
▁শাস্ত	-4484
হুদি	-4485
পে	-4486
igh	-4487
বস্ত	-4488
পাডা়	-4489
▁দলটি	-4490
▁নজর	-4491
▁কিনা	-4492
cial	-4493
▁মৃত্যুবরণ	-4494
ীব্র	-4495
▁ব্যবসা	-4496
লায়	-4497
▁att	-4498
▁most	-4499
ug	-4500
▁কৌ	-4501
িডি	-4502
▁ডার	-4503
▁follow	-4504
▁স্টেডিযা়ম	-4505
."	-4506
▁শূ	-4507
▁স্ট্রি	-4508
▁চাষ	-4509
ving	-4510
▁দিনে	-4511
▁পিত	-4512
▁ইসরা	-4513
▁বিকাশ	-4514
▁হৃ	-4515
▁অষ্ট	-4516
▁বার্ত	-4517
▁প্রিম	-4518
ower	-4519
▁শাসক	-4520
পন্থ	-4521
▁অভ্যন্তরীণ	-4522
▁অস	-4523
প্রদেশ	-4524
▁ইন্ডিজ	-4525
তান্ত্রিক	-4526
য়োগ	-4527
▁এভাবে	-4528
▁নাইট	-4529
সিংহ	-4530
▁খ্রিস্টান	-4531
rong	-4532
▁ভিক	-4533
ৃণ	-4534
্লি	-4535
োদ্ধা	-4536
▁রক্ষ	-4537
▁নিয়ম	-4538
▁১৯৮৬	-4539
র্বল	-4540
▁উপত্য	-4541
▁লিখ	-4542
▁নানা	-4543
▁আর্থিক	-4544
me	-4545
ution	-4546
▁গ্লোব	-4547
▁পারবে	-4548
▁ed	-4549
▁নাস	-4550
মার্ক	-4551
▁১৯৪৭	-4552
যা়ত	-4553
▁ঝুঁ	-4554
খালী	-4555
ited	-4556
▁বাকি	-4557
▁সমাপ্ত	-4558
▁৬০	-4559
াগুলো	-4560
▁আশা	-4561
▁শিশুদের	-4562
সির	-4563
▁ম্যাগাজ	-4564
টিত	-4565
▁going	-4566
▁মনোনয়ন	-4567
্রো	-4568
▁ভেত	-4569
▁আফ্রিকান	-4570
▁শ্রমিক	-4571
নামূলক	-4572
▁ke	-4573
oth	-4574
▁পদ্	-4575
▁কমিটি	-4576
▁স্টেট	-4577
▁সাম্প্রতিক	-4578
▁বিক্ষোভ	-4579
▁help	-4580
▁পঞ্চম	-4581
▁সামগ্র	-4582
ious	-4583
▁ফ্রি	-4584
▁শহরটি	-4585
uch	-4586
▁তীব্র	-4587
▁পর্ত	-4588
বাংল	-4589
▁সেতু	-4590
▁সংখ্যক	-4591
▁উদাহরণস্বরূপ	-4592
▁Press	-4593
শার	-4594
oli	-4595
াকের	-4596
যা়ল	-4597
▁আকারে	-4598
িটাল	-4599
▁পরিষদের	-4600
▁থিয়েটার	-4601
বাচক	-4602
▁দেবতা	-4603
▁away	-4604
▁ask	-4605
▁সাউ	-4606
▁দত্ত	-4607
▁রঙের	-4608
▁১৯৮৮	-4609
▁পুরাণ	-4610
েশনে	-4611
▁পিতার	-4612
▁give	-4613
%,	-4614
▁সেটা	-4615
▁সিঙ্গ	-4616
▁বহি	-4617
▁পর্তুগ	-4618
▁মন্দিরের	-4619
▁ধাত	-4620
▁প্রাস	-4621
▁war	-4622
াচার্য	-4623
প্তর	-4624
ship	-4625
▁মিত্র	-4626
ss	-4627
▁সূর্য	-4628
▁এখনো	-4629
air	-4630
▁নিচের	-4631
▁ক্যাথ	-4632
▁খোলা	-4633
▁আনা	-4634
lect	-4635
▁বজায়	-4636
▁রক	-4637
▁চোখ	-4638
▁যেকোন	-4639
▁ইনিং	-4640
র্ধমান	-4641
▁যুক্তি	-4642
▁ক্রিযা়	-4643
▁দ্বীপপুঞ্জ	-4644
▁সুন	-4645
▁জানতে	-4646
▁স্মরণ	-4647
াযা়রের	-4648
▁লম্বা	-4649
▁ফাঁ	-4650
িবদ্ধ	-4651
▁reg	-4652
▁আসার	-4653
▁কাশ্ম	-4654
▁মন্তব্য	-4655
▁প্রেক্ষ	-4656
ied	-4657
ages	-4658
▁অতিক্রম	-4659
▁টুর্নাম	-4660
▁টা	-4661
কৃ	-4662
▁আইনের	-4663
▁উচ্চতা	-4664
▁শিক্ষার্থী	-4665
▁নির্বাচনী	-4666
তিতে	-4667
ৎস	-4668
▁পুরস্কারের	-4669
▁upon	-4670
▁১টি	-4671
▁সাইট	-4672
যেমন	-4673
▁শুরুর	-4674
বয়	-4675
ভিল	-4676
de	-4677
ident	-4678
▁উপকূল	-4679
ash	-4680
ublic	-4681
ন্দের	-4682
belie	-4683
▁পেতে	-4684
▁নিয়েছিলেন	-4685
▁হওযা়য়	-4686
self	-4687
▁আবাস	-4688
▁প্রেসিডেন্ট	-4689
বর্তন	-4690
▁ইহুদি	-4691
▁রাস্তা	-4692
▁সো	-4693
lease	-4694
▁গাজ	-4695
▁sign	-4696
▁ব্যাপকভাবে	-4697
▁সমৃদ্ধ	-4698
▁সেন্টার	-4699
অন	-4700
▁শব্দের	-4701
▁নির্ধার	-4702
▁among	-4703
আপ	-4704
▁আমেরিকা	-4705
ুধ	-4706
▁কুই	-4707
প্রতি	-4708
▁স্বীকৃত	-4709
ওল	-4710
▁ye	-4711
▁ঢাকার	-4712
▁বৃহৎ	-4713
▁বুঝতে	-4714
▁--	-4715
▁কমিটির	-4716
▁মাইক্র	-4717
▁কংগ্রেসের	-4718
ডেন	-4719
▁জেমস	-4720
▁হাইড	-4721
▁Tr	-4722
▁তাঁদের	-4723
uss	-4724
▁co	-4725
মানিক	-4726
▁জাপানের	-4727
▁ভ্র	-4728
▁গেলে	-4729
লন	-4730
▁লুই	-4731
▁ডানহ	-4732
▁প্রধানত	-4733
▁গভর্নর	-4734
▁পরিবর্তিত	-4735
▁পৌঁছে	-4736
▁শুন	-4737
▁সিম	-4738
▁খারাপ	-4739
্যালো	-4740
▁because	-4741
▁ইন্টারন্যাশনাল	-4742
▁supp	-4743
▁যাইহোক	-4744
als	-4745
▁দৈর্ঘ্য	-4746
▁লুক	-4747
▁dec	-4748
▁never	-4749
▁হায়	-4750
pen	-4751
▁সম্পদ	-4752
▁স্বল্প	-4753
▁মহাকাশ	-4754
▁কণ্ঠ	-4755
▁কংগ্রেস	-4756
▁অনুসন্ধান	-4757
▁বিশেষত	-4758
▁ইসলামিক	-4759
▁মূর্তি	-4760
▁গ্রিক	-4761
▁স্থাপত্য	-4762
▁অশ	-4763
▁ইয়ে	-4764
▁প্রতিযোগিতার	-4765
▁আসছে	-4766
▁গোষ্ঠী	-4767
▁বিশ্বব্যাপী	-4768
্লস	-4769
▁Day	-4770
▁প্রতিষ্ঠার	-4771
নির্	-4772
▁গাড়ি	-4773
▁প্রত্ন	-4774
▁দিয়েছিল	-4775
ুলের	-4776
▁মেযা়	-4777
▁অ্যালবাম	-4778
ষেধ	-4779
▁দৌ	-4780
▁আচরণ	-4781
▁মায়ের	-4782
র্স	-4783
ইযা়	-4784
াম্ব	-4785
▁দাও	-4786
▁প্রতিবাদ	-4787
▁নম্বর	-4788
ষদ	-4789
▁দুঃ	-4790
▁স্পষ্ট	-4791
▁আওতা	-4792
▁Ab	-4793
▁উপস্থাপন	-4794
▁Me	-4795
▁কার্ব	-4796
▁ধন	-4797
▁হান	-4798
▁fe	-4799
তাবাদী	-4800
ঘল	-4801
▁গেল	-4802
▁কমিউন	-4803
get	-4804
▁১৯৭৯	-4805
▁আচার	-4806
▁গুপ্ত	-4807
ai	-4808
▁শান্তি	-4809
▁১৯৮৯	-4810
নাট্য	-4811
র্ট	-4812
তুল	-4813
▁দিল্লি	-4814
▁স্বাধীনতার	-4815
কিছু	-4816
ীর্ণ	-4817
▁Our	-4818
▁উপস	-4819
▁আওযা়মী	-4820
▁১৯৮৪	-4821
চাল	-4822
▁হরি	-4823
▁হিজ	-4824
▁6	-4825
ছো	-4826
▁সমালোচনা	-4827
▁বাচ্চ	-4828
য়েন্টি	-4829
▁এশিযা়র	-4830
▁অধিনায়ক	-4831
▁বয়সী	-4832
▁শিক	-4833
যাত্র	-4834
▁ভব	-4835
তাত্ত্বিক	-4836
▁প্রবাহ	-4837
▁কিছুটা	-4838
বেল	-4839
wit	-4840
▁She	-4841
্লা	-4842
▁১৯৭৩	-4843
▁ইমাম	-4844
▁বাসিন্দ	-4845
ফর	-4846
▁পয়েন্ট	-4847
▁ঘোষ	-4848
▁giv	-4849
▁পাখি	-4850
ism	-4851
ady	-4852
▁ব্যবস্থার	-4853
েমে	-4854
▁দৈনিক	-4855
hes	-4856
ষ্টির	-4857
ণিক	-4858
▁বৃহত্তর	-4859
▁আবদ্ধ	-4860
োদ্	-4861
▁মালয়েশ	-4862
▁জানান	-4863
গড়	-4864
▁মেঘ	-4865
▁হাঁ	-4866
▁তাপমাত্রা	-4867
জীবী	-4868
▁হেন	-4869
ংসা	-4870
▁এগিয়ে	-4871
▁অনুষ্ঠানে	-4872
▁ল্যা	-4873
▁এগুলি	-4874
এক	-4875
▁সদস্যদের	-4876
▁Then	-4877
▁sin	-4878
৬০	-4879
amm	-4880
rough	-4881
ূত	-4882
▁আলম	-4883
▁When	-4884
▁অবশেষে	-4885
▁মানসিক	-4886
▁উম	-4887
▁ব্লগ	-4888
▁Who	-4889
ট্রিক	-4890
▁(,	-4891
▁হাসপাতাল	-4892
▁নির্বাচনের	-4893
▁একর	-4894
ember	-4895
▁পরিচিতি	-4896
▁জাল	-4897
▁জাপান	-4898
▁ঊ	-4899
বিল	-4900
▁হের	-4901
▁মর্যাদা	-4902
▁তদন্ত	-4903
▁ব্রাহ্মণ	-4904
কুম	-4905
গতভাবে	-4906
ডের	-4907
▁রাষ্ট্রীয়	-4908
▁প্রবাহিত	-4909
▁years	-4910
▁প্রায়ই	-4911
▁একদিনের	-4912
▁পাঠ্য	-4913
ফিক	-4914
খানা	-4915
▁ব্যয়	-4916
▁১৯৮৭	-4917
যন্ত্র	-4918
▁ওযা়ল	-4919
ঙে	-4920
▁দূরত্ব	-4921
▁country	-4922
লাম	-4923
িতির	-4924
▁প্রভৃতি	-4925
▁হিসাব	-4926
rent	-4927
▁জন্মগ্রহণকারী	-4928
োজেন	-4929
▁নেযা়	-4930
সাল	-4931
োমুখ	-4932
▁রাই	-4933
শত	-4934
মাণবিক	-4935
▁১৮৫	-4936
▁ব্লক	-4937
▁ইলেকট্র	-4938
▁”	-4939
▁সম্ভাব্য	-4940
")	-4941
br	-4942
▁ক্যালিফ	-4943
▁ভগ	-4944
▁যুগে	-4945
▁ধারা	-4946
▁প্রাথমিকভাবে	-4947
▁কমিউনিস্ট	-4948
্শন	-4949
বদ্ধ	-4950
▁ভক্ত	-4951
▁government	-4952
ণ্ডল	-4953
শিক্ষ	-4954
▁সঞ্চ	-4955
▁১৯৭৫	-4956
▁গান্ধ	-4957
▁উপস্থাপ	-4958
▁সাপ	-4959
enter	-4960
▁ডেভিড	-4961
▁বাছ	-4962
▁কাট	-4963
▁জলবায়ু	-4964
সেন	-4965
পুরে	-4966
▁সবুজ	-4967
▁পেরে	-4968
▁কাগ	-4969
▁কোম্পানির	-4970
▁post	-4971
▁উত্থ	-4972
ope	-4973
াক্স	-4974
েন্দ্রে	-4975
▁happ	-4976
িথ	-4977
▁লু	-4978
▁জের	-4979
▁pres	-4980
▁ইন্টারনেট	-4981
পো	-4982
রব	-4983
▁উপলব্ধ	-4984
▁চেন	-4985
▁ব্যান্ড	-4986
▁লিপ	-4987
▁কার্ড	-4988
্থে	-4989
ait	-4990
▁উদ্যান	-4991
ীতির	-4992
▁আন্তঃ	-4993
আল	-4994
২৪	-4995
পুরুষ	-4996
▁মুখোমুখ	-4997
▁সমক	-4998
▁জানুযা়রী	-4999
গন	-5000
ঝি	-5001
gy	-5002
▁অনুরূপ	-5003
্টেন	-5004
১৯৪	-5005
▁রাজশাহী	-5006
▁উপাধি	-5007
▁সহকারী	-5008
▁find	-5009
▁রবার্ট	-5010
▁তির	-5011
▁নিঃ	-5012
nger	-5013
মিতে	-5014
▁সংবিধান	-5015
▁অফিসার	-5016
▁বেদ	-5017
ced	-5018
▁own	-5019
▁রাজনীত	-5020
▁জর	-5021
▁অব্যা	-5022
টিন	-5023
▁গবেষ	-5024
▁ব্যবধানে	-5025
ডা়ন	-5026
▁ক্যালিফোর্ন	-5027
▁রাজ্যে	-5028
▁men	-5029
▁নামটি	-5030
ms	-5031
▁মাধ্যম	-5032
▁পশ্চিমবঙ্গের	-5033
্রিযা়র	-5034
▁show	-5035
▁১৯৮২	-5036
ting	-5037
▁মুখোমুখি	-5038
▁সফট	-5039
▁পাতা	-5040
▁মসজিদের	-5041
রিদ	-5042
▁যথাক্রমে	-5043
▁Book	-5044
▁ইস্ট	-5045
েগ	-5046
ঘাট	-5047
▁১৯৮৩	-5048
▁বিশেষজ্ঞ	-5049
কির	-5050
▁ইনিংসে	-5051
▁উন্মুক্ত	-5052
▁সীমাবদ্ধ	-5053
ograph	-5054
ven	-5055
াম্প	-5056
▁অনুরোধ	-5057
▁আর্জ	-5058
▁শতকে	-5059
▁লন্ডন	-5060
ating	-5061
্বার	-5062
▁তৈরির	-5063
▁সাজ	-5064
▁গর্ভ	-5065
▁ইতিহাসের	-5066
াতায়	-5067
িসে	-5068
▁তারপরে	-5069
জির	-5070
▁প্রসারিত	-5071
▁কিন	-5072
▁চান	-5073
স্যের	-5074
▁(200	-5075
চ্ছেন	-5076
ধর্মী	-5077
▁আরেক	-5078
পঞ্জ	-5079
▁অলিম্পিক	-5080
▁বুল	-5081
▁creat	-5082
pect	-5083
▁আহত	-5084
▁ফাউন্ড	-5085
▁দেখানো	-5086
▁১৯৭৭	-5087
▁পর্বত	-5088
▁পানির	-5089
▁পরিবেশন	-5090
▁এক্সপ্রেস	-5091
শী	-5092
ওয়ের	-5093
জেন	-5094
▁ব্যাক	-5095
▁উইক	-5096
▁আর্ক	-5097
▁সংঘটিত	-5098
▁জনগণের	-5099
▁১৯৮৫	-5100
cri	-5101
োনি	-5102
▁বাবার	-5103
ger	-5104
▁প্রকৌশল	-5105
▁বৃষ্টি	-5106
▁শতাব্দী	-5107
uman	-5108
▁স্থানান্তরিত	-5109
▁পর্যায়ের	-5110
কেই	-5111
▁রশ	-5112
▁অনলাইন	-5113
▁অভিহিত	-5114
ওয়েল	-5115
▁ওয়েল	-5116
▁সম্মুখ	-5117
ween	-5118
▁শন	-5119
▁দার্শন	-5120
ae	-5121
▁সেখান	-5122
ড্র	-5123
▁আনুষ্ঠানিকভাবে	-5124
min	-5125
ার্জ	-5126
▁আওতাধীন	-5127
▁কাত	-5128
▁কুল	-5129
াতন	-5130
▁টুইটার	-5131
▁কয়েকজন	-5132
▁বসতি	-5133
াগুলির	-5134
▁পেন	-5135
▁পারমাণবিক	-5136
▁চাঁদ	-5137
▁কাঠামো	-5138
▁লক্ষ্ম	-5139
▁পরিবারে	-5140
▁কর্মসূ	-5141
৭০	-5142
▁আছেন	-5143
ourn	-5144
▁পালিয়ে	-5145
meric	-5146
ts	-5147
াগতিক	-5148
▁নেওযা়র	-5149
▁স্বীকার	-5150
৮০	-5151
ামান	-5152
▁পড়েন	-5153
▁পিটার	-5154
▁সিন্ধ	-5155
▁বংশোদ্	-5156
▁বিবরণ	-5157
▁অসংখ্য	-5158
▁সাক্ষাৎ	-5159
▁চির	-5160
▁ডেন	-5161
▁নাজ	-5162
▁প্রতিস্থ	-5163
▁ফুটব	-5164
▁গীত	-5165
▁আলে	-5166
ইংরে	-5167
্নের	-5168
▁ঠাকুর	-5169
▁প্রিমিযা়র	-5170
▁+	-5171
▁খবর	-5172
▁মধ্যযুগ	-5173
▁সংল	-5174
শিত	-5175
▁নির্ধারিত	-5176
▁ব্লগার	-5177
▁Man	-5178
▁আউট	-5179
▁পুনঃ	-5180
বত	-5181
▁স্বপ	-5182
▁ক্যান	-5183
্বান	-5184
▁গ্রহণের	-5185
বিজ্ঞানী	-5186
▁সাহায্যে	-5187
▁১৯৬২	-5188
▁জিনিস	-5189
াইনের	-5190
িস্তান	-5191
lis	-5192
▁ওপ	-5193
▁Pe	-5194
▁Wor	-5195
▁being	-5196
▁জাপানি	-5197
টক	-5198
টিয়ে	-5199
▁ওহ	-5200
বাল	-5201
্টন	-5202
▁kill	-5203
স্থল	-5204
▁som	-5205
▁থানার	-5206
▁মেক্স	-5207
বছ	-5208
▁১৯৪৮	-5209
▁জানায়	-5210
▁সামান্য	-5211
▁শক্তির	-5212
▁সচিব	-5213
▁স্মৃতি	-5214
▁দার্শনিক	-5215
▁Te	-5216
▁একত্রিত	-5217
▁ভিক্ট	-5218
ণী	-5219
দর	-5220
▁৮০	-5221
▁১৯৭৪	-5222
aking	-5223
▁ডিপ	-5224
▁বক্স	-5225
▁সহিংস	-5226
▁সমস্য	-5227
▁দশক	-5228
▁ক্রে	-5229
মুদ	-5230
▁heav	-5231
▁পার্ব	-5232
▁report	-5233
▁৩৫	-5234
▁একটু	-5235
▁পূজা	-5236
▁উদ্ভাব	-5237
▁ফিলিস্ত	-5238
▁Go	-5239
ঞ্জন	-5240
▁প্রেরণ	-5241
▁বসে	-5242
▁রানের	-5243
ঙ্কর	-5244
▁ভূষিত	-5245
▁চার্চ	-5246
▁নির্যাত	-5247
▁এশিযা়ন	-5248
ank	-5249
▁mon	-5250
tic	-5251
▁সীমানা	-5252
▁১৯৬৭	-5253
▁সংগ্রাম	-5254
The	-5255
্বে	-5256
▁মিশরীয়	-5257
মূল	-5258
▁প্রতিবেদন	-5259
▁সেনা	-5260
▁পরিমাপ	-5261
ুনের	-5262
▁Mu	-5263
▁আগের	-5264
▁বিকল্প	-5265
▁মুল	-5266
▁("	-5267
▁পরিবর্তনের	-5268
নেস	-5269
▁ধ্র	-5270
▁ছাযা়	-5271
াণী	-5272
▁লিন	-5273
▁স্টুড	-5274
▁র‌	-5275
▁প্রতিষ্ঠানের	-5276
▁well	-5277
▁ওযা়র	-5278
এসসি	-5279
েন্টে	-5280
ভব	-5281
াবর	-5282
▁বিপরীত	-5283
▁অর্থনীত	-5284
্ডিং	-5285
ীভূত	-5286
▁১৯৩০	-5287
▁Intern	-5288
ন্থে	-5289
▁পর্যায়	-5290
▁rep	-5291
ীণ	-5292
▁রোম	-5293
▁সহজে	-5294
▁মাঝামা	-5295
▁$	-5296
▁বিশ্বযুদ্ধের	-5297
্ট্র	-5298
▁7	-5299
টিস	-5300
ব্যব	-5301
▁সংকল	-5302
ener	-5303
▁শারীরিক	-5304
land	-5305
▁অবলম্ব	-5306
জল	-5307
ধর্মের	-5308
▁সায়েন্স	-5309
নির্ম	-5310
▁লক্ষ্যে	-5311
rest	-5312
▁১৯৬৯	-5313
বিন	-5314
▁9	-5315
▁খ্রিস্টাব্দের	-5316
▁সের	-5317
gin	-5318
▁Pr	-5319
িরি	-5320
▁১৯৫২	-5321
▁অঙ্ক	-5322
▁আদিব	-5323
▁অতিবাহিত	-5324
ute	-5325
ধ্যাত্ম	-5326
▁tra	-5327
ner	-5328
▁যথা	-5329
▁র‍	-5330
গাঁও	-5331
▁তীরে	-5332
বৈ	-5333
▁শ্রেণী	-5334
ীপুর	-5335
▁মার্	-5336
▁ভেঙে	-5337
▁মিলি	-5338
▁উপস্থিতি	-5339
▁م	-5340
▁বেঁচে	-5341
▁বিচ	-5342
▁চিন্তা	-5343
▁অনুপ	-5344
▁গ্রহ	-5345
▁৫৯	-5346
মাধ্য	-5347
▁ছবির	-5348
▁সম্ভাবনা	-5349
▁দুর	-5350
নিজ	-5351
▁রিপোর্ট	-5352
ual	-5353
টারি	-5354
ওযা়ন	-5355
▁between	-5356
ities	-5357
ody	-5358
▁উপায়	-5359
▁নো	-5360
▁কোথায়	-5361
sp	-5362
io	-5363
ুসারে	-5364
ফ্র	-5365
illi	-5366
রন	-5367
এনএ	-5368
▁প্রজ	-5369
▁সূচনা	-5370
▁বৃদ্ধির	-5371
নিম	-5372
▁আইসিসি	-5373
২৭	-5374
২৮	-5375
▁এনে	-5376
▁৭০	-5377
চ্ছি	-5378
▁কল্যা	-5379
▁স্তরের	-5380
▁সময়কালে	-5381
োনাল	-5382
▁হাব	-5383
▁tell	-5384
▁চলমান	-5385
্ফোর	-5386
▁very	-5387
▁নারায়ণ	-5388
িদা	-5389
▁বিদ্যালয়ের	-5390
▁too	-5391
সামরিক	-5392
ote	-5393
িকো	-5394
▁ভাস্ক	-5395
▁ভিয়েত	-5396
▁আর্জেন্টি	-5397
▁মোব	-5398
▁সফরে	-5399
ুকুর	-5400
▁উৎপন্ন	-5401
roup	-5402
▁বংশোদ্ভূত	-5403
▁রয়	-5404
▁পেয়েছিল	-5405
চনায়	-5406
টিযা়	-5407
▁সন্ত্র	-5408
▁হাদ	-5409
selves	-5410
▁ব্যাপার	-5411
▁such	-5412
▁উপনি	-5413
▁পদক্ষেপ	-5414
▁through	-5415
▁বাতিল	-5416
কেন্দ্র	-5417
▁Americ	-5418
▁গৃহীত	-5419
২৯	-5420
▁ডিগ্রী	-5421
▁cle	-5422
▁রুপ	-5423
▁গায়ক	-5424
▁গবেষণার	-5425
ামত	-5426
▁ঈশ্বর	-5427
▁সমাজের	-5428
▁বিদেশী	-5429
▁প্রবন্ধ	-5430
▁কিউ	-5431
▁পরিমাণে	-5432
▁প্রদত্ত	-5433
ব্রি	-5434
▁জোট	-5435
▁মাস্টার	-5436
▁ভেন	-5437
▁কাস	-5438
ুযা়ন	-5439
ething	-5440
▁কলকাতায়	-5441
গ্রস্ত	-5442
▁হিউ	-5443
.)	-5444
esse	-5445
▁অনুশীলন	-5446
২৬	-5447
▁১৯৭৬	-5448
পির	-5449
▁ইরানের	-5450
▁আদি	-5451
▁হাও	-5452
ুল্লাহ	-5453
▁India	-5454
ভারত	-5455
ুদের	-5456
▁মাঠ	-5457
▁ছয়টি	-5458
▁রাত	-5459
▁দুর্বল	-5460
atch	-5461
োলজি	-5462
▁ফ্রে	-5463
▁ret	-5464
▁গণ্য	-5465
▁প্রশংসা	-5466
ৃঙ্	-5467
▁১৯৭৮	-5468
▁হোট	-5469
হান	-5470
বারে	-5471
ix	-5472
▁শাম	-5473
▁used	-5474
▁ময়মন	-5475
কারীরা	-5476
▁খাঁ	-5477
ল্যান্ডের	-5478
▁প্রিন্স	-5479
▁দরকার	-5480
lop	-5481
▁হিল	-5482
▁Or	-5483
▁উদ্বোধ	-5484
▁মুজিব	-5485
▁দোক	-5486
▁প্রতিনিধি	-5487
▁inv	-5488
ধ্যাত্মিক	-5489
াইটেড	-5490
▁ডাই	-5491
▁যায়নি	-5492
▁মাঝামাঝি	-5493
ars	-5494
৩৩	-5495
োরের	-5496
▁পূর্ববর্তী	-5497
▁লেন	-5498
▁২টি	-5499
▁ভয়ে	-5500
▁হাট	-5501
▁শত্র	-5502
▁বর্ণিত	-5503
▁কঠোর	-5504
▁ব্ল্যাক	-5505
▁রাজবংশের	-5506
ৃশ্য	-5507
▁আসনের	-5508
vel	-5509
▁ইঞ্জিনিযা়	-5510
▁তুর্কি	-5511
গতি	-5512
▁ঔপ	-5513
▁জ্বাল	-5514
▁শুক	-5515
▁ডিজিটাল	-5516
▁চাহ	-5517
gan	-5518
▁মহারা	-5519
চার্ড	-5520
▁ফাইল	-5521
ুনা	-5522
▁তহ	-5523
▁ছাড়	-5524
িনাল	-5525
ুযা়ল	-5526
▁তরঙ্গ	-5527
▁দিকের	-5528
▁child	-5529
▁place	-5530
মহাদেশ	-5531
▁খানের	-5532
▁অনুমোদন	-5533
থের	-5534
▁অংশের	-5535
▁সিঙ্গাপুর	-5536
▁উদ্ভূত	-5537
ড়ির	-5538
▁লিখিত	-5539
▁সফটওয়্যার	-5540
oss	-5541
চেতন	-5542
াকৃত	-5543
▁অস্ট্রেলীয়	-5544
icial	-5545
▁আনুষ্ঠানিক	-5546
সিন	-5547
োর্স	-5548
পন্থী	-5549
▁উসমানীয়	-5550
▁সংক	-5551
▁উৎপত্তি	-5552
▁অস্বীকার	-5553
lam	-5554
▁রাগ	-5555
000	-5556
ূর্ত	-5557
▁১৯৮১	-5558
▁great	-5559
▁অভাব	-5560
▁জানি	-5561
▁সম্বন্ধ	-5562
রু	-5563
▁সেটি	-5564
কোত্তর	-5565
তাকে	-5566
চ্ছেদ	-5567
▁দৃষ্টিভঙ্গ	-5568
▁things	-5569
▁while	-5570
ীম	-5571
▁রকম	-5572
und	-5573
টাকে	-5574
▁অ্যাসোসিয়েশন	-5575
▁উপনিবেশ	-5576
▁বোলার	-5577
্‌স	-5578
▁8	-5579
▁বিস্ফোর	-5580
▁nor	-5581
▁ভুট	-5582
▁و	-5583
্যালে	-5584
ese	-5585
ices	-5586
▁চলচ্চিত্রটির	-5587
▁পাথর	-5588
▁মানবাধিকার	-5589
der	-5590
▁যেসব	-5591
▁Sy	-5592
লিন	-5593
▁জরি	-5594
▁মাইকেল	-5595
▁আসল	-5596
▁নিষেধ	-5597
▁প্যান	-5598
▁বিনোদ	-5599
বাব	-5600
▁উয়ে	-5601
▁বাঁধ	-5602
▁১৯৬৫	-5603
▁ইজ	-5604
▁কেন্দ্রে	-5605
▁আশেপ	-5606
▁ভিয়েতনাম	-5607
▁whom	-5608
▁রূপান্তরিত	-5609
▁দেশটির	-5610
িয়েল	-5611
▁দ্যা	-5612
▁জয়ী	-5613
▁খরচ	-5614
▁লিগের	-5615
ology	-5616
▁চা	-5617
▁set	-5618
▁ডেম	-5619
▁ডা	-5620
▁করছি	-5621
▁নারীর	-5622
্টের	-5623
▁মহাব	-5624
▁বসু	-5625
▁still	-5626
গরের	-5627
▁মেশ	-5628
▁ফ্রান্সের	-5629
তাদের	-5630
পূর্বে	-5631
▁সর্বপ্রথম	-5632
▁স্নাতকোত্তর	-5633
▁Ad	-5634
▁To	-5635
▁নৌবাহ	-5636
▁স্থাপিত	-5637
▁পেয়েছেন	-5638
▁প্রদানের	-5639
▁২০২৩	-5640
▁বিলিয়ন	-5641
▁নির্বাহী	-5642
▁গিল	-5643
▁সাউথ	-5644
▁সংস্কৃতির	-5645
▁Con	-5646
▁মুহাম্মাদ	-5647
▁হাসপাতালে	-5648
▁মন্ত্রণালয়	-5649
▁আবির্	-5650
▁আকারের	-5651
▁শিল্পের	-5652
▁উত্তরাধ	-5653
▁প্রকৃতি	-5654
ared	-5655
▁আনুমানিক	-5656
ক্টর	-5657
▁সাগর	-5658
▁dif	-5659
▁স্বয়	-5660
শালী	-5661
▁ক্রিস	-5662
▁সন্দে	-5663
▁বেসরকারি	-5664
▁দলকে	-5665
াগ্র	-5666
▁ব্যবস্থাপনা	-5667
ডিআই	-5668
▁মসজিদটি	-5669
শৈ	-5670
▁তী	-5671
বাজার	-5672
▁রাতে	-5673
▁ওযা়ই	-5674
িনো	-5675
▁অব্যাহত	-5676
ina	-5677
▁fam	-5678
▁গার্ড	-5679
▁হামলা	-5680
▁মাতা	-5681
▁চলাচল	-5682
▁আধ্যাত্মিক	-5683
ures	-5684
▁রাশিযা়র	-5685
৩৫	-5686
▁প্রকল্পের	-5687
▁exp	-5688
▁১৯৬৪	-5689
▁আবেদন	-5690
▁ইউনাইটেড	-5691
▁ac	-5692
▁জনগো	-5693
্রেট	-5694
▁ব্যক্তিদের	-5695
▁Sp	-5696
▁কূ	-5697
);	-5698
▁তড়ি	-5699
▁গ্রেপ্ত	-5700
▁ফোন	-5701
▁ব্যবহারকারী	-5702
oun	-5703
ফতার	-5704
▁প্রযোজক	-5705
▁পরিষ্কার	-5706
শান	-5707
▁ভালোব	-5708
▁সংঘর্ষ	-5709
▁Ex	-5710
ouse	-5711
▁রিজ	-5712
েন্সি	-5713
▁10	-5714
▁women	-5715
চারী	-5716
▁আলি	-5717
▁ঘূর্ণ	-5718
যান	-5719
▁বেগম	-5720
▁কলম্ব	-5721
ists	-5722
▁প্রচারিত	-5723
ted	-5724
র্ডার	-5725
ইংরেজি	-5726
▁অপ্র	-5727
▁মাথা	-5728
রান	-5729
পরিচিত	-5730
▁তাতে	-5731
▁কুমিল্ল	-5732
▁সোসাইটি	-5733
▁truth	-5734
''	-5735
যাপন	-5736
িংটন	-5737
দাস	-5738
▁গ্রন্থে	-5739
▁থানা	-5740
gn	-5741
যে	-5742
str	-5743
▁Why	-5744
গ্রন্থ	-5745
▁ত্রিপুর	-5746
witter	-5747
▁মুসলমানদের	-5748
ইট	-5749
▁ইউক্র	-5750
ভাষা	-5751
▁Can	-5752
াইযা়	-5753
রক্ষ	-5754
▁অবদানের	-5755
▁গ্রীষ্মকালীন	-5756
mit	-5757
▁আর্ট	-5758
▁বিজ্ঞানী	-5759
▁মাহমুদ	-5760
▁writ	-5761
▁মাঠে	-5762
▁প্রযোজনা	-5763
ram	-5764
িতিক	-5765
▁হাইড্র	-5766
▁আসতে	-5767
াড়ি	-5768
▁করেছি	-5769
মোট	-5770
াজের	-5771
▁আপন	-5772
▁ছাডা়ই	-5773
▁শাস্ত্র	-5774
পের	-5775
▁চাকরি	-5776
▁উত্তরাধিকার	-5777
▁tri	-5778
▁অধিকারী	-5779
▁’	-5780
পথে	-5781
▁অবধি	-5782
▁আখ	-5783
৯০	-5784
্যাক্ট	-5785
▁much	-5786
▁সমিতি	-5787
▁ওভার	-5788
▁উঠেছে	-5789
িযা়তে	-5790
▁কানাড	-5791
▁দায়ী	-5792
▁স্বাভাবিক	-5793
▁হোক	-5794
▁আযা়র	-5795
ased	-5796
▁টেন	-5797
▁মামলা	-5798
▁সহযোগী	-5799
orn	-5800
বুক	-5801
▁দাম	-5802
▁শ্রেণীর	-5803
▁রিচার্ড	-5804
▁পদ্ধতিতে	-5805
▁গঠনের	-5806
ement	-5807
ুলার	-5808
▁another	-5809
▁জনপ্রিয়তা	-5810
আমি	-5811
▁ষষ্ঠ	-5812
▁করলেও	-5813
ঞ্জাম	-5814
▁টার্ম	-5815
▁মূলতঃ	-5816
▁end	-5817
উদ্দিন	-5818
শস্ত্র	-5819
বস	-5820
▁মুঘল	-5821
▁প্রতিরক্ষা	-5822
▁En	-5823
▁সাফল্য	-5824
▁পদ্ধতির	-5825
▁মাউ	-5826
▁বিদ্যালয়ে	-5827
mb	-5828
ুগু	-5829
ফুল	-5830
▁রাজার	-5831
▁লাইব্র	-5832
▁something	-5833
শোধ	-5834
াদে	-5835
শাসিত	-5836
▁মির	-5837
▁রয়েছেন	-5838
ety	-5839
▁fear	-5840
▁১৯৫৬	-5841
▁একসাথে	-5842
▁অ্যাওযা়র্ড	-5843
▁৯০	-5844
▁পর্যালো	-5845
▁বর্ষপঞ্জ	-5846
▁যাও	-5847
লভ	-5848
▁চিন	-5849
▁মঙ্গ	-5850
▁last	-5851
▁start	-5852
▁লর্ড	-5853
▁পাপ	-5854
erson	-5855
▁স্টুডিও	-5856
েটের	-5857
▁১৯৬৮	-5858
▁World	-5859
পাশে	-5860
প্রাচ	-5861
▁ইন্স	-5862
৩৬	-5863
▁pun	-5864
▁প্রকাশের	-5865
▁Let	-5866
ough	-5867
্রাল	-5868
▁পরিচালনার	-5869
▁প্রদর্শিত	-5870
▁পোর্ট	-5871
▁prov	-5872
▁নির্ণ	-5873
▁প্রচেষ্টা	-5874
ular	-5875
▁বন্য	-5876
▁prom	-5877
ative	-5878
▁আসাম	-5879
স্থানীয়	-5880
▁History	-5881
খার	-5882
▁উঁচ	-5883
্রু	-5884
▁বিনিয়োগ	-5885
▁আহ্বান	-5886
বেগ	-5887
ভাগে	-5888
▁খাওযা়	-5889
▁নান	-5890
▁বাধা	-5891
্যাক্স	-5892
▁মৌসুমের	-5893
▁ক্লাস	-5894
নাড়	-5895
▁নিখ	-5896
ডা়তে	-5897
বাই	-5898
▁gr	-5899
ৃষ্ট	-5900
▁প্রত্যাখ্যান	-5901
োহিত	-5902
াসমূহ	-5903
onna	-5904
▁উদ্দিন	-5905
▁রম	-5906
formation	-5907
চী	-5908
তাম	-5909
▁সিড	-5910
▁টেক্স	-5911
▁প্রোট	-5912
ফেস	-5913
মো	-5914
▁ter	-5915
বস্তু	-5916
শ্রুতি	-5917
▁মুখে	-5918
▁জনতা	-5919
▁ক্রি	-5920
▁indeed	-5921
▁অদ	-5922
▁মিলিত	-5923
▁শের	-5924
্লিষ্ট	-5925
▁বাঁচ	-5926
view	-5927
বিহার	-5928
্লেক্স	-5929
▁অসুস্থ	-5930
▁চর্	-5931
="	-5932
▁মোবাইল	-5933
▁সুপরিচিত	-5934
▁খ্য	-5935
▁জিযা়	-5936
▁শ্রীলঙ্কা	-5937
ants	-5938
▁মোক	-5939
▁সোম	-5940
ঙ্গার	-5941
▁সমষ্টি	-5942
%)	-5943
▁জ্যাম	-5944
▁ইউনিয়নে	-5945
▁অনুষ্ঠানের	-5946
els	-5947
▁জৈব	-5948
▁জিজ্ঞ	-5949
▁সাহিত্যের	-5950
▁সংক্রম	-5951
াদির	-5952
▁ওড়	-5953
▁২য়	-5954
▁বন্দী	-5955
▁হোযা়	-5956
▁সরিয়ে	-5957
বহুল	-5958
▁তেমন	-5959
▁গাছের	-5960
ool	-5961
▁প্রিয়	-5962
বিজ্ঞানের	-5963
▁প্রচারণ	-5964
▁min	-5965
▁ঘরে	-5966
▁Say	-5967
▁হত্যার	-5968
▁সার্ভিস	-5969
াদ্দ	-5970
▁নারীব	-5971
ten	-5972
▁তন্ম	-5973
▁তোলে	-5974
.,	-5975
হত্যা	-5976
▁মেনে	-5977
▁খলি	-5978
▁বুক	-5979
িনার	-5980
▁১৯৫৭	-5981
▁আক্রমণের	-5982
side	-5983
্বাস	-5984
▁আবুল	-5985
▁অগ্রসর	-5986
▁কর্পোরেশন	-5987
▁অধীন	-5988
ভাল	-5989
▁গ্রামীণ	-5990
িদ্র	-5991
▁20	-5992
▁জনের	-5993
াগারে	-5994
▁থাইল	-5995
▁দেখিয়ে	-5996
▁রাষ্ট্রের	-5997
▁সংজ্ঞায়িত	-5998
▁হ্রদ	-5999
োনার	-6000
▁জার্মানির	-6001
ুজ্জ	-6002
rab	-6003
▁ইঞ্জিনিযা়রিং	-6004
আম	-6005
ত্যাগ	-6006
িকাল	-6007
▁দেযা়র	-6008
▁পাঠানো	-6009
▁আকাশ	-6010
▁কেবলমাত্র	-6011
াবলী	-6012
istan	-6013
▁খ্যাতি	-6014
▁(@	-6015
জিযা়ম	-6016
▁তুরস্ক	-6017
▁পৃথিবী	-6018
▁ফেব্রুযা়র	-6019
এক্স	-6020
▁ডল	-6021
▁disbelie	-6022
▁ম্যাগাজিন	-6023
▁বীজ	-6024
▁ফার্ম	-6025
bsite	-6026
▁মিনিট	-6027
৩৭	-6028
▁তত	-6029
▁কোল	-6030
ene	-6031
ুসে	-6032
▁প্রকাশনা	-6033
▁জাতিসংঘের	-6034
▁wrong	-6035
▁বেঙ্গল	-6036
▁অভিজ্ঞতা	-6037
book	-6038
রাম	-6039
▁came	-6040
চেস্টার	-6041
▁চিত্রনাট্য	-6042
arm	-6043
মুনা	-6044
▁ব্রে	-6045
▁টাই	-6046
▁রূপে	-6047
--	-6048
সাময়িক	-6049
▁৪৫	-6050
্যাং	-6051
্যুতিক	-6052
▁ইউরোপের	-6053
▁উপরের	-6054
▁কাঠাম	-6055
▁ইসরায়ে	-6056
ধিক	-6057
▁পেছ	-6058
▁কেম	-6059
ষ্প	-6060
▁নেপালের	-6061
▁transl	-6062
▁ইঙ্গ	-6063
▁১৯৬১	-6064
োমে	-6065
▁সেমি	-6066
▁গ্রেফতার	-6067
▁sy	-6068
▁ঘনিষ্ঠ	-6069
▁Well	-6070
▁কিছুই	-6071
▁Oh	-6072
ange	-6073
সভায়	-6074
▁ফি	-6075
▁নেমে	-6076
ওযা়ল	-6077
ৃত্তি	-6078
▁আবদুল্লাহ	-6079
▁sub	-6080
▁১৯৫৪	-6081
▁চাইতে	-6082
▁মধ্যবর্তী	-6083
োধী	-6084
ুলা	-6085
▁car	-6086
▁gonna	-6087
▁ইনিংস	-6088
▁শর্ত	-6089
▁জ্যোতির্	-6090
াউন্ট	-6091
▁পর্যটন	-6092
▁vi	-6093
গুপ্ত	-6094
িত্য	-6095
▁পুনরুদ্ধ	-6096
▁এখানকার	-6097
্ডের	-6098
▁দোষ	-6099
ttle	-6100
▁উজ্জ	-6101
▁তত্ত্বাব	-6102
জো	-6103
ision	-6104
▁198	-6105
বর্ষ	-6106
lin	-6107
ক্রমে	-6108
▁রসায়ন	-6109
ideo	-6110
▁heart	-6111
▁unto	-6112
▁গুযা়	-6113
কেত	-6114
af	-6115
▁♪	-6116
▁ব্যবসায়ী	-6117
পর্যন্ত	-6118
৪৫	-6119
▁ডাযা়	-6120
▁তড়িৎ	-6121
▁home	-6122
▁সূর	-6123
▁কর্মকাণ্ড	-6124
৩৮	-6125
▁বোমা	-6126
▁বেছে	-6127
▁পিপ	-6128
▁বরাবর	-6129
▁Af	-6130
্রাহ	-6131
▁স্কুলের	-6132
▁নেপাল	-6133
lud	-6134
▁ইউটি	-6135
▁হয়েছিলো	-6136
ets	-6137
গরি	-6138
▁গমন	-6139
▁night	-6140
▁..	-6141
uring	-6142
▁কর্ন	-6143
▁প্রাচীনতম	-6144
▁বিপ্লবী	-6145
▁আদালত	-6146
▁গ্রাহ	-6147
▁নিউক্ল	-6148
▁কাব্য	-6149
উর	-6150
▁Li	-6151
ন্ডার	-6152
▁উপমহাদেশ	-6153
৩৯	-6154
▁জৈন	-6155
▁list	-6156
ple	-6157
▁পাকিস্তানে	-6158
রেট	-6159
র্জা	-6160
▁little	-6161
▁সমাধ	-6162
▁মহারাষ্ট্র	-6163
▁তন্মধ্যে	-6164
▁জার্ন	-6165
িমের	-6166
প্ল	-6167
▁Don	-6168
▁কর্ণাট	-6169
▁বক্তৃত	-6170
▁শিক্ষার্থীদের	-6171
▁ধূ	-6172
▁X	-6173
▁চাম	-6174
angu	-6175
▁inter	-6176
ইয়	-6177
▁media	-6178
long	-6179
▁পাট	-6180
▁নবাব	-6181
▁সন্ন	-6182
▁ডিজাইন	-6183
oot	-6184
সাই	-6185
ible	-6186
▁lead	-6187
▁চেন্ন	-6188
▁মিশরের	-6189
ষুধ	-6190
বারিক	-6191
বিশ্ব	-6192
att	-6193
▁১ম	-6194
▁Ge	-6195
▁রাজত্ব	-6196
▁পাণ্ড	-6197
▁শৈশব	-6198
▁লাভের	-6199
ক্ষ্ম	-6200
▁news	-6201
▁Gu	-6202
▁১৯৬৩	-6203
লান	-6204
▁জলের	-6205
▁উর্দ	-6206
▁কায়	-6207
▁ঢাকায়	-6208
▁জুনি	-6209
বয়স্ক	-6210
িউড	-6211
্সেল	-6212
▁ঘাট	-6213
▁আশ্রয়	-6214
▁১৯৬৬	-6215
▁Now	-6216
বাগ	-6217
▁ক্যান্স	-6218
▁সমসাময়িক	-6219
র্ঘট	-6220
con	-6221
▁উপজেলায়	-6222
▁তালিকাভুক্ত	-6223
▁why	-6224
▁মেজর	-6225
▁হলুদ	-6226
▁phot	-6227
▁উভয়ই	-6228
▁উয়েফা	-6229
▁চার্লস	-6230
▁মহার	-6231
▁রূপান্তর	-6232
৪৮	-6233
▁ইরান	-6234
▁বার্তা	-6235
▁পুনর্	-6236
▁সমূহ	-6237
▁নন্দ	-6238
▁জাদুঘর	-6239
দীপ	-6240
▁তুলনামূলক	-6241
▁মক্ক	-6242
▁ব্রাজিল	-6243
los	-6244
▁সেট	-6245
বিশেষ	-6246
দুর	-6247
▁মালিকান	-6248
▁বিশেষভাবে	-6249
▁তামিলনাড়	-6250
বর্তিত	-6251
▁আলেক	-6252
ডা়নো	-6253
▁সন্দেহ	-6254
▁জাতীয়তাবাদী	-6255
্রান্ত	-6256
▁বায়ু	-6257
▁ময়মনসিংহ	-6258
▁জাতির	-6259
স্র	-6260
▁বেসামরিক	-6261
▁num	-6262
▁মাংস	-6263
কেও	-6264
▁Mr	-6265
▁খিল	-6266
▁কার্ল	-6267
▁ভৌগোল	-6268
▁পরীক্ষায়	-6269
-1	-6270
ভের	-6271
ঃপর	-6272
▁অর্জ	-6273
mp	-6274
▁ইউনিট	-6275
▁পিছনে	-6276
▁বইয়ের	-6277
less	-6278
▁রাশিযা়ন	-6279
▁ঘণ্টা	-6280
ারক	-6281
ন্তু	-6282
▁ওযা়ন	-6283
▁তফ	-6284
পেক্ষ	-6285
▁বৈচিত্র	-6286
শাযা়রের	-6287
▁কর্মজীবন	-6288
ives	-6289
▁মিলে	-6290
▁সতর্ক	-6291
প্রে	-6292
▁Res	-6293
▁love	-6294
্কা	-6295
ertain	-6296
মাল	-6297
লীয়	-6298
▁অভিনীত	-6299
▁দাঁড়িয়ে	-6300
▁বৈদ্যুতিক	-6301
imes	-6302
▁fl	-6303
৩২	-6304
▁গুগ	-6305
▁ফিরিয়ে	-6306
েদ	-6307
৭৫	-6308
যোগী	-6309
▁frie	-6310
▁লো	-6311
মন্ড	-6312
▁ফিন	-6313
ভারে	-6314
▁বিশ্বে	-6315
▁ইতালীয়	-6316
সেস	-6317
▁কর্মরত	-6318
▁লিও	-6319
▁কমিউ	-6320
▁sm	-6321
ুম্ব	-6322
▁জারি	-6323
▁জীবনী	-6324
▁মন্ত্রণালয়ের	-6325
0.	-6326
▁নিজেই	-6327
▁কির	-6328
▁কোর্স	-6329
▁লোকেরা	-6330
',	-6331
▁টেকন	-6332
▁অপেক্ষ	-6333
▁করতো	-6334
ians	-6335
▁বিষ্ণু	-6336
ভোগ	-6337
▁conf	-6338
▁আইনজীবী	-6339
▁তান	-6340
লেই	-6341
▁মুক্তিপ্রাপ্ত	-6342
িযা়মে	-6343
idd	-6344
▁সন্ধান	-6345
▁সংশ্লিষ্ট	-6346
াজ্ঞ	-6347
▁দেখায়	-6348
▁জার্মানি	-6349
▁১৯৫৮	-6350
▁সিনি	-6351
র্মা	-6352
▁আয়োজিত	-6353
▁সশস্ত্র	-6354
▁অতঃপর	-6355
েচ্ছ	-6356
▁ছাপ	-6357
▁বৈধ	-6358
▁ভিক্টোর	-6359
েলি	-6360
বদন্ত	-6361
▁করেনি	-6362
স্টার্ন	-6363
ised	-6364
একটি	-6365
জন্য	-6366
▁সৌর	-6367
▁আফগানিস্তানের	-6368
▁করলেন	-6369
মুক্ত	-6370
কারে	-6371
▁ইউএস	-6372
▁খুলনা	-6373
▁লক্ষণ	-6374
ya	-6375
▁হাফ	-6376
▁গ্রেট	-6377
্রিম	-6378
িংয়ের	-6379
প্প	-6380
▁পরিস্থিতি	-6381
ided	-6382
কর্মী	-6383
চারের	-6384
▁১৯২০	-6385
▁মেম	-6386
▁around	-6387
▁শূন্য	-6388
▁মেন	-6389
▁দক্ষতা	-6390
৩৪	-6391
▁surely	-6392
▁রবীন্দ্রনাথ	-6393
▁long	-6394
ফট	-6395
▁অপরি	-6396
▁দৃঢ়	-6397
▁স্থানান্তর	-6398
জ্জিত	-6399
▁পর্বে	-6400
৯৯	-6401
▁সম্বন্ধে	-6402
▁রংপুর	-6403
▁সীমিত	-6404
▁উন্নীত	-6405
▁must	-6406
ধে	-6407
▁sur	-6408
▁পডা়র	-6409
▁ক্যাথলিক	-6410
সেফ	-6411
▁সুপ্র	-6412
▁উত্তরা	-6413
▁মেট্রো	-6414
▁জমা	-6415
▁অর্থে	-6416
▁সল	-6417
▁দেও	-6418
▁উদ্ধার	-6419
ভিন	-6420
▁talk	-6421
বর্ধমান	-6422
▁মুক্তির	-6423
কাঠ	-6424
মিড	-6425
▁best	-6426
▁পারিবারিক	-6427
".	-6428
করণের	-6429
য়েন্দ	-6430
▁ডু	-6431
রিশ	-6432
▁জাফ	-6433
▁বদলে	-6434
▁লেখার	-6435
▁মহাদেশ	-6436
▁father	-6437
ব্ল	-6438
▁উদ্বোধন	-6439
▁খেলেছেন	-6440
▁পুলিশের	-6441
▁অপেক্ষা	-6442
▁কিংবদন্ত	-6443
▁ডাক্ত	-6444
▁সিনেমা	-6445
▁(1	-6446
চ্ছিল	-6447
িপিড	-6448
▁মিযা়	-6449
▁গ্রেপ্তার	-6450
▁শনাক্ত	-6451
▁নন	-6452
▁Your	-6453
দেরকে	-6454
▁গবেষণায়	-6455
▁প্রচেষ্ট	-6456
▁অ্যানিম	-6457
ara	-6458
▁আগেই	-6459
▁ওডিআই	-6460
▁১৯৪০	-6461
▁হৃদ	-6462
▁১৯৫৫	-6463
লিখিত	-6464
▁ওষুধ	-6465
▁বইটি	-6466
▁চম	-6467
▁লাখ	-6468
▁প্রতিদিন	-6469
▁পলি	-6470
কৃষ্ণ	-6471
▁প্রার্থনা	-6472
'-	-6473
চু	-6474
▁সপ্তম	-6475
ned	-6476
▁দুর্	-6477
▁উইন্ড	-6478
চির	-6479
ানুসারে	-6480
▁Ed	-6481
িক্যাল	-6482
▁group	-6483
▁সেখানেই	-6484
লেক্ট	-6485
▁সাহিত্যিক	-6486
▁ফে	-6487
▁bu	-6488
▁আপনাকে	-6489
▁পুরস্ক	-6490
▁beh	-6491
▁অংশগ্রহণের	-6492
▁৪৮	-6493
কারীর	-6494
▁গ্রুপের	-6495
বছর	-6496
▁বার্ম	-6497
▁বাড়ির	-6498
▁সন্ধ	-6499
▁সবার	-6500
▁সংগঠিত	-6501
▁সমস্যার	-6502
▁ঔষ	-6503
▁Mus	-6504
▁অ্যার	-6505
▁এরকম	-6506
▁স্বেচ্ছ	-6507
াদুর	-6508
▁স্ত্র	-6509
▁law	-6510
ীবন	-6511
্সের	-6512
িপুর	-6513
▁স্পেনীয়	-6514
▁শিরোনাম	-6515
▁সাহিত্যে	-6516
▁তুলেন	-6517
▁প্রোটি	-6518
kay	-6519
শাহ	-6520
ides	-6521
▁হালকা	-6522
▁গিয়েছে	-6523
তাল	-6524
▁দপ্তর	-6525
ঠা	-6526
াগো	-6527
▁আজিজ	-6528
▁৩৬	-6529
▁গ্লোবাল	-6530
নকে	-6531
▁আবহ	-6532
▁নিল	-6533
uc	-6534
▁রাজকীয়	-6535
শক্তি	-6536
▁given	-6537
▁ব্যাং	-6538
▁better	-6539
্যালেঞ্জ	-6540
▁থাকলেও	-6541
লাল	-6542
াদেশিক	-6543
▁মিউজিক	-6544
stem	-6545
▁তরল	-6546
ana	-6547
ret	-6548
াথ	-6549
▁ref	-6550
▁নথি	-6551
ঙ্ঘ	-6552
▁মাজ	-6553
▁কুরআন	-6554
েনি	-6555
▁ওযা়শ	-6556
▁মাত্রা	-6557
কাহ	-6558
সঙ্গ	-6559
▁কুমিল্লা	-6560
ata	-6561
▁চেক	-6562
▁উঁচু	-6563
▁পরমাণ	-6564
▁উপযুক্ত	-6565
▁ইক	-6566
▁অবস্থার	-6567
▁নবী	-6568
▁গানটি	-6569
▁ধর্ষণ	-6570
▁কমান্ডার	-6571
টনের	-6572
▁ক্ষয়	-6573
▁সম্প্রতি	-6574
▁আন্দোলনে	-6575
▁ধান	-6576
▁একাদশ	-6577
ীদার	-6578
▁→	-6579
▁পশ্চিমা	-6580
▁বাংলায়	-6581
▁প্রখ্যাত	-6582
▁চ্যালেঞ্জ	-6583
▁সম্পর্কের	-6584
▁কবর	-6585
▁তাঁরা	-6586
▁সাতটি	-6587
▁dem	-6588
▁ছু	-6589
▁power	-6590
▁বিশ্বকাপের	-6591
▁শাস্তি	-6592
bal	-6593
▁সিনিয়র	-6594
ঙ্গাল	-6595
▁৩২	-6596
▁পিএইচ	-6597
▁১৯৪৬	-6598
▁সবসময়	-6599
▁নিকটবর্তী	-6600
শ্বরের	-6601
▁ফাউন্ডেশন	-6602
রিতে	-6603
▁রোগের	-6604
▁৩টি	-6605
▁জগতে	-6606
▁গোয়েন্দ	-6607
শ্বিক	-6608
▁সত্যি	-6609
্টে	-6610
ুদণ্ড	-6611
▁keep	-6612
cer	-6613
▁হুস	-6614
▁ফেডারেশন	-6615
পক্ষে	-6616
ুদ্রিক	-6617
▁খন	-6618
বর্ণ	-6619
বোধ	-6620
▁May	-6621
▁কৃতিত্ব	-6622
▁আত্মপ্রকাশ	-6623
কুল	-6624
▁sit	-6625
▁জঙ্গ	-6626
▁mar	-6627
▁ম্যাস	-6628
▁অপারেশন	-6629
সুর	-6630
িতাব	-6631
▁শুনে	-6632
▁found	-6633
▁স্তরে	-6634
▁সমন্বয়ে	-6635
▁land	-6636
▁বিপ্লব	-6637
▁ক্যাস	-6638
▁বন্দ্য	-6639
▁didn	-6640
▁সেগুলো	-6641
▁মুক্তিযোদ্ধা	-6642
সেন্স	-6643
▁imp	-6644
▁কমন	-6645
▁ভট্ট	-6646
▁ঋণ	-6647
পাদ	-6648
▁ব্যান	-6649
▁শিযা়	-6650
▁বাইরের	-6651
ঘু	-6652
tical	-6653
▁death	-6654
৩১	-6655
▁১৯৫৯	-6656
োয়	-6657
স্কি	-6658
▁স্যাম	-6659
ডাব্লিউ	-6660
▁তারকা	-6661
▁punish	-6662
ষম	-6663
▁নৈ	-6664
▁অনুপ্র	-6665
▁মধ্যেই	-6666
▁ওজন	-6667
▁অ্যান্টি	-6668
▁খাত	-6669
▁তবু	-6670
▁bring	-6671
▁ব্যাস	-6672
এটি	-6673
ional	-6674
▁মধ্যকার	-6675
্ৰ	-6676
▁টুয়েন্টি	-6677
ues	-6678
▁চুক্তির	-6679
▁ভৌগোলিক	-6680
▁দ্বীপের	-6681
ax	-6682
টেক	-6683
▁মঙ্গল	-6684
▁word	-6685
▁যোগ্যতা	-6686
▁might	-6687
▁সচেতন	-6688
▁পূর্বের	-6689
▁হিসেবেও	-6690
ments	-6691
fect	-6692
▁ভূমিকম্প	-6693
▁জনসাধারণ	-6694
২০১১	-6695
▁সিরিজে	-6696
ভান	-6697
▁ফাংশ	-6698
▁অর্ধেক	-6699
▁ফাই	-6700
not	-6701
▁put	-6702
▁কাজী	-6703
▁বিজ্ঞানের	-6704
▁শাসনের	-6705
▁অর্জনের	-6706
▁ক্যাপ্টেন	-6707
ital	-6708
ার্ধ	-6709
▁যুক্তরাজ্যের	-6710
টিরও	-6711
▁শাক	-6712
▁আংশ	-6713
▁রুট	-6714
▁রোজ	-6715
ওযা়ই	-6716
▁হ্যাঁ	-6717
▁১৯৫১	-6718
িস্টার	-6719
▁বিংশ	-6720
▁১৯৪৯	-6721
▁গোল্ডেন	-6722
শাস্ত্র	-6723
▁*	-6724
▁thing	-6725
▁শ্রীলঙ্কার	-6726
োহন	-6727
নিম্ন	-6728
ফেল	-6729
▁ঘিরে	-6730
▁মাধ	-6731
▁দায়িত্বে	-6732
ক্ষিণ	-6733
্যেষ্ঠ	-6734
▁created	-6735
▁Br	-6736
▁ever	-6737
outh	-6738
হি	-6739
▁cur	-6740
▁সংখ্যার	-6741
▁সম্প্রসারণ	-6742
▁দাগ	-6743
▁দেখুন	-6744
▁বিনিম	-6745
▁এইভাবে	-6746
ভূমিতে	-6747
াকারী	-6748
▁(199	-6749
▁অনুভূ	-6750
▁প্ল্যাট	-6751
▁সামুদ্রিক	-6752
▁ca	-6753
▁ডাব্লিউ	-6754
▁সফরকারী	-6755
▁ফু	-6756
▁১৯৪৫	-6757
▁সুরক্ষা	-6758
ক্ষেত্রে	-6759
▁ent	-6760
ত্তার	-6761
▁বস্তুর	-6762
▁রহস্য	-6763
▁খাব	-6764
▁ফুটবলার	-6765
akes	-6766
▁সেকেন্ড	-6767
ায়েত	-6768
▁করায়	-6769
৪৭	-6770
▁প্রভাবশালী	-6771
দৈ	-6772
▁মাটির	-6773
▁প্রাদেশিক	-6774
▁দো	-6775
▁সমালোচক	-6776
||	-6777
িরো	-6778
▁forg	-6779
▁ক্রমবর্ধমান	-6780
▁অবৈ	-6781
▁ধাপ	-6782
▁প্রজন্ম	-6783
িলার	-6784
▁except	-6785
▁পিক	-6786
▁যৌগ	-6787
▁রয়্যাল	-6788
ins	-6789
ককে	-6790
▁''	-6791
▁Par	-6792
▁উপহার	-6793
▁তোর	-6794
▁ঘুম	-6795
▁তীর	-6796
▁সন্ন্যাস	-6797
াণু	-6798
▁ওল	-6799
বন্ধু	-6800
▁পুরনো	-6801
▁প্রতিফল	-6802
▁কিভাবে	-6803
▁উইকিপিড	-6804
▁অবর	-6805
▁টুক	-6806
▁কোরিযা়র	-6807
▁গ্র্যান্ড	-6808
তীত	-6809
শীপ	-6810
গল	-6811
▁মোকাব	-6812
▁ফোর	-6813
▁Ye	-6814
▁বিতরণ	-6815
▁সমালোচ	-6816
"-	-6817
বন্দ	-6818
াসীদের	-6819
ror	-6820
মনের	-6821
▁নাকি	-6822
,000	-6823
ভাই	-6824
▁তাক	-6825
▁শ্রদ্ধ	-6826
▁বিরোধিতা	-6827
ister	-6828
▁Islam	-6829
▁মহাবিদ	-6830
▁মাটি	-6831
▁commun	-6832
▁নেদার	-6833
▁সৃষ্ট	-6834
▁গায়ে	-6835
দূত	-6836
▁ফ্রাঙ্ক	-6837
ention	-6838
▁লাত	-6839
▁রাশিযা়	-6840
▁খ্রিস্টাব্দ	-6841
▁নিষেধাজ্ঞ	-6842
stit	-6843
▁ডাল	-6844
াগরের	-6845
▁কুয়ে	-6846
▁disc	-6847
▁সার্ক	-6848
্বাব	-6849
▁প্রকৌশ	-6850
▁টন	-6851
▁শাসনাম	-6852
▁উপদে	-6853
of	-6854
▁বাজারে	-6855
৬৫	-6856
▁শৈল	-6857
▁head	-6858
সুল	-6859
▁রত	-6860
ঞ্চি	-6861
▁উদ্বোধনী	-6862
▁সুত	-6863
lection	-6864
জিং	-6865
▁হার্ড	-6866
প্রাণিত	-6867
▁without	-6868
▁really	-6869
▁use	-6870
▁আদিবাসী	-6871
▁অন্তত	-6872
ung	-6873
▁মানের	-6874
▁দুর্ঘট	-6875
cess	-6876
কলাপ	-6877
▁One	-6878
phe	-6879
াস্টি	-6880
▁তুই	-6881
▁আটক	-6882
স্ম	-6883
হাম	-6884
▁যোগ্য	-6885
াগরীয়	-6886
▁Min	-6887
▁থাকায়	-6888
▁Pl	-6889
▁খুন	-6890
▁চলতে	-6891
সম্ম	-6892
its	-6893
মালা	-6894
▁রবি	-6895
▁evil	-6896
▁জুনিয়র	-6897
▁লিখেছিলেন	-6898
▁fa	-6899
▁সিরাজ	-6900
▁নিদর্শন	-6901
▁চক্রবর্তী	-6902
দহ	-6903
প্রধান	-6904
▁অনন্য	-6905
রাং	-6906
▁ওঠেন	-6907
▁ড্যান	-6908
▁হামলার	-6909
▁ass	-6910
▁তুলনা	-6911
▁York	-6912
▁সর্বমোট	-6913
ohn	-6914
▁মণ	-6915
ন্নি	-6916
▁উষ্ণ	-6917
স্পষ্ট	-6918
ফলে	-6919
▁৩০০	-6920
▁স্থির	-6921
▁protest	-6922
▁চিত্রিত	-6923
▁৭৫	-6924
▁অবৈধ	-6925
▁পর্ন	-6926
সিদ্ধ	-6927
▁ক্ষতিগ্রস্ত	-6928
▁চুল	-6929
ains	-6930
▁৫০০	-6931
II	-6932
▁ইউরোপে	-6933
াজি	-6934
▁গোপন	-6935
▁dest	-6936
▁left	-6937
▁প্রত্যাহার	-6938
সনের	-6939
▁পরীক্ষার	-6940
▁সম্মুখীন	-6941
▁পরম	-6942
▁উন্নয়নের	-6943
ier	-6944
▁এশীয়	-6945
▁বিচারপতি	-6946
▁ডায়	-6947
▁মানুষকে	-6948
▁উনি	-6949
শ্রুত	-6950
▁কাশ্মীর	-6951
স্কো	-6952
▁197	-6953
▁পুরাতন	-6954
▁প্রশাসন	-6955
gypt	-6956
▁বিন্যাস	-6957
িজাত	-6958
▁অন্তর	-6959
▁che	-6960
▁stud	-6961
▁থাকলে	-6962
▁প্ল্যাটফর্ম	-6963
▁ল্যাব	-6964
▁পারেননি	-6965
▁hand	-6966
▁অবস্থানের	-6967
▁ফেলা	-6968
▁মিশন	-6969
▁add	-6970
▁এটিই	-6971
কত	-6972
▁নিয়ন্ত্রিত	-6973
▁সেঞ্চ	-6974
▁হাঙ্গ	-6975
▁কয়	-6976
▁১৯৫৩	-6977
৪৯	-6978
▁করিয়ে	-6979
মৃ	-6980
▁loc	-6981
hing	-6982
কায়	-6983
AR	-6984
▁কমপ্লেক্স	-6985
▁open	-6986
▁প্রতিবেদ	-6987
▁গিয়েছিলেন	-6988
▁পর্বতম	-6989
▁অ্যাসিড	-6990
▁প্রত্যক্ষ	-6991
▁ভা	-6992
▁বোধ	-6993
▁হয়তো	-6994
▁যাত্রী	-6995
▁মাযা়	-6996
uthor	-6997
▁ওপেন	-6998
▁অবশিষ্ট	-6999
▁old	-7000
▁কার্ট	-7001
med	-7002
ris	-7003
সেরা	-7004
▁উপাস	-7005
▁অলিম্পিকে	-7006
▁ডিসেম্বরে	-7007
▁Im	-7008
▁পৃথিবীতে	-7009
▁ইলেক্ট	-7010
▁শিক্ষাপ্র	-7011
বিংশ	-7012
▁ভিতরে	-7013
▁স্থিত	-7014
▁অংশীদার	-7015
▁মদ	-7016
▁পির	-7017
ফিল্ড	-7018
▁পদ্ম	-7019
▁website	-7020
োমা	-7021
্রা	-7022
ৃষ্ঠ	-7023
▁diffe	-7024
▁অ্যাঞ্জ	-7025
ভিড	-7026
▁বর্ধ	-7027
▁কৃত্রিম	-7028
ব্ব	-7029
াহার	-7030
▁সরল	-7031
stand	-7032
বীর	-7033
▁উন্নতি	-7034
ock	-7035
▁রপ্ত	-7036
▁fil	-7037
এবং	-7038
পোষ	-7039
que	-7040
▁ম্যানেজ	-7041
েন্দ্রনাথ	-7042
▁মোর	-7043
কারের	-7044
▁প্রজন	-7045
▁হাস্য	-7046
▁happen	-7047
মিং	-7048
▁হাউস	-7049
▁পিতাম	-7050
▁অনুমোদিত	-7051
▁সন্তানের	-7052
▁প্রতিশ্রুতি	-7053
▁pass	-7054
▁Not	-7055
্যারা	-7056
▁ফলস্বরূপ	-7057
▁US	-7058
▁খেলতে	-7059
ছড়ি	-7060
▁ধরন	-7061
olution	-7062
▁তোলা	-7063
ledge	-7064
▁মাতৃ	-7065
▁শ্যাম	-7066
▁ফ্রান্সিস	-7067
▁ফাইনালে	-7068
▁খ্রিষ্টাব্দের	-7069
▁স্থল	-7070
▁বিষয়ের	-7071
▁বিশ্বকাপে	-7072
ta	-7073
▁cons	-7074
▁মেরে	-7075
▁নিয়েছে	-7076
▁সমাব	-7077
ari	-7078
করী	-7079
দাদ	-7080
▁চিল	-7081
▁human	-7082
▁ম্যাচের	-7083
▁ইথ	-7084
াংশে	-7085
▁অনুপ্রাণিত	-7086
ুষ্ক	-7087
▁সুখ	-7088
▁লোকের	-7089
▁ফেলো	-7090
▁হেনরি	-7091
▁উচ্চারণ	-7092
▁গল	-7093
০৫	-7094
▁ব্রো	-7095
ভেল	-7096
টিটি	-7097
ুলিপি	-7098
▁সভাপ	-7099
▁স্পোর্ট	-7100
▁বিধানসভার	-7101
▁ب	-7102
▁কল্যাণ	-7103
▁সুইড	-7104
▁সমাজে	-7105
ছা	-7106
ধ্ব	-7107
াগল	-7108
alth	-7109
▁বাঘ	-7110
▁আমন্ত্রণ	-7111
▁আচ্ছ	-7112
▁অনুভব	-7113
▁গ্রীক	-7114
▁Mos	-7115
াপি	-7116
ায়নের	-7117
▁ভেঙ্গে	-7118
▁সম্মিল	-7119
▁জিম্বাব	-7120
▁_	-7121
▁রানে	-7122
▁সমতল	-7123
▁শ্রম	-7124
▁clear	-7125
▁কমপক্ষে	-7126
▁সরঞ্জাম	-7127
রিত	-7128
▁অনেকগুলি	-7129
বিশিষ্ট	-7130
▁প্রথ	-7131
▁প্রচলন	-7132
irl	-7133
িজি	-7134
▁det	-7135
▁মনোযোগ	-7136
▁water	-7137
▁আবিষ্কৃত	-7138
▁মেহ	-7139
▁play	-7140
▁লাইনের	-7141
▁Twitter	-7142
▁পত্রিকার	-7143
০৮	-7144
▁লবণ	-7145
েইন	-7146
▁আগুন	-7147
▁হোটেল	-7148
▁কার্বন	-7149
▁ক্ষমতার	-7150
▁মহাম	-7151
ংকং	-7152
▁আরবের	-7153
▁প্রকৃতির	-7154
▁return	-7155
▁কাঁচ	-7156
▁দম্প	-7157
▁গোযা়	-7158
▁স্মৃত	-7159
▁জার্সি	-7160
▁টেলিভিশ	-7161
▁স্পর্শ	-7162
ন্দন	-7163
দায়	-7164
▁হুই	-7165
কলা	-7166
ফ্ল	-7167
▁উপকূ	-7168
▁বিয়ের	-7169
৪৪	-7170
▁নিরাপদ	-7171
▁নৃত	-7172
▁ঘটেছে	-7173
▁ইঙ্গিত	-7174
ক্ষেপে	-7175
▁মন্দিরে	-7176
▁আইনি	-7177
▁পতাকা	-7178
▁মুন	-7179
▁ভাস	-7180
▁স্কোযা়	-7181
ওর	-7182
▁দুজন	-7183
▁ভঙ্গ	-7184
▁উর্দু	-7185
▁নিম্নলিখিত	-7186
2.	-7187
▁ফো	-7188
দ্দীন	-7189
▁ফরিদ	-7190
▁স্বপ্ন	-7191
org	-7192
▁গায়	-7193
▁অপারে	-7194
▁Bang	-7195
▁বিন্দু	-7196
▁লাইসেন্স	-7197
▁ঔষধ	-7198
▁পল্ল	-7199
৬৬	-7200
▁blo	-7201
▁মল	-7202
▁তীর্থ	-7203
▁সদস্যের	-7204
▁সদস্যরূপে	-7205
▁তিনিই	-7206
▁পড়তে	-7207
▁পুরানো	-7208
▁স্বর্গ	-7209
▁অঞ্চলটি	-7210
টাল	-7211
জনীন	-7212
ীকরণের	-7213
উপ	-7214
ার্চ	-7215
▁দাবী	-7216
▁বয়ে	-7217
la	-7218
▁উভয়ের	-7219
▁নাও	-7220
াজপুর	-7221
▁একদিন	-7222
ডিস	-7223
▁কেটে	-7224
▁ব্যতীত	-7225
▁উর	-7226
ature	-7227
▁ঘনত্ব	-7228
▁তি	-7229
▁গুরুতর	-7230
ption	-7231
▁ভোটার	-7232
▁লেবান	-7233
▁অনুপাত	-7234
মর	-7235
alist	-7236
▁স্নায়	-7237
▁cour	-7238
▁গোপাল	-7239
ma	-7240
▁ভোগ	-7241
▁চিকিৎসক	-7242
ron	-7243
ড়ো	-7244
ুড়ি	-7245
▁Iran	-7246
মন্ত্র	-7247
▁নৈতিক	-7248
▁বেই	-7249
▁দ্বি	-7250
▁wr	-7251
▁থান	-7252
▁public	-7253
▁try	-7254
▁পুরুষের	-7255
পী	-7256
প্রজাত	-7257
▁ব্যার	-7258
যোজন	-7259
ঘ্র	-7260
▁নোযা়	-7261
বাংলাদেশ	-7262
০৯	-7263
তুর	-7264
▁অষ্টম	-7265
▁ইচ্ছা	-7266
াইক	-7267
▁সদস্যরা	-7268
ird	-7269
▁ধ্য	-7270
▁এটাই	-7271
▁গোব	-7272
▁করেননি	-7273
▁অবলম্বনে	-7274
াভার	-7275
▁leave	-7276
▁স্পেস	-7277
জম	-7278
ilit	-7279
▁ট্রে	-7280
▁মেয়েদের	-7281
▁সংখ	-7282
▁nothing	-7283
▁রাজবংশ	-7284
িশীল	-7285
▁উপগ্রহ	-7286
পতির	-7287
▁উৎপাদিত	-7288
▁মৃ	-7289
▁পাবে	-7290
গরিষ্ঠ	-7291
▁গ্রন্থাগার	-7292
ফেযা়র	-7293
▁মালিকানাধীন	-7294
▁ট্রি	-7295
▁যেটা	-7296
▁সভ্য	-7297
▁Messe	-7298
▁বিক্রিযা়	-7299
▁অটো	-7300
▁নিষ্ক	-7301
▁মেয়ের	-7302
জাহ	-7303
▁উজ্জ্বল	-7304
▁ডব্লিউ	-7305
▁স্থানের	-7306
০৭	-7307
▁তবুও	-7308
ze	-7309
৮৫	-7310
িযা়না	-7311
▁সহযোগিতা	-7312
▁প্যাট	-7313
ীশ	-7314
▁লন্ডনের	-7315
▁অভিযুক্ত	-7316
▁স্ক্র	-7317
▁পর্তুগিজ	-7318
্যাশ	-7319
▁খলিফা	-7320
▁চেন্নাই	-7321
▁টুয়েন্টি২০	-7322
▁ইংরেজিতে	-7323
▁উড	-7324
▁স্বায়	-7325
▁সাধারণভাবে	-7326
▁৩৩	-7327
▁তেলুগু	-7328
▁দফ	-7329
▁দীপ	-7330
▁রুম	-7331
▁Comm	-7332
্যিক	-7333
▁পুনরুদ্ধার	-7334
▁চট্টোপাধ্যায়	-7335
▁পুঁ	-7336
ওলানা	-7337
ream	-7338
▁Just	-7339
কোণ	-7340
▁মুখোপাধ্যায়	-7341
াচ্ছে	-7342
▁গ্রন্থের	-7343
▁জেনে	-7344
্যাপ্ত	-7345
াপিত	-7346
োপুরি	-7347
▁টাইমস	-7348
াপ্তাহ	-7349
▁At	-7350
বিরোধী	-7351
▁run	-7352
▁স্কট	-7353
ুদ্দিন	-7354
gg	-7355
গঠ	-7356
ission	-7357
▁দেখার	-7358
▁৪৭	-7359
▁ডাকা	-7360
▁বিকশিত	-7361
▁told	-7362
▁ধন্য	-7363
নির্মাণ	-7364
ষ্ঠানিক	-7365
কোষ	-7366
▁জিও	-7367
▁শাখার	-7368
▁লস	-7369
াতেই	-7370
▁সাহেব	-7371
ভূমির	-7372
▁অগ্ন	-7373
▁এসময়	-7374
▁মধ্যমা	-7375
▁প্রশংস	-7376
▁15	-7377
াকালে	-7378
eds	-7379
▁rest	-7380
স্তান	-7381
▁সম্মেলন	-7382
ামীর	-7383
▁বেশী	-7384
▁বৈশ্বিক	-7385
▁video	-7386
০১	-7387
▁খোদ	-7388
▁পারবেন	-7389
▁৷	-7390
lobal	-7391
▁গোষ্ঠীর	-7392
▁হংকং	-7393
▁স্প্যান	-7394
▁খেত	-7395
▁সংস্থাটি	-7396
নিস	-7397
▁ভেবে	-7398
▁কমান্ড	-7399
▁শ্ল	-7400
▁হি	-7401
▁Ver	-7402
▁ওকে	-7403
▁called	-7404
▁পৃষ্ঠপোষ	-7405
▁জমির	-7406
▁বিপুল	-7407
▁রেজিম	-7408
▁তাস	-7409
▁বনাম	-7410
▁সাময়িক	-7411
জিন	-7412
aring	-7413
▁এসেছিল	-7414
▁John	-7415
▁ব্রড	-7416
▁ঈশ্বরের	-7417
▁অক্টোবরে	-7418
▁শরীর	-7419
▁পারেনি	-7420
রেখা	-7421
▁same	-7422
▁সর্বনিম্ন	-7423
▁Come	-7424
▁রৌ	-7425
▁anything	-7426
▁পুরোপুরি	-7427
▁বরি	-7428
▁পরপর	-7429
▁দুধ	-7430
▁মুদ্রা	-7431
▁বোর্ডের	-7432
▁ইউসু	-7433
নিবেশিক	-7434
ross	-7435
▁হেম	-7436
▁হুমকি	-7437
▁শুভ	-7438
▁ভেতরে	-7439
▁রিসার্চ	-7440
োকা	-7441
▁রাহ	-7442
▁৫৫	-7443
▁Face	-7444
▁সমন্বয়	-7445
▁person	-7446
▁স্টেশনের	-7447
▁অপরের	-7448
▁গণনা	-7449
ific	-7450
▁খ্যাত	-7451
▁অবস্থানে	-7452
▁ফট	-7453
▁কোথা	-7454
▁জ্যেষ্ঠ	-7455
কতা	-7456
▁read	-7457
▁বাগান	-7458
,"	-7459
▁চারপাশে	-7460
▁যুক্তরাজ্য	-7461
▁জানানো	-7462
জিৎ	-7463
▁বিনোদন	-7464
▁ওড়িশ	-7465
▁শিক্ষাপ্রতি	-7466
▁কুরআ	-7467
▁চাহিদা	-7468
কী	-7469
▁dead	-7470
▁দোকান	-7471
দশ	-7472
ural	-7473
▁নেদারল্যান্ড	-7474
arch	-7475
▁দশম	-7476
▁সংখ্যাগরিষ্ঠ	-7477
▁জীবিত	-7478
▁উচ্চতর	-7479
▁Sa	-7480
▁নাগরিকদের	-7481
৪৬	-7482
▁mean	-7483
▁বিনিময়ে	-7484
০৬	-7485
▁স্থাপনা	-7486
1.	-7487
▁গেমসে	-7488
▁অপসারণ	-7489
oney	-7490
▁দাখ	-7491
▁heavens	-7492
▁চরিত্রের	-7493
দম	-7494
▁চরম	-7495
িতিতে	-7496
▁প্রতিবেশ	-7497
▁মন্দিরটি	-7498
my	-7499
▁বাহর	-7500
▁rel	-7501
▁মস্তি	-7502
▁প্রজাতন্ত্রের	-7503
▁ভবনের	-7504
গি	-7505
ane	-7506
▁খু	-7507
▁বোঝা	-7508
▁চালায়	-7509
▁পর্যালোচনা	-7510
▁অবত	-7511
▁mess	-7512
▁কাগজ	-7513
▁ফাত	-7514
▁লোকদের	-7515
▁mat	-7516
▁গবেষক	-7517
গামী	-7518
▁গাই	-7519
পোর্ট	-7520
▁প্রত্নতাত্ত্বিক	-7521
▁চ্যাপ	-7522
▁ঝুঁকি	-7523
▁শুক্র	-7524
▁ভাইরাস	-7525
▁অক্সফোর্ড	-7526
তারা	-7527
▁আমলে	-7528
▁অসাধারণ	-7529
▁মুম্বাই	-7530
▁গুজর	-7531
▁ব্রিট	-7532
▁ধারণার	-7533
▁support	-7534
▁ভারী	-7535
▁শিক্ষাবিদ	-7536
▁রেন	-7537
▁son	-7538
▁month	-7539
▁স্পেনের	-7540
rain	-7541
জিস্ট	-7542
▁৩৭	-7543
বিজ্ঞানে	-7544
▁স্বাগতিক	-7545
▁সংকেত	-7546
গতের	-7547
ার্ক	-7548
▁kind	-7549
▁মাউন্ট	-7550
▁মানচিত্র	-7551
▁থাম	-7552
▁কার্যালয়	-7553
chool	-7554
▁বার্ল	-7555
▁রেখেছে	-7556
▁করছিল	-7557
▁certain	-7558
ode	-7559
▁টিম	-7560
▁তাৎ	-7561
▁দিত	-7562
ডা়নোর	-7563
▁সৈনিক	-7564
▁হাদিস	-7565
▁স্টেশনটি	-7566
▁গোয়েন্দা	-7567
▁বসন্ত	-7568
▁হাওযা়	-7569
ীতা	-7570
▁fore	-7571
▁হু	-7572
াণিতিক	-7573
▁বিস্তারিত	-7574
▁হয	-7575
reed	-7576
▁বাংলাদেশি	-7577
পদক	-7578
▁জংশ	-7579
৯৫	-7580
াতো	-7581
▁সেপ্টেম্বরে	-7582
▁Hey	-7583
▁রান্না	-7584
▁বিষয়বস্তু	-7585
ূন	-7586
▁মরি	-7587
▁টিকে	-7588
▁উপদেষ্টা	-7589
থন	-7590
▁হ্যাম	-7591
জী	-7592
▁শিষ্য	-7593
▁children	-7594
▁করব	-7595
▁ঘটন	-7596
▁ইন্দ্র	-7597
াপ্তাহিক	-7598
▁গণতান্ত্রিক	-7599
▁নূর	-7600
▁themselves	-7601
▁৩৪	-7602
্বের	-7603
▁রাব	-7604
রিদ্র	-7605
▁city	-7606
▁অগ্নি	-7607
▁সম্পাদনা	-7608
▁এডওযা়র্ড	-7609
▁নিউজিল্যান্ডের	-7610
▁Here	-7611
নিং	-7612
অর্থ	-7613
স্যু	-7614
ৃঙ্খ	-7615
▁ভ্যাল	-7616
▁others	-7617
▁নবম	-7618
▁Indian	-7619
▁গান্ধী	-7620
্ডা	-7621
▁12	-7622
দৈর্ঘ	-7623
▁প্রাপ্তবয়স্ক	-7624
ংসের	-7625
▁মাক	-7626
▁says	-7627
▁Egypt	-7628
▁ভল	-7629
▁উৎসবে	-7630
▁শরীরের	-7631
▁ডাক্তার	-7632
▁৩৮	-7633
▁আয়ত	-7634
▁বংশধর	-7635
▁উজ	-7636
▁হাওডা়	-7637
ton	-7638
ুলি	-7639
োলেন	-7640
▁সড়	-7641
▁গুলো	-7642
▁অন্ধ্র	-7643
▁মহাবিশ	-7644
▁অফিসিযা়ল	-7645
▁বলেছে	-7646
▁নুর	-7647
্যারি	-7648
▁একত্রে	-7649
▁বন্দ্যোপাধ্যায়	-7650
▁এক্ষ	-7651
▁resp	-7652
lished	-7653
▁শেযা়র	-7654
▁মধ্যযুগীয়	-7655
▁until	-7656
▁includ	-7657
রাট	-7658
▁cor	-7659
▁days	-7660
▁ত্ব	-7661
▁Kh	-7662
▁police	-7663
▁চিঠি	-7664
ম্মদ	-7665
▁হাইক	-7666
▁গোডা়র	-7667
▁জামাল	-7668
ক্ষেত্র	-7669
▁punishment	-7670
ায়কের	-7671
▁thought	-7672
▁জার্নাল	-7673
▁আটটি	-7674
▁মেয়র	-7675
▁online	-7676
▁সান্ত	-7677
▁উৎসর্গ	-7678
▁সমীকরণ	-7679
▁Am	-7680
▁মীর	-7681
▁এসেছিলেন	-7682
▁টের	-7683
▁পেল	-7684
▁আজার	-7685
▁যেগুলো	-7686
▁সুতরাং	-7687
▁সেন্ট্রাল	-7688
▁fin	-7689
▁activ	-7690
ati	-7691
soci	-7692
র্মান	-7693
▁আস্ত	-7694
▁পূরণ	-7695
▁অধ্যক্ষ	-7696
▁পদত্যাগ	-7697
ভিষ	-7698
▁char	-7699
▁পারদর্শ	-7700
▁ভাডা়	-7701
পাক	-7702
োলি	-7703
▁17	-7704
▁stop	-7705
▁হিট	-7706
ডব্লিউ	-7707
▁ইতিবাচক	-7708
াঘ	-7709
▁৪৯	-7710
▁৪টি	-7711
ality	-7712
জেন্ট	-7713
▁৬৫	-7714
ডো	-7715
▁Are	-7716
▁১৯৪২	-7717
▁দৃষ্টিভঙ্গি	-7718
▁কানাডার	-7719
্নার	-7720
ুয়েল	-7721
চল	-7722
▁আগ্রহী	-7723
▁কূট	-7724
▁তেজ	-7725
ammad	-7726
▁ইংল্যান্ডে	-7727
ক্তা	-7728
প্রায়	-7729
▁লাগে	-7730
▁অধ্যায়	-7731
▁যোগাযোগের	-7732
▁নাচ	-7733
▁সহায়ক	-7734
▁অভিযানের	-7735
ye	-7736
লেস	-7737
▁গুগল	-7738
▁পাঠিয়ে	-7739
▁কিংবদন্তি	-7740
▁মধ্যমাঠের	-7741
▁ob	-7742
▁নজরুল	-7743
দ্বীপের	-7744
▁একীভূত	-7745
▁ver	-7746
পশ্চিমে	-7747
ames	-7748
▁শরণ	-7749
▁মাথায়	-7750
হল	-7751
▁ন্য	-7752
▁each	-7753
▁বিক্রম	-7754
▁ছাত্রদের	-7755
▁কমিশনের	-7756
গিত	-7757
হাই	-7758
isc	-7759
rist	-7760
কর্ত	-7761
িকেশন	-7762
▁মোহন	-7763
▁সবকিছু	-7764
▁স্মিথ	-7765
▁সমাবেশ	-7766
▁আফগানিস্তান	-7767
▁live	-7768
ording	-7769
৮৬	-7770
▁serv	-7771
▁দেবে	-7772
▁quest	-7773
স্থানের	-7774
তলা	-7775
▁৫২	-7776
▁den	-7777
শাযা়র	-7778
▁three	-7779
▁নাটকে	-7780
oint	-7781
▁ধন্যবাদ	-7782
▁নিয়েছিল	-7783
mber	-7784
▁ইন্দো	-7785
▁অর্ডার	-7786
rib	-7787
ways	-7788
▁কোরিযা়	-7789
▁রাস্তায়	-7790
▁dist	-7791
০৪	-7792
মুখী	-7793
▁ইসম	-7794
▁কৈ	-7795
▁গরম	-7796
▁ভালবাস	-7797
▁পঞ্চায়েত	-7798
বৃত্ত	-7799
▁বরিশাল	-7800
▁মাটিতে	-7801
▁দাখিল	-7802
▁ব্রোঞ্জ	-7803
▁আগ্নে	-7804
ধরনের	-7805
▁স্ট্যান্ড	-7806
▁বৃষ্টিপাত	-7807
গ্রাফ	-7808
▁ক্লিন	-7809
▁আব্বাস	-7810
▁ব্লকের	-7811
োগ্রাফি	-7812
▁বেরিয়ে	-7813
▁Those	-7814
oon	-7815
বাইজ	-7816
▁সংকলন	-7817
ঘা	-7818
▁ভ্যান	-7819
▁Facebook	-7820
▁কার্যকরী	-7821
▁মিযা়ন	-7822
ann	-7823
র্গঠ	-7824
▁মঙ্গোল	-7825
▁সম্পত্তি	-7826
▁কলা	-7827
বাড়ি	-7828
▁সকাল	-7829
রাফ	-7830
▁কবির	-7831
▁ডানহাতে	-7832
বাক	-7833
ডা়ল	-7834
▁since	-7835
▁করছিলেন	-7836
’’	-7837
▁কাই	-7838
▁Where	-7839
▁family	-7840
▁সিন্ধু	-7841
▁সৌন্দর	-7842
rop	-7843
udd	-7844
▁চলছে	-7845
▁১৯৩৯	-7846
০৩	-7847
৮৭	-7848
▁নামানুসারে	-7849
▁লন্ডনে	-7850
▁১৯৪৪	-7851
aken	-7852
▁দমন	-7853
বর্তমানে	-7854
▁ক্রিকেটের	-7855
▁high	-7856
▁উইকে	-7857
▁ইব্রাহ	-7858
▁বালিকা	-7859
▁ল্যান্ড	-7860
▁মতবাদ	-7861
▁সাস	-7862
▁প্রান্তে	-7863
the	-7864
ষদের	-7865
▁জাভ	-7866
▁অক্ষর	-7867
▁বিমানবন্দ	-7868
ciety	-7869
ither	-7870
▁খোঁ	-7871
▁কাঠের	-7872
▁বেশিরভাগই	-7873
ঘ্রই	-7874
▁পতন	-7875
▁number	-7876
▁বর্ণের	-7877
▁উৎপাদনের	-7878
দেহ	-7879
▁ভিক্ষ	-7880
▁দখ	-7881
▁চেত	-7882
▁স্থাপনের	-7883
ডিও	-7884
ready	-7885
▁জনসাধারণের	-7886
▁কৌত	-7887
▁বিচারক	-7888
▁কেপ	-7889
adesh	-7890
ama	-7891
▁পিএইচডি	-7892
ky	-7893
▁আধিপ	-7894
াবাদের	-7895
▁দা	-7896
টিভি	-7897
▁সম্মেলনে	-7898
▁পেছনে	-7899
▁আবহাওযা়	-7900
▁অ্যাট	-7901
▁রিযা়	-7902
▁টম	-7903
▁mer	-7904
▁এলাক	-7905
▁কষ্ট	-7906
ৃক্ত	-7907
▁সপ্তাহে	-7908
▁স্টেশনে	-7909
▁বিতর্কিত	-7910
3.	-7911
▁ফসল	-7912
▁থাকাকালীন	-7913
▁ডিক	-7914
▁অশ্ব	-7915
▁ভূখণ্ড	-7916
▁প্রশান্ত	-7917
▁ডানার	-7918
▁iss	-7919
▁coll	-7920
স্থায়ী	-7921
▁পানীয়	-7922
▁স্ত্রীর	-7923
▁দরিদ্র	-7924
▁অনেকগুলো	-7925
▁গর	-7926
▁জম্ম	-7927
▁ঝাড়	-7928
▁সহজেই	-7929
▁opp	-7930
▁both	-7931
▁করিম	-7932
োনো	-7933
▁তল	-7934
▁প্রবণ	-7935
চাই	-7936
▁মিথ্যা	-7937
▁fight	-7938
▁শহরটির	-7939
োজিত	-7940
▁কেল	-7941
ষ্ঠিত	-7942
▁আইএস	-7943
▁গানে	-7944
জাতীয়	-7945
▁প্যাল	-7946
▁পার্বত্য	-7947
▁কারো	-7948
▁today	-7949
▁মেশিন	-7950
▁reve	-7951
▁এপর্যন্ত	-7952
াতিক	-7953
োশ	-7954
▁ইবন	-7955
ক্তির	-7956
▁গাড়	-7957
ek	-7958
▁চাচ	-7959
▁পরিধান	-7960
▁ইঞ্চি	-7961
▁মতামত	-7962
▁Har	-7963
▁১৯৩৭	-7964
▁অঙ্গরাজ	-7965
▁ডানহাতি	-7966
▁সময়কাল	-7967
▁প্রাসাদ	-7968
▁কিনে	-7969
▁few	-7970
▁Arab	-7971
▁কোযা়ন্ট	-7972
▁সরে	-7973
▁National	-7974
ারম্ভ	-7975
▁গোলে	-7976
▁doing	-7977
▁information	-7978
৯৮	-7979
▁Sc	-7980
▁প্রদর্শনী	-7981
াসহ	-7982
▁ইউটিউ	-7983
▁বার্ন	-7984
▁সঙ্গীতের	-7985
4.	-7986
eg	-7987
২০১৩	-7988
▁Russ	-7989
ঞ্জস্য	-7990
ুকু	-7991
▁রিক	-7992
▁টাউন	-7993
▁কিছুদিন	-7994
une	-7995
▁সামনের	-7996
▁ইনস্টিটিউ	-7997
▁সৎ	-7998
▁আলোর	-7999
▁সোনার	-8000
▁ক্যামের	-8001
▁স্তম্ভ	-8002
▁brother	-8003
্যব	-8004
▁বৈদিক	-8005
▁কাউন্সিলের	-8006
মধ্যে	-8007
▁অস্থায়ী	-8008
▁বাসিন্দা	-8009
▁সাপ্তাহিক	-8010
▁১৯৩৬	-8011
▁প্রতিস্থাপন	-8012
গরে	-8013
▁ভাগে	-8014
▁গ্রেগর	-8015
▁পাইল	-8016
▁সুদ	-8017
▁হযরত	-8018
▁ع	-8019
▁দর্শনের	-8020
▁বিজ্ঞাপন	-8021
সাদ	-8022
▁আশেপাশের	-8023
▁নোট	-8024
▁ইতিহাসবিদ	-8025
▁understand	-8026
সীম	-8027
জনিত	-8028
▁সম্মাননা	-8029
reen	-8030
োনিযা়	-8031
▁saying	-8032
▁দ্বন্দ্ব	-8033
▁৫১	-8034
দাতা	-8035
▁took	-8036
▁সম্মিলিত	-8037
▁তাছাডা়	-8038
▁নভেম্বরে	-8039
▁girl	-8040
▁নির্মাতা	-8041
▁লেফ	-8042
▁প্রদেশে	-8043
▁শাসনামলে	-8044
ator	-8045
▁লর	-8046
ুপদী	-8047
▁বক্তব্য	-8048
oul	-8049
▁কিম	-8050
▁লুইস	-8051
▁সংজ্ঞা	-8052
▁কর্মীদের	-8053
▁টুইট	-8054
▁প্রথা	-8055
▁pri	-8056
▁শরী	-8057
light	-8058
▁la	-8059
▁পরেই	-8060
মধ্য	-8061
▁শীতল	-8062
▁গ্রাফ	-8063
▁নির্ণয়	-8064
▁Ser	-8065
anguage	-8066
▁সংলগ্ন	-8067
োযা়ন	-8068
▁কথিত	-8069
▁জোসেফ	-8070
▁done	-8071
▁পত্রিকায়	-8072
▁Yeah	-8073
৯৬	-8074
▁সোহ	-8075
6.	-8076
▁Bl	-8077
▁টেলি	-8078
▁ঘটেছিল	-8079
▁শীঘ্রই	-8080
1,	-8081
▁Su	-8082
পুত্র	-8083
▁Ap	-8084
ison	-8085
▁স্টক	-8086
▁become	-8087
▁কানাডা	-8088
▁Yes	-8089
▁খনন	-8090
িক্ষেপ	-8091
ondon	-8092
▁American	-8093
▁International	-8094
৭৬	-8095
▁ang	-8096
▁যেকোনো	-8097
▁তৃণ	-8098
▁কর্নেল	-8099
▁মিনিটে	-8100
▁সিপি	-8101
▁Indeed	-8102
▁আকৃতির	-8103
▁প্রাণীর	-8104
িস্ক	-8105
▁fuck	-8106
কাম	-8107
▁কাক	-8108
ত্তির	-8109
▁সেগুলি	-8110
▁বিপ্লবের	-8111
▁তত্ত্বের	-8112
▁১৯৩৮	-8113
▁খেলতেন	-8114
শ্রুতিতে	-8115
ৃত্যু	-8116
▁রাজি	-8117
▁টার্মিনাল	-8118
▁বিন্দ	-8119
▁মরু	-8120
▁তিনজন	-8121
▁অট	-8122
▁অনেকেই	-8123
ox	-8124
▁নল	-8125
নির্ব	-8126
▁পররাষ্ট্র	-8127
▁স্বর	-8128
▁সমাধি	-8129
▁লেক	-8130
▁গণমাধ্য	-8131
▁ঔপনিবেশিক	-8132
খিক	-8133
ইস	-8134
▁তহবিল	-8135
▁অভিযোগে	-8136
ফু	-8137
▁প্রমুখ	-8138
▁দিল্লির	-8139
িমার	-8140
▁একাডেমিক	-8141
▁pray	-8142
▁১৯৩৩	-8143
▁অজানা	-8144
▁মানিক	-8145
▁হার্ট	-8146
velop	-8147
▁ক্রস	-8148
াওযা়র	-8149
▁চালিত	-8150
▁দেশীয়	-8151
▁পুনর্ব	-8152
▁প্রজনন	-8153
▁জানুযা়রিতে	-8154
▁bre	-8155
ani	-8156
umb	-8157
▁উপকূলীয়	-8158
▁গির	-8159
▁point	-8160
▁অ্যাপ্ল	-8161
▁রিভ	-8162
▁গ্রিন	-8163
৪২	-8164
নাগ	-8165
ক্ষমতা	-8166
▁ত্রুটি	-8167
▁আরোপ	-8168
▁সাঁতার	-8169
▁সম্মানিত	-8170
কার্য	-8171
ography	-8172
▁সংশোধন	-8173
▁হত্যাক	-8174
▁ফেডারেল	-8175
মূ	-8176
▁inte	-8177
▁অনুপস্থ	-8178
মল	-8179
amb	-8180
োক্ত	-8181
rought	-8182
▁stand	-8183
▁sim	-8184
irect	-8185
▁এবার	-8186
▁খুলে	-8187
▁জন্যও	-8188
▁প্রস্তুতি	-8189
5.	-8190
বাড়ী	-8191
▁বিস্ম	-8192
▁already	-8193
▁মাওলানা	-8194
▁সংগঠনের	-8195
▁পাহাড়ের	-8196
▁পুরস্কারে	-8197
ober	-8198
▁টোক	-8199
▁মহাপ	-8200
▁কৃষক	-8201
রক্ষক	-8202
▁কেননা	-8203
▁বৈষ্ণ	-8204
্ট্রি	-8205
▁কোথাও	-8206
▁ফাস্ট	-8207
▁রাস্তার	-8208
▁ইউসুফ	-8209
▁মিনার	-8210
▁বক্তৃতা	-8211
▁Fe	-8212
▁আগত	-8213
▁টান	-8214
augh	-8215
▁নাগাদ	-8216
▁আর্মেন	-8217
▁পাথরের	-8218
▁নিয়োজিত	-8219
ably	-8220
▁তাডা়	-8221
▁জয়ের	-8222
▁স্টাড	-8223
▁নিয়েছেন	-8224
▁এক্ষেত্রে	-8225
তিনি	-8226
েলার	-8227
▁জাগ	-8228
াঙ্গা	-8229
▁১৯৩৫	-8230
▁যৌথভাবে	-8231
▁মুখ্যমন্ত্রী	-8232
▁মেস	-8233
▁ফিল্ড	-8234
▁ফেন	-8235
▁যেত	-8236
wards	-8237
▁নর্থ	-8238
▁দূতাব	-8239
িসা	-8240
atic	-8241
▁pop	-8242
▁দ্বীপে	-8243
▁চ্যাম্পিয়নশীপ	-8244
▁মুম্বই	-8245
▁পার্শ্ববর্তী	-8246
▁উপত্যকা	-8247
▁প্রারম্ভ	-8248
▁৫টি	-8249
▁সুবিধ	-8250
▁কারখানা	-8251
▁কমনওয়েল	-8252
ধারী	-8253
▁চালানো	-8254
▁ট্র্যাক	-8255
▁মৈ	-8256
াসেব	-8257
▁১৯২৯	-8258
▁জংশন	-8259
▁মল্ল	-8260
ুখী	-8261
urity	-8262
▁Some	-8263
▁move	-8264
▁কম্ব	-8265
▁স্টেডিযা়মে	-8266
কিন	-8267
▁),	-8268
▁মার্শাল	-8269
সিসি	-8270
▁অবকাঠ	-8271
▁ইরানি	-8272
▁সিস্টেমের	-8273
▁নৃ	-8274
তামূলক	-8275
সংখ্যা	-8276
▁স্বায়ত্ত	-8277
০২	-8278
▁Phot	-8279
▁গম্ব	-8280
▁১৯৪১	-8281
▁ডেভেল	-8282
▁নাসির	-8283
▁during	-8284
▁স্পোর্টস	-8285
চয়	-8286
▁নও	-8287
২০১২	-8288
▁জাতিগত	-8289
-2	-8290
▁stre	-8291
▁কোর্ট	-8292
▁চলাকালীন	-8293
ense	-8294
েজার	-8295
▁ডেল	-8296
▁মোঃ	-8297
▁ফাংশন	-8298
৫৫	-8299
৯৭	-8300
▁বিগ	-8301
▁শপথ	-8302
▁স্ফ	-8303
ক্ষার	-8304
▁পরাজ	-8305
▁বৈষম	-8306
▁সংখ্যাল	-8307
▁faith	-8308
৮৮	-8309
son	-8310
খের	-8311
রিন	-8312
▁ভোল	-8313
▁উলুম	-8314
ন্ধন	-8315
▁থাই	-8316
▁সহস্র	-8317
'।	-8318
▁সুনাম	-8319
▁পুনর্গঠ	-8320
টপ	-8321
চেল	-8322
▁অহ	-8323
▁সেঞ্চুরি	-8324
▁ফলশ্রুতিতে	-8325
weet	-8326
এফসি	-8327
▁খাবারের	-8328
▁পদার্থের	-8329
▁أ	-8330
▁এপ	-8331
ঙ্কার	-8332
▁state	-8333
▁Muh	-8334
▁অনি	-8335
▁১৯৩২	-8336
▁ফুটবলে	-8337
▁চেয়েছিলেন	-8338
শো	-8339
▁author	-8340
▁আজারবাইজ	-8341
িকর	-8342
▁রোধ	-8343
▁Per	-8344
▁কেমন	-8345
ha	-8346
ষা	-8347
রাও	-8348
▁signs	-8349
▁পড়েছে	-8350
▁খুশ	-8351
▁নির্যাতন	-8352
▁কর্তৃপক্ষের	-8353
▁অক্সিজ	-8354
▁উত্তীর্ণ	-8355
▁sw	-8356
▁৪৬	-8357
▁খনিজ	-8358
▁রাউন্ড	-8359
▁আযা়রল্যান্ড	-8360
▁মোল	-8361
▁মঞ্জ	-8362
▁ডোম	-8363
▁ভাস্কর্য	-8364
িয়েন	-8365
▁স্থগিত	-8366
▁সুপারিশ	-8367
ries	-8368
▁int	-8369
▁wait	-8370
▁মেরি	-8371
▁কোভিড	-8372
▁সুপ্রিম	-8373
▁বয়সভিত্তিক	-8374
▁মুক	-8375
▁মোজ	-8376
▁কর্পোরেশনের	-8377
”।	-8378
▁fact	-8379
▁বেস	-8380
িন্দা	-8381
▁নেযা়র	-8382
▁বোঝানো	-8383
acy	-8384
ury	-8385
তাস	-8386
▁cre	-8387
▁ক্যাট	-8388
▁মিষ্টি	-8389
▁নষ্ট	-8390
▁প্রমাণিত	-8391
▁পূর্বপুরুষ	-8392
▁সহায়তায়	-8393
▁খেতাব	-8394
▁স্পেন	-8395
▁অপরাজিত	-8396
োড়	-8397
ঙ্গের	-8398
▁ন্যা	-8399
▁হয়৷	-8400
▁gener	-8401
▁আরোহণ	-8402
▁জর্ড	-8403
▁ফর্ম	-8404
▁কামাল	-8405
▁ব্যবসায়িক	-8406
▁ভট্টাচার্য	-8407
▁everything	-8408
▁কোযা়ন্টাম	-8409
▁রণ	-8410
্যুত্থ	-8411
▁কাউকে	-8412
aled	-8413
স্তক	-8414
▁অ্যাথ	-8415
▁বায়ুম	-8416
▁সুইজার	-8417
▁ত্রিপুরা	-8418
▁১৯২৮	-8419
▁জড়িয়ে	-8420
▁সিরিযা়র	-8421
▁relig	-8422
▁এরফলে	-8423
▁ক্যালিফোর্নিযা়	-8424
▁হেই	-8425
▁প্রক্রিযা়র	-8426
গির	-8427
▁বাড়িয়ে	-8428
▁মারাত্মক	-8429
▁ওযা়শিংটন	-8430
২০১৪	-8431
▁বোর	-8432
▁আটলান	-8433
▁উৎসাহিত	-8434
▁মার্টিন	-8435
▁সংসদীয়	-8436
▁প্রতিপক্ষ	-8437
বিধ	-8438
হাউ	-8439
▁অমর	-8440
▁এদিকে	-8441
▁গেট	-8442
▁লেফটেন	-8443
▁বিল্ডিং	-8444
হুদ	-8445
▁অত্যা	-8446
▁ক্রোম	-8447
▁ব্যস্ত	-8448
▁sl	-8449
্টিভ	-8450
▁camp	-8451
▁seen	-8452
▁আবাসিক	-8453
▁মাদ্রাসার	-8454
▁ভূগোল	-8455
ৎকার	-8456
▁ক্ষত	-8457
▁ঘোষণ	-8458
▁নদীতে	-8459
িস্তানের	-8460
গম	-8461
▁সন্	-8462
▁লাতিন	-8463
▁কেন্দ্রগুলির	-8464
▁বলি	-8465
▁জানে	-8466
▁শত্রু	-8467
▁একসময়	-8468
oph	-8469
rand	-8470
▁টেব	-8471
▁মস্তিষ্ক	-8472
৭৭	-8473
▁সুরকার	-8474
দো	-8475
▁সম্পৃক্ত	-8476
▁ل	-8477
▁টাইপ	-8478
▁বলার	-8479
▁ইলেক্ট্র	-8480
▁নির্ভরশীল	-8481
িযা়ং	-8482
▁ঐতিহ্যের	-8483
▁Cl	-8484
ফাইন	-8485
▁শীর্ষস্থানীয়	-8486
ility	-8487
▁জোডা়	-8488
ফারেন্স	-8489
▁যশোর	-8490
▁হবেন	-8491
▁blogg	-8492
▁বিশুদ্ধ	-8493
বেক	-8494
▁তের	-8495
▁page	-8496
ফিন	-8497
২০০০	-8498
▁দ্বৈত	-8499
▁পর্বের	-8500
▁হচ্ছেন	-8501
▁থাইল্যান্ড	-8502
বাজ	-8503
▁book	-8504
ভারতীয়	-8505
▁ঘাঁ	-8506
ladesh	-8507
▁হায়দ্র	-8508
যথ	-8509
ুনিযা়	-8510
▁জম্মু	-8511
▁ফস	-8512
ঙ্কা	-8513
▁১০০০	-8514
ন্ডা	-8515
▁Sci	-8516
▁শাল	-8517
▁আয়ন	-8518
ones	-8519
▁আত্মা	-8520
ভুত	-8521
াবা	-8522
িউল	-8523
▁dr	-8524
▁vis	-8525
▁শতক	-8526
akistan	-8527
▁কর্তৃত্ব	-8528
ারেট	-8529
২০১০	-8530
▁Comp	-8531
▁কালী	-8532
তীর্ণ	-8533
দিক	-8534
বিহীন	-8535
বিদ্যার	-8536
শৈলী	-8537
▁দেহের	-8538
used	-8539
▁mother	-8540
▁আওতায়	-8541
▁জন্মের	-8542
লোড	-8543
দক্ষিণ	-8544
ফেন	-8545
▁ঘুরে	-8546
▁হামিদ	-8547
৪৩	-8548
▁won	-8549
▁পুত	-8550
▁দেবীর	-8551
▁অনেকটা	-8552
▁হ্যারি	-8553
▁অবতীর্ণ	-8554
▁জিতেছিলেন	-8555
align	-8556
▁Afric	-8557
▁শিল্পে	-8558
▁অভ্যন্তরে	-8559
▁ষড়	-8560
ায়নে	-8561
▁সিদ্দ	-8562
▁নিউইয়	-8563
▁বেলজিযা়ম	-8564
▁খল	-8565
▁গাণিতিক	-8566
▁সমুদ্রের	-8567
টিই	-8568
যাপ	-8569
▁(_	-8570
▁৪০০	-8571
▁১৯৩৪	-8572
▁১৯৪৩	-8573
▁উপযোগী	-8574
▁ঘটনায়	-8575
▁Off	-8576
▁bus	-8577
▁ব্রিগ	-8578
yle	-8579
▁এলিজ	-8580
▁চোখে	-8581
▁আর্টস	-8582
▁ফ্রেড	-8583
▁টাওযা়র	-8584
▁১৯৩১	-8585
▁পাখির	-8586
▁হঠ	-8587
▁আল্লাহর	-8588
▁আন্তর্জাতিকে	-8589
দেশে	-8590
▁মেক	-8591
▁কাউন্	-8592
▁196	-8593
স্টের	-8594
▁ঘোডা়	-8595
গ্ধ	-8596
ুমদার	-8597
▁poss	-8598
▁ব্যাব	-8599
▁Did	-8600
▁যাব	-8601
▁নীচে	-8602
৪১	-8603
লোক	-8604
▁হুগ	-8605
লাভিষ	-8606
▁ডেমোক	-8607
▁অতিথি	-8608
▁দৃশ্যমান	-8609
▁সাফ	-8610
▁গেমস	-8611
▁লাইফ	-8612
▁থেকেও	-8613
▁আলোচনার	-8614
▁remember	-8615
▁pp	-8616
▁দারুল	-8617
▁এন্টার	-8618
▁উপলব্ধি	-8619
▁লাইব্রেরি	-8620
্মি	-8621
ually	-8622
▁hard	-8623
▁রানী	-8624
▁কাপড়	-8625
itiz	-8626
২০০১	-8627
▁পাদ	-8628
সূত্র	-8629
▁meet	-8630
▁একাদ	-8631
▁খ্রী	-8632
▁ধাতু	-8633
ংক্রিয়	-8634
গর্ভ	-8635
▁স্বাদ	-8636
▁gave	-8637
▁গোলাম	-8638
▁contin	-8639
২০১৫	-8640
oices	-8641
▁স্প্যানিশ	-8642
body	-8643
▁intern	-8644
▁মুজিবুর	-8645
▁different	-8646
▁১৯২১	-8647
▁মহকুম	-8648
▁বাছাইপ	-8649
▁yet	-8650
▁full	-8651
▁যানবাহ	-8652
▁তুরস্কের	-8653
রণ্য	-8654
▁দরজা	-8655
▁ক্রিস্ট	-8656
জুড়ে	-8657
▁প্রোটিন	-8658
▁বিকাশের	-8659
▁অণু	-8660
▁ফাইনাল	-8661
▁ফিল্মফেযা়র	-8662
▁boy	-8663
▁অবরোধ	-8664
▁বার্সেল	-8665
▁স্ট্রিট	-8666
▁আজাদ	-8667
▁লঙ্ঘ	-8668
▁লিপি	-8669
▁brought	-8670
িসন	-8671
▁ri	-8672
▁বেসরকারী	-8673
▁প্রকৌশলী	-8674
▁স্থলাভিষ	-8675
▁চক	-8676
▁প্রকৃতপক্ষে	-8677
▁inst	-8678
▁বন্ধন	-8679
▁ম্যানেজার	-8680
▁Car	-8681
▁জোহ	-8682
▁১৯২৪	-8683
▁মজুমদার	-8684
িরের	-8685
▁attack	-8686
▁বর্ষপঞ্জির	-8687
▁ফেসবুক	-8688
▁হোল	-8689
ان	-8690
▁সিরিযা়	-8691
▁আসবে	-8692
▁light	-8693
▁পরিচালনায়	-8694
ুহ	-8695
▁কিল	-8696
▁জেস	-8697
ন্দাজ	-8698
কাজ	-8699
▁Pres	-8700
▁কন্ন	-8701
▁টি২০	-8702
▁সমকামী	-8703
▁ডাব্লিউডাব্লিউ	-8704
ষার	-8705
র্পণ	-8706
▁সফলতা	-8707
▁বঙ্গবন্ধু	-8708
▁সূর্যের	-8709
৫০০	-8710
▁সোনা	-8711
▁নমুনা	-8712
িওপ	-8713
২০০৭	-8714
iness	-8715
ইসলাম	-8716
▁ড্রাগ	-8717
▁ইতালির	-8718
েয়	-8719
▁অফিসে	-8720
▁Rep	-8721
rence	-8722
▁(201	-8723
▁পাঠান	-8724
▁সম্পূর্ণরূপে	-8725
▁স্থলাভিষিক্ত	-8726
▁সুরক্ষিত	-8727
▁ডক্টর	-8728
▁দ্বাদশ	-8729
তিবাচক	-8730
▁গেছেন	-8731
▁ইব্রাহিম	-8732
▁পরিদর্শন	-8733
▁কুক	-8734
▁রেখা	-8735
ঙ্ক্ষ	-8736
▁organ	-8737
জিও	-8738
▁বলছে	-8739
ভু	-8740
উইন	-8741
▁অভিম	-8742
▁পরস্প	-8743
▁সমিতির	-8744
▁মৌল	-8745
▁৩য়	-8746
’,	-8747
ঞ্জার	-8748
▁চাও	-8749
▁wit	-8750
▁সজ্জিত	-8751
▁জ্ঞানের	-8752
aces	-8753
▁ফয়	-8754
▁অতীত	-8755
▁যাবার	-8756
▁উপজাতি	-8757
▁big	-8758
▁আমদান	-8759
▁নিকটে	-8760
র্টার	-8761
▁গঙ্গ	-8762
▁রায়ের	-8763
▁hear	-8764
▁আবির্ভূত	-8765
্ছ	-8766
অনু	-8767
▁ইট	-8768
▁হোযা়ইট	-8769
▁care	-8770
▁বিরল	-8771
▁পার্ল	-8772
▁রেস	-8773
ering	-8774
ানন্দ	-8775
▁মিশ্রণ	-8776
▁প্রস্তাবিত	-8777
▁ফিলিস্তিনি	-8778
টিক্স	-8779
শাসন	-8780
▁শ্বাস	-8781
▁স্বেচ্ছাসেব	-8782
জনে	-8783
গণিত	-8784
র্দার	-8785
volution	-8786
▁sir	-8787
▁দের	-8788
▁ক্রমাগত	-8789
▁ক্ষমতায়	-8790
ার্ভ	-8791
▁কারাগারে	-8792
▁cri	-8793
▁অভিজাত	-8794
পান	-8795
▁Vol	-8796
▁বৈঠ	-8797
োত্তর	-8798
▁আগ্র	-8799
▁রক্ষার	-8800
▁প্রেক্ষাপ	-8801
ঞ্চল	-8802
▁ভিল	-8803
▁লেগে	-8804
osition	-8805
▁মাদ্রি	-8806
ৌধ	-8807
▁মহাভার	-8808
▁ইন্দোনেশিযা়র	-8809
▁আত্মীয়	-8810
▁টুর্নামেন্ট	-8811
▁Us	-8812
ডম	-8813
▁Qu	-8814
▁মহাসড়ক	-8815
৯২	-8816
্কেল	-8817
২০০৮	-8818
২০০৯	-8819
▁Ne	-8820
▁ডাউন	-8821
7.	-8822
মিশ্র	-8823
▁Muhammad	-8824
▁ann	-8825
▁কাপুর	-8826
▁ম্যাক্স	-8827
▁গুহ	-8828
▁ঘটায়	-8829
▁বিপর্য	-8830
ভির	-8831
▁রিল	-8832
▁আদালতে	-8833
মন্ত্রীর	-8834
▁বৈচিত্র্য	-8835
৭৮	-8836
▁Mal	-8837
▁যাদ	-8838
▁বহুল	-8839
▁শব্দটির	-8840
▁political	-8841
▁ইনফ	-8842
▁অর্থনীতির	-8843
▁শর্মা	-8844
▁please	-8845
।।	-8846
▁করবো	-8847
▁বৈষ্ণব	-8848
▁পণ	-8849
নিটি	-8850
সূচক	-8851
▁দারিদ্র	-8852
ারিত	-8853
▁উল্লেখ্য	-8854
▁প্রবর্তন	-8855
▁সংক্ষেপে	-8856
স্টন	-8857
▁ছদ্	-8858
▁বাহাদুর	-8859
▁চ্যাম্পিয়নশিপে	-8860
রাণিক	-8861
▁নিষেধাজ্ঞা	-8862
▁mem	-8863
▁ডাচ	-8864
▁মিজ	-8865
▁পাত্র	-8866
▁নিঃস	-8867
▁ক্ষমা	-8868
▁command	-8869
▁সংস্করণে	-8870
ত্যা	-8871
▁আগমন	-8872
ডস	-8873
▁ফুটবলের	-8874
েরও	-8875
োজা	-8876
▁knows	-8877
▁সিভিল	-8878
▁রাজনীতিতে	-8879
omb	-8880
▁ap	-8881
▁av	-8882
▁নিত	-8883
▁ভাঙ	-8884
▁হেড	-8885
▁তোলেন	-8886
▁উপায়ে	-8887
স্থানে	-8888
▁গোত্রের	-8889
▁মহাবিদ্যালয়	-8890
rah	-8891
ক্ষাংশ	-8892
▁মানবিক	-8893
▁ব্যাঙ্ক	-8894
ষ্ণের	-8895
▁ম্যাল	-8896
▁গ্রেগরীয়	-8897
িয়েট	-8898
ason	-8899
ford	-8900
▁ঘূর্ণি	-8901
▁Her	-8902
▁অরুণ	-8903
▁ধারার	-8904
▁উৎসবের	-8905
পৃষ্ঠ	-8906
▁চীনে	-8907
▁ব্রাজিলের	-8908
ভৌ	-8909
্যাটিক	-8910
▁পালিত	-8911
nge	-8912
ained	-8913
▁Christ	-8914
▁account	-8915
any	-8916
chn	-8917
াবলিক	-8918
▁জামে	-8919
▁ট্রেড	-8920
▁London	-8921
▁রক্ষণভাগের	-8922
▁৪২	-8923
▁রেখেছিলেন	-8924
8.	-8925
▁ف	-8926
▁দাশ	-8927
▁thee	-8928
▁তুলতে	-8929
▁স্বর্ণপদক	-8930
পাই	-8931
▁নক্ষ	-8932
▁পতিত	-8933
▁রাইট	-8934
▁হাবিব	-8935
ীকৃত	-8936
▁কারাদ	-8937
▁killed	-8938
▁হাস্যরস	-8939
▁believers	-8940
▁er	-8941
▁আনার	-8942
▁সরকারকে	-8943
▁শাস্ত্রীয়	-8944
▁লেফটেন্যান্ট	-8945
▁আদম	-8946
▁জনাব	-8947
gether	-8948
▁কমনওয়েলথ	-8949
িজম	-8950
▁Get	-8951
▁col	-8952
▁নিশ	-8953
▁case	-8954
▁দলীয়	-8955
▁সমন্বিত	-8956
▁স্বামীর	-8957
▁together	-8958
▁knowledge	-8959
▁প্রচারণা	-8960
▁ব্যক্তিকে	-8961
▁ফেব্রুযা়রিতে	-8962
▁Acc	-8963
▁মোটর	-8964
▁নিক্ষেপ	-8965
▁ব্র্যান্ড	-8966
প্য	-8967
গ্রাহ	-8968
▁নীতির	-8969
▁মূর্ত	-8970
udi	-8971
▁free	-8972
▁বেতার	-8973
▁শুষ্ক	-8974
▁ফ্লাইট	-8975
টায়	-8976
▁জাফর	-8977
▁সংশোধ	-8978
▁ce	-8979
▁১৯১৯	-8980
▁ক্রয়	-8981
ica	-8982
▁ধনী	-8983
▁গীতিকার	-8984
▁মৃত্যুদণ্ড	-8985
▁16	-8986
ত্যের	-8987
▁সেন্স	-8988
ument	-8989
▁social	-8990
read	-8991
াসনের	-8992
▁Look	-8993
৯৩	-8994
িওন	-8995
▁পেট্র	-8996
▁আপেক্ষ	-8997
ইং	-8998
▁কালে	-8999
▁চুরি	-9000
িযা়মের	-9001
▁ভান	-9002
▁টাইট	-9003
কাহিনী	-9004
▁Pakistan	-9005
aster	-9006
▁কাটা	-9007
্যাটার	-9008
ized	-9009
▁stay	-9010
▁টেকনোলজি	-9011
▁প্রবেশের	-9012
▁Bangladesh	-9013
কেরা	-9014
▁হতাশ	-9015
▁system	-9016
▁সুন্নি	-9017
▁ইলেকট্রনিক	-9018
▁translation	-9019
▁et	-9020
▁আগ্নেয়	-9021
▁অবস্থিত৷	-9022
men	-9023
▁একইভাবে	-9024
▁ইন্ডিজের	-9025
▁সংগ্রহের	-9026
▁দিনাজপুর	-9027
▁মধ্যপ্রাচ	-9028
▁far	-9029
▁মদিন	-9030
▁কর্ণাটক	-9031
▁মুক্তিযুদ্ধের	-9032
ole	-9033
▁send	-9034
▁stat	-9035
দিযা়	-9036
▁change	-9037
াসনে	-9038
▁নাক	-9039
▁গোত্র	-9040
▁জাহাজের	-9041
▁প্রযুক্তির	-9042
চালক	-9043
২০০৬	-9044
▁অসাম	-9045
যা়রের	-9046
▁খ্রিষ্টাব্দ	-9047
৯৪	-9048
মেট	-9049
যা়ম	-9050
ched	-9051
▁আঙ্গ	-9052
▁আনোযা়র	-9053
▁হস্তক্ষেপ	-9054
স্তা	-9055
▁চমৎকার	-9056
▁বিক্রয়	-9057
▁ক্ষেত্রেই	-9058
ony	-9059
▁Ju	-9060
▁আঘ	-9061
ছাত্র	-9062
বুল	-9063
য়ো	-9064
▁পৌরসভার	-9065
▁পৌরাণিক	-9066
▁রাজনীতির	-9067
▁হা	-9068
▁true	-9069
ম্যানের	-9070
▁Col	-9071
▁আমিন	-9072
▁চোখের	-9073
▁অক্ষাংশ	-9074
▁আধিপত্য	-9075
ৎস্য	-9076
▁পেট	-9077
▁order	-9078
▁ব্যাকটের	-9079
য়ত	-9080
▁god	-9081
▁ফার্সি	-9082
osp	-9083
▁তিউ	-9084
▁রাষ্ট্রপতির	-9085
▁জব	-9086
▁মাগ	-9087
াবশেষ	-9088
িপূর্ণ	-9089
▁বিক্র	-9090
▁দিলে	-9091
▁বিকির	-9092
▁el	-9093
▁একদল	-9094
▁অনুষদ	-9095
▁সুস্থ	-9096
▁official	-9097
yp	-9098
ামিন	-9099
▁ভিজ	-9100
▁নারীবাদী	-9101
▁আসনে	-9102
▁সুলত	-9103
▁হেরে	-9104
lim	-9105
নবিংশ	-9106
use	-9107
▁(),	-9108
সংস্ক	-9109
▁আউ	-9110
▁এইসব	-9111
▁গল্পের	-9112
unt	-9113
▁৬টি	-9114
▁উত্স	-9115
▁deeds	-9116
▁প্লাস	-9117
াঞ্চলের	-9118
roy	-9119
র্জন	-9120
্বেষ	-9121
▁১৯২২	-9122
▁নেতিবাচক	-9123
িন্ট	-9124
াপক	-9125
্যুর	-9126
চ্যুত	-9127
ারেশনের	-9128
▁আর্দ্র	-9129
20	-9130
▁কারন	-9131
▁বলছি	-9132
▁মসজিদে	-9133
৫৬	-9134
▁prof	-9135
▁নাইজের	-9136
▁বয়স্ক	-9137
▁টিউ	-9138
ডোর	-9139
▁সৈন্যদের	-9140
▁pub	-9141
▁লিব	-9142
বোর্ড	-9143
স্থায়	-9144
▁money	-9145
▁শিশুর	-9146
▁কলেজটি	-9147
▁শিরোনামে	-9148
▁তামিলনাড়ু	-9149
▁ধারণাটি	-9150
▁মুক্তিযোদ্ধ	-9151
▁mor	-9152
▁fire	-9153
▁১৯২৬	-9154
▁ধ্রুব	-9155
২০০৫	-9156
▁থের	-9157
▁ধীর	-9158
conom	-9159
মারের	-9160
▁বাষ্প	-9161
▁মোস্ত	-9162
চাঁ	-9163
▁ব্যবস্থায়	-9164
-'	-9165
▁শাখায়	-9166
▁অনুভূতি	-9167
কোট	-9168
▁পাউন্ড	-9169
ring	-9170
▁rece	-9171
▁এরপরে	-9172
▁যথাযথ	-9173
বাড়িযা়	-9174
ধন	-9175
ামাণ	-9176
▁seem	-9177
▁নিকোল	-9178
▁নৌবাহিনী	-9179
োলন	-9180
শালা	-9181
▁plan	-9182
▁খালি	-9183
▁ডাবল	-9184
▁তেলে	-9185
▁জাপানে	-9186
▁ব্রিগেড	-9187
ield	-9188
▁inf	-9189
▁par	-9190
▁গের	-9191
ব্রিজ	-9192
▁পায়ে	-9193
▁behind	-9194
াবন	-9195
▁পতনের	-9196
▁পরিবেশে	-9197
▁মঠ	-9198
▁def	-9199
▁শৈলী	-9200
▁আদালতের	-9201
▁হোস্ট	-9202
▁জম	-9203
▁রীতি	-9204
atever	-9205
▁অংশটি	-9206
▁hearts	-9207
▁আসামের	-9208
্যাঙ্কিং	-9209
▁সৃষ্টির	-9210
pend	-9211
▁ওটা	-9212
▁সিস	-9213
▁উপাত্ত	-9214
▁সেইসাথে	-9215
2,	-9216
▁পপ	-9217
ware	-9218
▁ছেলের	-9219
▁ফিজ	-9220
▁কনফ	-9221
ories	-9222
▁hour	-9223
ca	-9224
যদি	-9225
▁শ্রেণি	-9226
▁হিসাবেও	-9227
সাং	-9228
▁ঘুর	-9229
▁Please	-9230
▁প্রচারের	-9231
ustr	-9232
▁স্টাডিজ	-9233
্মান	-9234
▁গাঁ	-9235
▁বংশের	-9236
তন্ত্রের	-9237
2)	-9238
্স্ট	-9239
▁মেলা	-9240
idge	-9241
▁ext	-9242
3,	-9243
▁ইরাক	-9244
▁লাইট	-9245
ছুর	-9246
▁house	-9247
▁হত্যাকাণ্ড	-9248
্বিত	-9249
▁গন্ধ	-9250
▁always	-9251
▁সুবিধার	-9252
হো	-9253
▁die	-9254
▁অশোক	-9255
▁গ্রি	-9256
▁বললেন	-9257
▁সিদ্দিক	-9258
▁Messenger	-9259
▁x	-9260
ষ্কার	-9261
▁ধর্মান	-9262
▁প্রতিষ্ঠানটি	-9263
▁জাহান	-9264
▁দাঁডা়য়	-9265
▁সামঞ্জস্য	-9266
▁Mer	-9267
▁১৯২৭	-9268
▁মহানগর	-9269
তুল্য	-9270
ড়িযা়	-9271
▁উপকরণ	-9272
▁Che	-9273
▁proble	-9274
▁বর্ষসেরা	-9275
▁কোণ	-9276
▁বরফ	-9277
▁উদ্ভব	-9278
▁ধ্যান	-9279
▁বসবাসকারী	-9280
▁স্থিতিশীল	-9281
ণি	-9282
▁চৌম্ব	-9283
াবেক্ষণ	-9284
▁লিথ	-9285
▁আপেক্ষিক	-9286
▁স্বয়ংক্রিয়	-9287
▁জলা	-9288
▁ক্লাবটি	-9289
▁খেলোযা়ড়দের	-9290
▁second	-9291
4,	-9292
▁ঘোষিত	-9293
ডিট	-9294
▁Isra	-9295
▁প্রশস্ত	-9296
▁৫৩	-9297
দৈর্ঘ্য	-9298
াবের	-9299
▁সঞ্চাল	-9300
▁জন্	-9301
▁তফসিল	-9302
▁cannot	-9303
▁নাটকের	-9304
▁অন্যদের	-9305
opt	-9306
্তি	-9307
হারা	-9308
▁আরম্ভ	-9309
▁বর্জ	-9310
ুনে	-9311
▁হই	-9312
▁ঋষি	-9313
▁ডিএনএ	-9314
▁প্রণয়ন	-9315
▁বিজয়ের	-9316
▁Stud	-9317
▁Global	-9318
▁শ্রদ্ধা	-9319
▁কূটনৈতিক	-9320
খর	-9321
ালেম	-9322
িকারের	-9323
▁নিশ্চয়	-9324
▁বিনিময়	-9325
▁সমাপ্তি	-9326
▁নিয়ন্ত্রণে	-9327
▁টানা	-9328
▁ফ্যাক্ট	-9329
▁১৯১৮	-9330
▁ভগবান	-9331
▁আক্রমণভাগের	-9332
৫৮	-9333
▁কাচ	-9334
▁near	-9335
▁একাডেমী	-9336
▁খেলেছিলেন	-9337
▁মাল্টি	-9338
ুং	-9339
app	-9340
▁আইয়	-9341
▁করেই	-9342
▁কেজি	-9343
▁কৌতুক	-9344
▁রৌপ্য	-9345
▁উত্তেজ	-9346
▁খ্রিস্টীয়	-9347
9.	-9348
ন্দা	-9349
২০০৪	-9350
▁হাক	-9351
▁বন্যপ্রাণ	-9352
3)	-9353
রক	-9354
▁আছি	-9355
▁নাব	-9356
▁fr	-9357
ffect	-9358
▁viol	-9359
▁সীমা	-9360
▁কমিশনার	-9361
▁দর্শকদের	-9362
ূপে	-9363
▁স্যাট	-9364
▁War	-9365
▁আনতে	-9366
▁খেয়ে	-9367
▁স্থপতি	-9368
▁অধিনায়কের	-9369
uk	-9370
’।	-9371
fic	-9372
ize	-9373
চিক	-9374
ফোন	-9375
▁কপ	-9376
▁আইনে	-9377
▁artic	-9378
▁ভাষ্য	-9379
▁প্রতিবেশী	-9380
yes	-9381
ুইন	-9382
▁With	-9383
▁এজেন্ট	-9384
▁coming	-9385
▁কন্নড়	-9386
▁অভ্যুত্থ	-9387
▁lot	-9388
ষ্টিত	-9389
▁South	-9390
▁শ্রেণির	-9391
▁ফেরত	-9392
▁ক্যান্সার	-9393
▁ডেপ	-9394
▁বলো	-9395
▁story	-9396
▁শিবের	-9397
োলো	-9398
▁থ্র	-9399
▁পর্যাপ্ত	-9400
▁যাক	-9401
ড়ন	-9402
োপলি	-9403
▁face	-9404
▁উপাচার্য	-9405
do	-9406
হির	-9407
জান্ডার	-9408
▁পরিবেশগত	-9409
▁ব্যাংকের	-9410
বতী	-9411
▁যুক্তরাজ্যে	-9412
▁dri	-9413
▁ডেই	-9414
▁বাস্তবায়	-9415
▁উদার	-9416
তাই	-9417
▁বাজে	-9418
▁১৯২৫	-9419
▁আলবেন	-9420
ife	-9421
eter	-9422
rigin	-9423
▁ট্রাই	-9424
▁গম্বুজ	-9425
▁ট্রাস্ট	-9426
▁উচ্চতায়	-9427
▁Ke	-9428
▁art	-9429
▁Nor	-9430
পমেন্ট	-9431
▁Trans	-9432
▁প্রযুক্তিগত	-9433
ঙ্গিক	-9434
▁লাইভ	-9435
▁দেযা়ল	-9436
▁ব্লু	-9437
▁ইতালি	-9438
ুজ্জামান	-9439
পর্য	-9440
▁১৫০	-9441
স্থার	-9442
illion	-9443
▁রন্ধন	-9444
▁অ্যাকাউন্ট	-9445
▁কাদ	-9446
▁বগু	-9447
ান্ডা	-9448
▁বাইজেন্ট	-9449
▁এলিজাবে	-9450
ার্টমেন্ট	-9451
বাসী	-9452
িকেট	-9453
▁দেল	-9454
▁হ্যান্ড	-9455
▁রাষ্ট্রদূত	-9456
ired	-9457
▁কীর	-9458
▁সভা	-9459
▁id	-9460
▁৫৬	-9461
কিলোমিটার	-9462
বিষ	-9463
alis	-9464
▁জিত	-9465
ন্নাথ	-9466
▁দর্শক	-9467
▁দেখেন	-9468
▁কবিতার	-9469
▁প্রাতি	-9470
▁জেলাটির	-9471
▁রহমানের	-9472
▁সমান্তর	-9473
▁মূল্যায়ন	-9474
▁লিড	-9475
যাত্রা	-9476
▁উপাদানের	-9477
▁সন্ত্রাস	-9478
ৎপ	-9479
▁cal	-9480
▁টাঙ্গ	-9481
▁মাথার	-9482
▁সহিংসতা	-9483
▁আফ্রিকায়	-9484
▁Dr	-9485
ামূল	-9486
▁pay	-9487
▁হাদী	-9488
▁তুলনামূলকভাবে	-9489
▁দুইবার	-9490
▁উত্তরসূ	-9491
▁ডির	-9492
▁স্বরূপ	-9493
যা়জ	-9494
▁টেম	-9495
▁উপভোগ	-9496
▁উপন্যাসের	-9497
▁লোকজন	-9498
▁উদ্ভাবন	-9499
▁নেতৃত্বাধীন	-9500
▁নিন	-9501
▁১৯১৪	-9502
▁gl	-9503
২০১৬	-9504
▁আর্মি	-9505
▁তাত্ত্বিক	-9506
▁next	-9507
▁আম্প	-9508
▁মাজার	-9509
▁উপমহাদেশের	-9510
▁১লা	-9511
▁hold	-9512
▁means	-9513
▁সর্বদা	-9514
নির্দিষ্ট	-9515
▁ইন্দোনেশিযা়	-9516
rick	-9517
▁খাই	-9518
াবলম্ব	-9519
▁নৌবাহিনীর	-9520
ows	-9521
ডেট	-9522
লির	-9523
শায়	-9524
▁produ	-9525
▁গোলের	-9526
▁নায়ক	-9527
▁কাটিয়ে	-9528
▁প্রত্যাব	-9529
apan	-9530
▁বর্ম	-9531
▁Journ	-9532
▁ট্রফি	-9533
▁Every	-9534
▁খেলাধ	-9535
▁স্কোর	-9536
dom	-9537
সকে	-9538
িংক	-9539
▁অলি	-9540
▁মুক্তিযুদ্ধ	-9541
সেট	-9542
▁Co	-9543
▁দুটো	-9544
▁আগস্টে	-9545
▁ঘূর্ণিঝ	-9546
ged	-9547
▁kn	-9548
শ্রী	-9549
শীলতা	-9550
▁আবেগ	-9551
▁সংসদে	-9552
হত্যার	-9553
▁পানিতে	-9554
▁প্রারম্ভিক	-9555
▁খেলোযা়ড়ের	-9556
ern	-9557
দণ্ড	-9558
▁জনক	-9559
ীক্ষা	-9560
ৃঙ্খলা	-9561
ইর	-9562
টিও	-9563
াড়ে	-9564
10	-9565
৫৭	-9566
▁Cent	-9567
▁ইস্প	-9568
▁ধর্মে	-9569
সই	-9570
▁আভ	-9571
▁৫ম	-9572
▁সাক	-9573
াবিজ্ঞ	-9574
▁ভারসাম	-9575
▁বিবাহের	-9576
▁রক্ষণাবেক্ষণ	-9577
▁পার্স	-9578
▁প্যাস	-9579
▁সংক্রমণ	-9580
▁হাড়	-9581
▁অবতার	-9582
▁আযা়ত	-9583
▁জেলে	-9584
▁taken	-9585
▁রাজকুমার	-9586
▁মুসলিমদের	-9587
াসিত	-9588
▁হারে	-9589
▁তথ্যের	-9590
▁পরমাণু	-9591
▁বোঝাতে	-9592
▁নযা়	-9593
▁গেয়ে	-9594
▁প্রামাণ	-9595
▁অধিগ্রহণ	-9596
▁অস্ট্রেলিযা়ন	-9597
৯১	-9598
▁em	-9599
িসার	-9600
▁Pri	-9601
ভিদের	-9602
▁১৯১২	-9603
▁পারস্য	-9604
▁যেগুলি	-9605
্ভব	-9606
কল্প	-9607
▁বারবার	-9608
▁blogger	-9609
ban	-9610
▁টো	-9611
▁Most	-9612
▁রঞ্জ	-9613
▁ইযা়র	-9614
▁ভিট	-9615
▁রোব	-9616
▁কল্পনা	-9617
aps	-9618
rol	-9619
োন্ন	-9620
টিক্যাল	-9621
▁ভাইয়ের	-9622
র্বর	-9623
▁সিজ	-9624
▁আটকে	-9625
▁অ্যাক্স	-9626
▁cond	-9627
▁আমেরিকায়	-9628
উড	-9629
▁থিও	-9630
ান্ট	-9631
▁ফজল	-9632
▁stri	-9633
▁পারদর্শী	-9634
টেম	-9635
▁List	-9636
▁এশিযা়য়	-9637
ently	-9638
▁মিলিয়ে	-9639
▁ডন	-9640
োসের	-9641
▁উত্তম	-9642
▁ক্ষেত্রের	-9643
▁পরিকল্পনার	-9644
ুনি	-9645
াইলের	-9646
▁মাসিক	-9647
▁রাজস্ব	-9648
▁উদ্যোগে	-9649
▁উপলক্ষে	-9650
aut	-9651
স্থলে	-9652
ন্ত্রে	-9653
েন্সের	-9654
ভুজ	-9655
ধারা	-9656
ection	-9657
▁অববাহ	-9658
▁সতী	-9659
ান্তে	-9660
▁নেপালি	-9661
▁বৌদ্ধবিহার	-9662
▁hands	-9663
▁রচনার	-9664
▁ছবিটির	-9665
▁নিউইয়র্ক	-9666
▁লেখেন	-9667
▁সংবেদন	-9668
▁জনগোষ্ঠী	-9669
কাস	-9670
েপণ	-9671
▁ru	-9672
▁বিপদ	-9673
▁রোহ	-9674
▁লেগ	-9675
▁journ	-9676
৬৮	-9677
▁{	-9678
aign	-9679
▁চর্চা	-9680
▁সভ্যতার	-9681
▁প্রজন্মের	-9682
ালীর	-9683
▁১৯২৩	-9684
▁মাছের	-9685
▁প্রতিবেদনে	-9686
▁৫৪	-9687
বর্তনের	-9688
▁প্রফেস	-9689
▁ফ্যাশন	-9690
▁বলেছিল	-9691
▁অপেক্ষাকৃত	-9692
bers	-9693
্যাংক	-9694
▁es	-9695
▁দুঃখ	-9696
োনাল্ড	-9697
▁ক্লোর	-9698
▁দযা়	-9699
▁চিকিৎসার	-9700
▁চট্টগ্রামের	-9701
▁ঘন্ট	-9702
▁People	-9703
▁টেক্সট	-9704
াইটে	-9705
▁net	-9706
hi	-9707
▁কোম্পান	-9708
বক	-9709
বৃ	-9710
▁Mor	-9711
▁bad	-9712
▁হার্ভ	-9713
▁friend	-9714
▁মনোভাব	-9715
▁worship	-9716
অভ	-9717
bably	-9718
▁Have	-9719
▁অধিদ	-9720
▁বিজে	-9721
যুদ্ধে	-9722
▁আলেকজান্ডার	-9723
্টিং	-9724
▁সেন্টি	-9725
▁0	-9726
▁শোষণ	-9727
মৃত্যু	-9728
▁election	-9729
▁অপহ	-9730
▁পশু	-9731
▁চিনি	-9732
▁El	-9733
orry	-9734
▁১০টি	-9735
▁speak	-9736
▁বান্দ	-9737
▁ব্যতিক্রম	-9738
ফির	-9739
বিএস	-9740
▁মেযা়দ	-9741
▁৩৯	-9742
▁রিপাবলিক	-9743
বাহিনী	-9744
▁অধীনস্থ	-9745
▁মূল্যবান	-9746
▁ব্যবহারকারীদের	-9747
িযা়কে	-9748
▁peace	-9749
▁শুনতে	-9750
য়েট	-9751
▁Dav	-9752
▁হঠাৎ	-9753
িন্যাস	-9754
▁কাজটি	-9755
▁ফ্রন্ট	-9756
▁ব্রিটিশদের	-9757
ুরীর	-9758
▁বাছাই	-9759
▁বিনামূল	-9760
▁মাপ	-9761
▁রোল	-9762
▁expl	-9763
ulture	-9764
▁কাতার	-9765
▁মৎস্য	-9766
▁চালানোর	-9767
oub	-9768
ium	-9769
▁ক্রো	-9770
▁বিএন	-9771
▁তোলার	-9772
▁rights	-9773
▁Arch	-9774
▁অ্যাকশন	-9775
▁হাতের	-9776
▁উদ্বেগ	-9777
▁বর্ধমান	-9778
▁সমতুল্য	-9779
েলো	-9780
ined	-9781
▁সোল	-9782
ভৌম	-9783
দেশের	-9784
▁অজ্ঞ	-9785
▁ভাইস	-9786
▁অপরাধের	-9787
▁জানিয়েছে	-9788
ince	-9789
ভাবেই	-9790
▁site	-9791
▁জুটি	-9792
▁টাকার	-9793
▁সবাইকে	-9794
▁সামগ্রিক	-9795
▁সফরের	-9796
▁সামগ্রী	-9797
▁অর্থনীতিতে	-9798
দেশিক	-9799
▁মতোই	-9800
▁নৌকা	-9801
▁বিশ্বাসের	-9802
পত	-9803
ril	-9804
্ডি	-9805
াগরে	-9806
▁গাল	-9807
▁ভার্জ	-9808
ada	-9809
▁history	-9810
▁প্রবণতা	-9811
▁উড়	-9812
▁দোষী	-9813
▁দ্রাঘ	-9814
▁সংমিশ্র	-9815
osed	-9816
াবলি	-9817
▁সাগরের	-9818
▁অংশগ্রহণকারী	-9819
▁সমাজতান্ত্রিক	-9820
▁কক্স	-9821
▁সাডা়	-9822
▁উৎক্ষেপ	-9823
▁জগন্নাথ	-9824
▁মেক্সিকো	-9825
ency	-9826
▁আকৃতি	-9827
▁বিরত	-9828
50	-9829
▁রিং	-9830
▁cause	-9831
ামপুর	-9832
▁অভিবাসী	-9833
ered	-9834
োত্ত	-9835
▁ভের	-9836
োগ্রাফিক	-9837
ec	-9838
▁Prophe	-9839
▁গোবিন্দ	-9840
▁১৯১৭	-9841
▁পাশের	-9842
▁রাণী	-9843
শিক্ষা	-9844
▁জনবহুল	-9845
▁বাইজেন্টাইন	-9846
▁প্রক্রিযা়য়	-9847
আমের	-9848
▁Bar	-9849
▁আইরিশ	-9850
▁মন্ত্রিস	-9851
াগুলিতে	-9852
কিউ	-9853
▁অক্সাইড	-9854
▁ডঃ	-9855
▁Pal	-9856
▁United	-9857
▁শ্রেণীব	-9858
▁পরিবেশের	-9859
▁jud	-9860
▁কমল	-9861
লাইনে	-9862
াযা়ন	-9863
▁১৯০০	-9864
▁পুনরাব	-9865
▁মাযা়ন	-9866
▁চুক্তিতে	-9867
▁ধারাবাহিকে	-9868
পস	-9869
েলাইট	-9870
▁main	-9871
▁ধরার	-9872
▁মহিলার	-9873
▁বিধায়ক	-9874
▁ফৌ	-9875
▁মালয়েশিযা়	-9876
▁Ag	-9877
▁বিরাট	-9878
▁সমকাম	-9879
▁destroy	-9880
▁ইন্ডাস্ট	-9881
▁এটাকে	-9882
▁‌	-9883
▁জোন	-9884
▁ডিউ	-9885
▁রাতের	-9886
▁আত্মসম	-9887
▁ওয়েলস	-9888
▁কস	-9889
ঙ্গো	-9890
▁কাপের	-9891
▁জানিয়েছেন	-9892
IN	-9893
▁আখ্য	-9894
েম্বরের	-9895
▁partic	-9896
▁উপকূলে	-9897
২০০৩	-9898
▁ভেতর	-9899
প্লে	-9900
মোহন	-9901
ন্দরী	-9902
বৈজ্ঞানিক	-9903
▁নামাজ	-9904
▁পাতার	-9905
৮৯	-9906
▁ধ্রুপদী	-9907
▁ম্যানচেস্টার	-9908
উদ	-9909
ump	-9910
াগুলোর	-9911
ভীর	-9912
▁এট	-9913
itor	-9914
▁ঢাল	-9915
iving	-9916
▁দুইজন	-9917
▁বৈদেশিক	-9918
▁dev	-9919
▁কৌশ	-9920
আউট	-9921
▁কুত	-9922
ক্ষরিক	-9923
▁পাইলট	-9924
▁ওযা়টার	-9925
ারস	-9926
▁স্য	-9927
▁real	-9928
▁জাহাঙ্গ	-9929
▁প্যারিস	-9930
mar	-9931
াবী	-9932
য়েস	-9933
▁aff	-9934
▁নাথ	-9935
▁টোকিও	-9936
▁adv	-9937
▁আকবর	-9938
▁দ্বার	-9939
▁mind	-9940
▁Moses	-9941
৬৭	-9942
াইজেশন	-9943
▁ব্রিজ	-9944
▁witness	-9945
▁বিদ্রোহের	-9946
▁সম্মত	-9947
Name	-9948
িজীব	-9949
▁পল্লী	-9950
▁প্রয়োজ	-9951
ured	-9952
fer	-9953
▁Mon	-9954
▁Hell	-9955
▁আংশিক	-9956
▁কুস্ত	-9957
▁সম্পাদন	-9958
▁saw	-9959
▁নার্স	-9960
▁school	-9961
▁হাইড্রোজেন	-9962
ats	-9963
জাল	-9964
▁Lib	-9965
াত্য	-9966
▁শেষদিকে	-9967
েলস	-9968
▁Po	-9969
▁৪৪	-9970
▁প্রের	-9971
▁প্রস্থ	-9972
পথের	-9973
▁সনে	-9974
▁শিলাল	-9975
▁ডেপুটি	-9976
▁ওয়েস্টার্ন	-9977
▁৬৪	-9978
▁আবদ	-9979
▁দাত	-9980
▁লোহ	-9981
▁স্কে	-9982
▁বিশ্বযুদ্ধ	-9983
▁ভিক্টোরিযা়	-9984
▁৪৩	-9985
▁ঐক্য	-9986
▁কমলা	-9987
ম্পন্ন	-9988
▁বাবু	-9989
▁মাঝেম	-9990
▁উদ্ভিদের	-9991
▁কার্যকার	-9992
lose	-9993
▁ফুলের	-9994
▁ডিভাইস	-9995
প্রদেশের	-9996
▁মাও	-9997
▁কার্টুন	-9998
▁কর্মচারী	-9999
▁রাও	-10000
▁লেজ	-10001
▁তুষার	-10002
▁প্রতিবন্ধ	-10003
৬৪	-10004
ুনার	-10005
▁ধূম	-10006
▁রানার	-10007
ুরির	-10008
▁এজন্য	-10009
che	-10010
▁সৌন্দর্য	-10011
▁প্রদর্শনের	-10012
▁মনের	-10013
▁citiz	-10014
▁import	-10015
▁টেস্টের	-10016
▁মুহূর্ত	-10017
▁লং	-10018
২০০২	-10019
▁pur	-10020
▁অবন	-10021
▁soul	-10022
▁ইস্ত	-10023
▁সবগুলো	-10024
িসির	-10025
▁একা	-10026
্লিখিত	-10027
▁খাম	-10028
▁ক্লে	-10029
▁গণেশ	-10030
▁জরিপ	-10031
▁টমাস	-10032
▁reward	-10033
▁নেতাদের	-10034
▁বৌদ্ধধর্ম	-10035
▁বর্গকিলোমিটার	-10036
▁though	-10037
ala	-10038
ুয়ের	-10039
সম্পর্ক	-10040
▁বন্দুক	-10041
সদ	-10042
▁মেট	-10043
▁wind	-10044
▁মাঝারি	-10045
▁ল্যাটিন	-10046
▁ইন্সটিটি	-10047
oice	-10048
▁Eur	-10049
▁Jan	-10050
▁প্রত্যাবর্ত	-10051
ভিচ	-10052
আইএস	-10053
▁শঙ্কর	-10054
▁শ্লোক	-10055
তঃ	-10056
রার	-10057
িটি	-10058
্কেট	-10059
▁রিড	-10060
ngers	-10061
▁vers	-10062
▁নরওয়ে	-10063
▁ভী	-10064
▁কমিক	-10065
▁কুরআনের	-10066
4)	-10067
▁mag	-10068
▁জরুরি	-10069
▁বর্ধিত	-10070
▁রেখেছেন	-10071
▁প্রসিদ্ধ	-10072
▁প্রতিদ্বন্দ্বী	-10073
▁রতি	-10074
ny	-10075
পুট	-10076
গতির	-10077
পূর্বক	-10078
▁পারস্প	-10079
▁যাচ্ছি	-10080
AS	-10081
▁By	-10082
ster	-10083
▁খুঁজ	-10084
hether	-10085
্পনিক	-10086
▁অ্যাশ	-10087
▁জানেন	-10088
▁পড়েছিল	-10089
▁পৃষ্ঠপোষক	-10090
▁নথ	-10091
ried	-10092
▁Int	-10093
▁এভ	-10094
▁These	-10095
▁জিজ্ঞাসা	-10096
▁যম	-10097
▁ওরা	-10098
▁তাজ	-10099
▁জন্যই	-10100
চক্র	-10101
▁মাদ্রাজ	-10102
▁মারিযা়	-10103
▁ide	-10104
▁নাত	-10105
▁সনাক্ত	-10106
▁সার্বভৌম	-10107
▁বিভ্রান্ত	-10108
▁fun	-10109
▁সাংস	-10110
▁নারীরা	-10111
▁বিবৃতি	-10112
▁সমালোচকদের	-10113
সেবা	-10114
▁ভিন	-10115
▁ছিলাম	-10116
▁প্রতিফলিত	-10117
দারি	-10118
▁জিহ	-10119
▁অ্যাব	-10120
▁লিবার	-10121
▁তিব্বত	-10122
▁est	-10123
arent	-10124
▁Brit	-10125
▁বয়সের	-10126
▁ভ্রমণের	-10127
▁আখ্যায়িত	-10128
সংস্থান	-10129
▁Sec	-10130
▁কমিয়ে	-10131
▁এপ্রিলে	-10132
ott	-10133
মিল	-10134
সংখ্যক	-10135
▁টেনিস	-10136
▁আবিষ্কারের	-10137
▁Japan	-10138
▁জনগোষ্ঠীর	-10139
▁পার্শ্বীয়	-10140
City	-10141
ament	-10142
ক্তিক	-10143
▁কলাম	-10144
▁ব্রুন	-10145
৮২	-10146
▁রেখ	-10147
ailed	-10148
▁প্রফেসর	-10149
▁জানো	-10150
▁বিষ্ণুর	-10151
▁ঝাঁ	-10152
▁hope	-10153
▁মর্যাদ	-10154
▁মেট্রোপলি	-10155
▁প্রাতিষ্ঠানিক	-10156
sy	-10157
ays	-10158
▁সংবিধানের	-10159
▁comes	-10160
▁arrest	-10161
কোর	-10162
ying	-10163
য়েই	-10164
মান্ড	-10165
▁দূষণ	-10166
▁অ্যাপ্লিকেশন	-10167
ived	-10168
২০১৭	-10169
▁mercy	-10170
▁ওযা়হ	-10171
▁সার্জ	-10172
rew	-10173
যার	-10174
মুসল	-10175
▁vol	-10176
▁ছত্র	-10177
▁China	-10178
▁certainly	-10179
৫৩	-10180
▁টপ	-10181
▁বেক	-10182
▁মনোর	-10183
▁ডিস্ট	-10184
▁probably	-10185
▁প্রসঙ্গে	-10186
▁শিক্ষকতা	-10187
▁বাধ্যতামূলক	-10188
ভো	-10189
▁স্মারক	-10190
▁pain	-10191
▁উৎসাহ	-10192
▁সংস্কৃতিতে	-10193
▁আঁকা	-10194
▁ওখানে	-10195
▁বাদ্য	-10196
▁সকলের	-10197
raw	-10198
▁From	-10199
▁মনোনিবেশ	-10200
▁সঙ্গীতশিল্পী	-10201
শির	-10202
▁সূক্ষ্ম	-10203
▁বন্ধুত্ব	-10204
্তা	-10205
▁met	-10206
▁save	-10207
স্কে	-10208
▁আন্ডার	-10209
▁project	-10210
▁মহিলারা	-10211
▁১২০	-10212
শিযা়	-10213
▁সোযা়	-10214
▁রিযা়ল	-10215
সংক্রান্ত	-10216
▁ইসরায়েলি	-10217
▁ins	-10218
▁প্রশংসিত	-10219
▁Syri	-10220
▁ভুলে	-10221
▁bloggers	-10222
▁সাক্ষাৎকার	-10223
IS	-10224
▁অসমীযা়	-10225
▁প্রশাসক	-10226
্টো	-10227
শ্বাস	-10228
▁ধরতে	-10229
▁সঙ্গী	-10230
▁প্রবাসী	-10231
▁স্ট্যান	-10232
▁ম্যাট্রিক	-10233
ুমান	-10234
▁test	-10235
▁লিগে	-10236
▁বিদ্যুত	-10237
▁ক্যাম্পাস	-10238
▁ক্রীডা়বিদ	-10239
▁অবস	-10240
৭১	-10241
৭২	-10242
▁bo	-10243
▁cover	-10244
▁বাচ্চা	-10245
▁বৃক্ষ	-10246
র্দান্ত	-10247
▁হিন্দুধর্ম	-10248
▁৪১	-10249
▁fav	-10250
▁মাথ	-10251
▁Right	-10252
ource	-10253
▁চলেছে	-10254
▁উপনিষদ	-10255
▁রেখেছিল	-10256
িপির	-10257
▁kid	-10258
▁খায়	-10259
▁concer	-10260
▁অসম্ভব	-10261
বৃহ	-10262
▁feel	-10263
▁ধাতব	-10264
▁রপ্তানি	-10265
▁প্রতিষ্ঠানে	-10266
▁enough	-10267
▁কপি	-10268
▁went	-10269
▁চিত্ত	-10270
▁সকালে	-10271
▁স্যাটেলাইট	-10272
ার্ম	-10273
▁অসং	-10274
▁দাল	-10275
▁কোষের	-10276
▁ওযা়র্ক	-10277
বিশ	-10278
ুরো	-10279
▁চার্জ	-10280
▁স্পিন	-10281
▁ডাব্লিউডাব্লিউই	-10282
ij	-10283
মাই	-10284
োগান	-10285
▁Part	-10286
▁requ	-10287
▁পুনর্জ	-10288
▁গণিতবিদ	-10289
পাঠ	-10290
▁১৯০৫	-10291
▁তৈরিতে	-10292
▁question	-10293
দ্ভুত	-10294
ৃশ	-10295
▁কাঠামোর	-10296
▁পূর্ণাঙ্গ	-10297
৬১	-10298
৮৩	-10299
চিব	-10300
্নী	-10301
▁হির	-10302
▁সপ্তাহের	-10303
▁নিয়ন্ত্রণের	-10304
uary	-10305
▁ফিউ	-10306
▁বন্যা	-10307
▁সভায়	-10308
▁ফাযা়র	-10309
ুখে	-10310
▁স্টাফ	-10311
▁মোম	-10312
▁হকি	-10313
িযা়সের	-10314
▁অধ্যয়নের	-10315
ুদা	-10316
▁মেক্সিক	-10317
ধারার	-10318
▁দফতর	-10319
▁কর্মকর্তাদের	-10320
জিত	-10321
eous	-10322
▁বলের	-10323
▁মড	-10324
▁ওল্ড	-10325
পরবর্তী	-10326
▁সম্পাদিত	-10327
নামা	-10328
▁কাজাখ	-10329
১৯৯৯	-10330
▁শেক	-10331
▁exper	-10332
▁কর্মসূচি	-10333
▁সেনাবাহিনীতে	-10334
▁z	-10335
▁পয়	-10336
▁forth	-10337
ান্তরের	-10338
▁জনগণনা	-10339
▁সাফল্যের	-10340
শনে	-10341
▁জলে	-10342
বিভাগ	-10343
▁Sure	-10344
▁lost	-10345
▁ক্ষেপণ	-10346
▁আবির্ভাব	-10347
▁eyes	-10348
▁ফ্রান্সে	-10349
▁তাও	-10350
▁পায়ের	-10351
▁Internet	-10352
sw	-10353
ler	-10354
▁এঁ	-10355
▁পরিত	-10356
▁ডিজনি	-10357
▁ব্রেক	-10358
সো	-10359
▁IS	-10360
▁ষড়যন্ত্র	-10361
▁ঐতিহাসিকভাবে	-10362
▁পোপ	-10363
▁King	-10364
▁যাচাই	-10365
▁গাওযা়	-10366
▁ইলেকট্রন	-10367
▁অনুপ্রেরণ	-10368
গ্ল	-10369
ফলের	-10370
িনির	-10371
▁Pub	-10372
▁অভিযানে	-10373
ুভ	-10374
▁হেক্টর	-10375
istor	-10376
▁বালি	-10377
▁আমিরাত	-10378
▁সিপিআই	-10379
▁ইউনিভার্স	-10380
▁গিটার	-10381
▁গ্রহের	-10382
▁পদার্থবিজ্ঞান	-10383
AN	-10384
▁১৯১১	-10385
▁৬ষ্ঠ	-10386
িযা়রের	-10387
▁মাদরাস	-10388
▁প্রোগ্রামিং	-10389
জিদ	-10390
▁৯টি	-10391
▁prog	-10392
▁বিবর্তন	-10393
▁কারাদণ্ড	-10394
ণবিক	-10395
▁প্রো	-10396
▁১৯১০	-10397
▁শিযা়ল	-10398
৮৪	-10399
াবাদে	-10400
▁প্রবল	-10401
▁সংখ্যায়	-10402
পল	-10403
ুশে	-10404
▁সুফি	-10405
▁বরাদ্দ	-10406
▁30	-10407
ুকের	-10408
হ্যাম	-10409
▁মুস্ত	-10410
▁বিবিসি	-10411
৭৩	-10412
লুক	-10413
▁স্তন্য	-10414
কিল	-10415
▁কয়লা	-10416
▁রেটিং	-10417
বিধানিক	-10418
▁মালয়েশিযা়র	-10419
▁গুড	-10420
▁able	-10421
▁আজকের	-10422
▁ইয়েম	-10423
▁টেলিভিশনে	-10424
▁ت	-10425
৬৯	-10426
▁গুন	-10427
▁উল্লিখিত	-10428
েম্বার	-10429
▁অক্সিজেন	-10430
▁পীর	-10431
▁past	-10432
▁নিপী	-10433
▁অবতরণ	-10434
ন্ঠ	-10435
▁ইযা়ং	-10436
▁মশ	-10437
▁সাধন	-10438
▁যতক্ষণ	-10439
নিরপেক্ষ	-10440
▁ঘরের	-10441
▁যাবত	-10442
্রিপ্ট	-10443
▁নিম্নরূপ	-10444
▁দ্বীপপুঞ্জের	-10445
।”	-10446
▁ইউনে	-10447
▁বাছাইপর্ব	-10448
ুষ্প	-10449
▁text	-10450
▁নম্ব	-10451
▁পরেও	-10452
▁মাদার	-10453
optional	-10454
▁তালেব	-10455
▁পান্ড	-10456
▁পিপলস	-10457
▁matter	-10458
▁গ্রাউন্ড	-10459
▁ঐশ্বর	-10460
▁নিন্দা	-10461
▁equ	-10462
▁watch	-10463
▁পাডা়	-10464
▁Voices	-10465
▁সভাপতির	-10466
▁হাস্যরসাত্মক	-10467
াদন	-10468
ভূষণ	-10469
▁Okay	-10470
▁form	-10471
▁hath	-10472
▁comple	-10473
▁অধিকারের	-10474
▁উন্নয়নে	-10475
াদিত	-10476
▁কাল্পনিক	-10477
োপাধ্যায়ের	-10478
▁বিদ্যালয়টি	-10479
by	-10480
▁bro	-10481
▁সোশ	-10482
▁ইতোম	-10483
▁অপারেটিং	-10484
রিটি	-10485
াক্ট	-10486
▁ডুব	-10487
োর্টে	-10488
▁Poli	-10489
▁৪র্থ	-10490
▁ফরাসী	-10491
▁শ্রেণীতে	-10492
বিন্দ	-10493
োযা়ল	-10494
▁সুভাষ	-10495
।(	-10496
গল্প	-10497
▁দেখান	-10498
▁ট্র্যা	-10499
▁সাদৃশ্য	-10500
▁অয	-10501
▁গতির	-10502
ওযা়লা	-10503
▁আর্জেন্টিনা	-10504
▁অস্ট্রেলিযা়য়	-10505
▁Cam	-10506
▁কনস্ট	-10507
▁আকৃষ্ট	-10508
▁কম্বোড	-10509
▁পাঞ্জাবের	-10510
ঘরে	-10511
▁ভবিষ্যৎ	-10512
▁seek	-10513
▁দ্রাঘিম	-10514
▁প্রযোজ্য	-10515
৮১	-10516
▁জগৎ	-10517
বাংলা	-10518
▁উইমেন	-10519
▁দেবতাদের	-10520
▁সংরক্ষণের	-10521
▁Fr	-10522
▁সরু	-10523
▁Fran	-10524
▁গৌতম	-10525
▁build	-10526
▁ইংলিশ	-10527
▁তন্ত্র	-10528
▁বাজারের	-10529
▁বাস্তবায়ন	-10530
োহী	-10531
▁এটিতে	-10532
▁মাতার	-10533
▁পরিস্থিতিতে	-10534
uge	-10535
▁রানা	-10536
▁ইযা়ন	-10537
▁দ্বিপ	-10538
▁রেস্ত	-10539
18	-10540
ামুটি	-10541
▁four	-10542
▁ছোটো	-10543
▁পর্যট	-10544
নিউ	-10545
▁নিউট্র	-10546
▁বৃহস্প	-10547
▁সম্পদের	-10548
▁revealed	-10549
ately	-10550
▁জুনে	-10551
▁খোদাই	-10552
▁নয়টি	-10553
▁আর্থার	-10554
▁president	-10555
▁প্রশাসনের	-10556
ুবন	-10557
▁sing	-10558
▁ইরাকের	-10559
▁উদযাপন	-10560
▁এখানেই	-10561
▁তফসিলী	-10562
▁বিমানের	-10563
▁৭২	-10564
▁করোনা	-10565
▁খো	-10566
▁আইড	-10567
▁মুফ	-10568
veral	-10569
▁President	-10570
▁দশটি	-10571
▁উত্তরের	-10572
▁নাম্বার	-10573
৬২	-10574
৭৪	-10575
rodu	-10576
বিন্দু	-10577
▁ব্যাকরণ	-10578
▁campaign	-10579
▁কার্ত	-10580
▁বৈষম্য	-10581
▁শীর্ষে	-10582
cent	-10583
▁ডেটা	-10584
▁স্বয়ং	-10585
▁বিবাহিত	-10586
▁ইসরায়েল	-10587
▁রাজস্থান	-10588
▁ক্ষেপণাস্ত্র	-10589
ংকার	-10590
ডাঙ্গা	-10591
▁হৃদয়	-10592
▁রামকৃষ্ণ	-10593
▁Bi	-10594
ন্তী	-10595
২০১৮	-10596
▁মুর্শ	-10597
▁protect	-10598
▁চাঁদপুর	-10599
ান্দি	-10600
্যারে	-10601
▁টেলিফ	-10602
▁দেবতার	-10603
▁তপ	-10604
েক্ষে	-10605
▁Photo	-10606
▁ইত্যাদির	-10607
▁সংস্কারের	-10608
্শ	-10609
▁ডলারের	-10610
▁লুকিয়ে	-10611
▁প্রতিশোধ	-10612
▁ভারসাম্য	-10613
▁প্রাণীদের	-10614
ands	-10615
cies	-10616
▁leg	-10617
ব্যের	-10618
▁vict	-10619
▁বলিউড	-10620
▁মুখার্জ	-10621
▁আত্মহত্যা	-10622
ences	-10623
▁পারস্পরিক	-10624
ার্থে	-10625
▁রত্ন	-10626
▁শিক্ষিত	-10627
▁সেনাপতি	-10628
▁সোসাইটির	-10629
▁মিছিল	-10630
▁বাদশাহ	-10631
▁ক্রান্ত	-10632
▁রেলওয়ের	-10633
▁৮৫	-10634
ৃহীত	-10635
▁লীগে	-10636
▁নিরপেক্ষ	-10637
▁কমিউনিটি	-10638
▁আলোকচিত্র	-10639
▁mod	-10640
▁বানানো	-10641
▁চুক্তিবদ্ধ	-10642
▁নেটওযা়র্কের	-10643
জিব	-10644
▁থাকত	-10645
▁সঞ্জ	-10646
▁ভার্জিন	-10647
▁সংস্প	-10648
▁প্রভাবের	-10649
▁সংখ্যালঘু	-10650
েটর	-10651
▁বানিয়ে	-10652
▁মিনিটের	-10653
াগৃহ	-10654
াপত্র	-10655
▁শহুরে	-10656
▁ভালোবাস	-10657
▁প্রয়োজনীয়তা	-10658
াদান	-10659
▁ত্রিশ	-10660
▁গাজী	-10661
▁young	-10662
▁টুকরো	-10663
▁লক্ষ্মী	-10664
েন্টাল	-10665
▁স্যান্ড	-10666
▁প্রকল্পটি	-10667
5)	-10668
aced	-10669
▁অ্যালব	-10670
ead	-10671
aper	-10672
▁ভাত	-10673
▁মিঃ	-10674
ন্সের	-10675
িসমূহ	-10676
▁আবারও	-10677
▁মাত্রার	-10678
▁অধিষ্ঠিত	-10679
ধারন	-10680
▁আমান	-10681
▁এটার	-10682
▁ডোমে	-10683
▁কারনে	-10684
▁সোশ্যাল	-10685
▁নির্দেশনা	-10686
▁গ্রহণযোগ্য	-10687
oe	-10688
▁hon	-10689
▁খনি	-10690
▁ফোক	-10691
াইভেট	-10692
▁ক্রিম	-10693
▁ব্রাউ	-10694
োটা	-10695
মেযা়	-10696
▁ভবনটি	-10697
▁শাসিত	-10698
▁স্কটিশ	-10699
▁আকর্ষণীয়	-10700
কেন	-10701
▁Ah	-10702
▁নগ	-10703
্লেষ	-10704
▁হচ্ছিল	-10705
▁ম্যাচটি	-10706
সলি	-10707
▁woman	-10708
▁জগতের	-10709
▁বগুডা়	-10710
▁ক্যারিযা়র	-10711
yn	-10712
৭৯	-10713
aim	-10714
▁গজ	-10715
▁ফাল	-10716
ফ্রেড	-10717
▁অভযা়	-10718
▁গঙ্গা	-10719
▁জামিযা়	-10720
▁অস্বাভাবিক	-10721
উত্তর	-10722
▁সঙ্ক	-10723
▁whose	-10724
▁জানাতে	-10725
▁বিভাজন	-10726
▁current	-10727
▁কোম্পানী	-10728
▁বাদে	-10729
▁পাশ্চ	-10730
▁বেকার	-10731
▁belong	-10732
▁দিচ্ছে	-10733
▁হুমায়	-10734
গাহ	-10735
তীর	-10736
সপি	-10737
ines	-10738
▁সদস্যপদ	-10739
arn	-10740
▁ple	-10741
▁বিচারের	-10742
▁eas	-10743
▁ফিক	-10744
দ্বার	-10745
▁প্রকাশক	-10746
▁সংস্পর্শ	-10747
▁আসর	-10748
▁৭টি	-10749
▁ডক্ট	-10750
▁রশিদ	-10751
▁১২টি	-10752
vent	-10753
▁(198	-10754
▁মুছে	-10755
▁Qur	-10756
▁খুশি	-10757
ush	-10758
earch	-10759
▁আদায়	-10760
▁জালাল	-10761
▁লাগবে	-10762
আমার	-10763
▁আয়ের	-10764
▁anyone	-10765
▁আইয়ুব	-10766
▁করল	-10767
▁উল্ল	-10768
▁ফেলতে	-10769
▁নোযা়খালী	-10770
৬৩	-10771
্লাভ	-10772
র্গের	-10773
▁food	-10774
▁soon	-10775
▁পণ্যের	-10776
গুণ	-10777
য়েদ	-10778
co	-10779
▁পৃষ্ঠা	-10780
▁প্রসাদ	-10781
শাখ	-10782
▁Gr	-10783
▁এখ	-10784
live	-10785
▁asked	-10786
▁খালিদ	-10787
▁হিন্দুদের	-10788
▁কণা	-10789
▁কানে	-10790
▁সূত্রে	-10791
▁started	-10792
▁পরীক্ষামূলক	-10793
▁eat	-10794
▁ইহুদ	-10795
ilitary	-10796
▁অর্জুন	-10797
▁সমর্থিত	-10798
▁Ber	-10799
▁ফেসবু	-10800
▁কারণেই	-10801
▁প্রাধান	-10802
▁সম্মানে	-10803
▁তত্ত্বাবধানে	-10804
এসপি	-10805
গিরি	-10806
▁নথিভুক্ত	-10807
াতেও	-10808
▁জাদ	-10809
▁miss	-10810
▁বুলগের	-10811
ইউর	-10812
▁সুফ	-10813
▁ব্লে	-10814
▁সত্যিই	-10815
▁যান্ত্রিক	-10816
এসএ	-10817
তাপ	-10818
▁top	-10819
▁Chin	-10820
▁ভবনে	-10821
▁মিশরে	-10822
▁রিজার্ভ	-10823
▁মোটামুটি	-10824
▁ঔপন্যাস	-10825
ৃষ্ণ	-10826
▁খেতে	-10827
▁মন্ট	-10828
▁ডাঃ	-10829
▁বারা	-10830
চাপ	-10831
চেন	-10832
াউট	-10833
ওডা়	-10834
▁সেখানকার	-10835
▁righteous	-10836
হাটি	-10837
▁আজও	-10838
▁সুগ	-10839
▁Cont	-10840
▁কমেডি	-10841
▁তৃণমূল	-10842
▁সফলভাবে	-10843
▁11	-10844
োনের	-10845
পাতের	-10846
▁লিস্ট	-10847
▁ইভেন্ট	-10848
▁বিহারের	-10849
▁র‌্যাঙ্কিং	-10850
ley	-10851
ases	-10852
িসিন	-10853
▁ভাগ্য	-10854
▁হাঙ্গের	-10855
▁অবকাঠামো	-10856
▁গোস	-10857
▁March	-10858
▁মার্গ	-10859
▁লিখতে	-10860
▁কারখান	-10861
▁পিছনের	-10862
▁উচ	-10863
▁দৃশ	-10864
▁মহাকাব্য	-10865
▁মানুষদের	-10866
▁আধা	-10867
▁টিন	-10868
▁নাহ	-10869
▁পথের	-10870
center	-10871
জ্জা	-10872
▁১৯১৬	-10873
30	-10874
রাই	-10875
▁সন্ত্রাসী	-10876
জ্জন	-10877
্লার	-10878
▁শরীফ	-10879
▁১৯১৫	-10880
anda	-10881
▁ill	-10882
▁বাধ	-10883
ugust	-10884
▁known	-10885
▁ইথিওপ	-10886
▁সালাম	-10887
▁nation	-10888
▁গায়িকা	-10889
▁চিত্রশিল্পী	-10890
▁বাক্য	-10891
▁Ma	-10892
▁বহিঃ	-10893
▁উইন্ডোজ	-10894
গীত	-10895
রকম	-10896
▁গড়েন	-10897
▁বিভাগীয়	-10898
ards	-10899
▁পক্ষের	-10900
▁নিরাপত্তার	-10901
▁ঐতিহ্যগতভাবে	-10902
iver	-10903
▁local	-10904
▁ধর্মান্ত	-10905
ভেদ	-10906
▁১৯১৩	-10907
▁গোলাপ	-10908
▁বিদ্যা	-10909
▁আর্জেন্টিনার	-10910
▁পিন	-10911
▁রোগে	-10912
ধ্যায়	-10913
▁আশরাফ	-10914
▁কাদের	-10915
▁মালয়	-10916
োর্টের	-10917
▁মুখের	-10918
ব্যবহার	-10919
▁ঊনবিংশ	-10920
irc	-10921
▁বিদায়	-10922
নিয়	-10923
▁বেত	-10924
1)	-10925
▁incre	-10926
▁নিবেদ	-10927
▁direct	-10928
▁বন্ধনে	-10929
▁কাউন্টির	-10930
▁টুর্নামেন্টের	-10931
৫১	-10932
▁lar	-10933
▁পশ্চ	-10934
▁পাশা	-10935
▁David	-10936
▁পুনর্নির্মাণ	-10937
Ch	-10938
▁ا	-10939
▁Med	-10940
▁cent	-10941
reedom	-10942
ulation	-10943
▁বুদ্ধি	-10944
▁উপদ্বীপ	-10945
▁ব্রাদার	-10946
▁Bh	-10947
ুমারি	-10948
েক্সের	-10949
▁অবসান	-10950
▁বিদ্রোহী	-10951
দৌ	-10952
গঞ্জের	-10953
▁অপহরণ	-10954
▁মহকুমা	-10955
▁একেবারে	-10956
সিটি	-10957
▁ago	-10958
▁Fire	-10959
▁উদযাপ	-10960
▁নাস্ত	-10961
▁প্রযা়	-10962
▁স্ট্যান্ডার্ড	-10963
ume	-10964
াকু	-10965
▁পৌছ	-10966
▁মেডেল	-10967
▁প্রেমের	-10968
▁ফরিদপুর	-10969
ভক্ত	-10970
রঙ্গ	-10971
াবাস	-10972
▁যাঁ	-10973
▁উঠতে	-10974
▁wrote	-10975
▁ছাড়িয়ে	-10976
কিক	-10977
বিসি	-10978
▁dep	-10979
iction	-10980
▁দীর্ঘদিন	-10981
alf	-10982
▁doesn	-10983
▁style	-10984
াঞ্চলীয়	-10985
▁মাইক্রো	-10986
▁মোকাবেলা	-10987
5,	-10988
▁আপাত	-10989
▁ব্যথা	-10990
▁কুস্তি	-10991
▁ইন্টারনে	-10992
▁ঔপন্যাসিক	-10993
ভবন	-10994
২০১৯	-10995
▁মোগ	-10996
▁Will	-10997
▁ভূমির	-10998
▁accept	-10999
▁Prophet	-11000
▁বিতর্কের	-11001
▁Vi	-11002
▁টে	-11003
ruct	-11004
ভায়	-11005
▁তিম	-11006
▁সংকট	-11007
▁অনুসারী	-11008
▁দম্পতির	-11009
▁ve	-11010
▁৭ম	-11011
cient	-11012
▁বেতন	-11013
▁শ্রো	-11014
▁ব্রাউন	-11015
▁মুর্শিদ	-11016
▁নিবন্ধিত	-11017
ral	-11018
▁পরগ	-11019
▁file	-11020
ুলিযা়	-11021
▁বিদেশে	-11022
▁হ্রদের	-11023
▁বিনামূল্যে	-11024
oke	-11025
▁উইন	-11026
▁রেশ	-11027
▁দক্ষতার	-11028
▁দিল্লিতে	-11029
▁দুর্নীতি	-11030
▁Des	-11031
াঞ্চল	-11032
▁উনিশ	-11033
▁ঘাঁটি	-11034
▁দেবার	-11035
▁মরক্ক	-11036
▁turned	-11037
▁কন্ট্র	-11038
৫২	-11039
▁lin	-11040
▁ভযা়	-11041
▁হয়ত	-11042
▁প্রোফ	-11043
▁ঊর্ধ্ব	-11044
▁সমর্থক	-11045
▁ক্যামেরা	-11046
▁সুনির্দিষ্ট	-11047
▁কাপে	-11048
▁দেখো	-11049
▁পুরোহিত	-11050
ওন	-11051
▁ইশ	-11052
▁Ear	-11053
▁বিম	-11054
▁১৯০৮	-11055
▁স্বার্থ	-11056
▁therein	-11057
▁এলিজাবেথ	-11058
▁মাইক্রোস	-11059
▁শিল্পকলা	-11060
ড়ী	-11061
▁আঠ	-11062
▁টর	-11063
▁উইজ	-11064
▁৮টি	-11065
সমূহে	-11066
▁পৌঁছায়	-11067
▁আলীর	-11068
▁উম্ম	-11069
▁Inter	-11070
োরিযা়ল	-11071
▁অনলাইনে	-11072
ude	-11073
aught	-11074
র্ভাব	-11075
▁মিমি	-11076
uation	-11077
▁প্রতিবছর	-11078
▁community	-11079
হেল	-11080
▁14	-11081
১৯৯৭	-11082
কর্তা	-11083
▁মেলব	-11084
▁সূচক	-11085
▁খিলাফ	-11086
▁অনেকের	-11087
▁থাকতেন	-11088
য়েজ	-11089
▁যাতা	-11090
দেশীয়	-11091
▁morning	-11092
▁towards	-11093
কট	-11094
াদেব	-11095
াভাষ	-11096
▁শরীরে	-11097
▁দ্রব্য	-11098
▁প্রযা়ত	-11099
▁নাট্যকার	-11100
▁লাইব্রের	-11101
▁হাশ	-11102
▁প্রাইভেট	-11103
▁লিপিবদ্ধ	-11104
mon	-11105
▁ঘটনাটি	-11106
▁এগার	-11107
▁গন্ত	-11108
▁লোকে	-11109
▁সূরা	-11110
▁অধিকাংশই	-11111
ব্যাক	-11112
▁পরিপূর্ণ	-11113
▁ম্যানেজমেন্ট	-11114
বিএ	-11115
হতি	-11116
হাল	-11117
ুপি	-11118
▁Moh	-11119
after	-11120
▁Char	-11121
▁মন্দ	-11122
▁সৃজন	-11123
▁অগ্রগতি	-11124
ংকর	-11125
work	-11126
িমূলক	-11127
▁আফগানিস্তানে	-11128
▁রীত	-11129
▁কোস্ট	-11130
▁ফ্লোর	-11131
▁চেয়েও	-11132
▁Society	-11133
▁ল্যাঙ্ক	-11134
▁কুকুর	-11135
▁discuss	-11136
▁তিব্বতের	-11137
▁উপজাতিদের	-11138
▁তখনই	-11139
illing	-11140
▁প্রোড	-11141
▁অর্থের	-11142
▁whatever	-11143
BAR	-11144
াজী	-11145
owed	-11146
▁বুর	-11147
ুলেশন	-11148
▁নগরী	-11149
▁উত্থান	-11150
▁ক্যারিব	-11151
▁ঝাড়খণ্ড	-11152
জয়	-11153
ider	-11154
অর্থাৎ	-11155
▁least	-11156
▁ছোট্ট	-11157
▁পরপরই	-11158
▁লাইনে	-11159
▁verily	-11160
▁Cor	-11161
▁কারি	-11162
▁মহাজ	-11163
▁শিকাগো	-11164
oo	-11165
৫৪	-11166
▁ছি	-11167
▁নব্য	-11168
ছিলো	-11169
istry	-11170
▁চারজন	-11171
▁including	-11172
▁দৈর্ঘ্যের	-11173
lebr	-11174
েসের	-11175
অব	-11176
▁উগান	-11177
▁বোম্বে	-11178
▁friends	-11179
▁সংলাপ	-11180
▁সাধারন	-11181
আত	-11182
alle	-11183
▁হ্যাল	-11184
▁আকা	-11185
▁শেল	-11186
▁user	-11187
‎.	-11188
▁অক	-11189
▁অডিও	-11190
▁ভূগর্ভ	-11191
▁প্রেক্ষাগৃহ	-11192
ocr	-11193
▁এরও	-11194
▁ঘটতে	-11195
▁নেতৃ	-11196
▁লিপ্ত	-11197
▁মহামারী	-11198
▁ইতিমধ্যে	-11199
▁জিম্বাবুয়ে	-11200
▁La	-11201
▁Rem	-11202
▁আইপি	-11203
▁মঞ্চে	-11204
▁ওড়িশা	-11205
▁আশেপাশে	-11206
utes	-11207
▁else	-11208
▁কেরালা	-11209
▁আযা়	-11210
▁দণ্ড	-11211
▁ধূসর	-11212
▁নু	-11213
▁এমপি	-11214
▁message	-11215
▁বৌদ্ধধর্মের	-11216
6)	-11217
?"	-11218
সেল	-11219
উচ্চ	-11220
▁শোক	-11221
▁নদীটি	-11222
▁যন্ত্রপাত	-11223
erv	-11224
প্রণ	-11225
▁Spe	-11226
▁ব্রিটেন	-11227
▁সাংবিধানিক	-11228
৫৯	-11229
াকশন	-11230
▁thy	-11231
▁মধু	-11232
▁ইসলামিযা়	-11233
স্	-11234
▁সাব্য	-11235
▁বিজনেস	-11236
▁সীমান্তে	-11237
....	-11238
ৃঙ্খল	-11239
▁hell	-11240
▁শ্রীর	-11241
▁আক্ষরিক	-11242
াময়	-11243
▁যত্ন	-11244
▁যোদ্ধা	-11245
প্রতিষ্ঠ	-11246
▁নিয়ন্ত্রক	-11247
78	-11248
ER	-11249
কণ	-11250
▁mom	-11251
▁ফৌজ	-11252
াঞ্চলে	-11253
▁স্তন্যপ	-11254
▁ي	-11255
▁তালিকার	-11256
থু	-11257
▁লক	-11258
▁একদম	-11259
▁খালে	-11260
▁ফ্লে	-11261
ানিযা়	-11262
ীযা়ংশ	-11263
▁একুশে	-11264
▁মেযা়দে	-11265
১০০	-11266
▁stra	-11267
▁ব্যাল	-11268
কিট	-11269
িসহ	-11270
▁মাইন	-11271
ti	-11272
▁অস্পষ্ট	-11273
▁মিডিযা়ম	-11274
দ্বৈত	-11275
▁শোনা	-11276
▁আণবিক	-11277
▁তাজিক	-11278
▁ভযা়বহ	-11279
▁present	-11280
▁৫৮	-11281
▁অসীম	-11282
ীমা	-11283
▁সাঈ	-11284
▁এস্ত	-11285
্বা	-11286
▁ones	-11287
▁ইকবাল	-11288
▁বিজ্ঞাপ	-11289
▁বাসস্থান	-11290
▁কোযা়র্টার	-11291
ৎসর	-11292
নন্দ	-11293
▁cap	-11294
▁কুযা়	-11295
▁চাপের	-11296
▁ভোটের	-11297
▁সার্টি	-11298
▁পদাতিক	-11299
▁guid	-11300
▁কারা	-11301
▁গাঢ়	-11302
▁অক্ষম	-11303
▁ঘন্টা	-11304
▁সাংসদ	-11305
▁মার্চে	-11306
▁প্রাচীর	-11307
▁প্রাধান্য	-11308
▁মুহাম্মদের	-11309
▁বাদ্যযন্ত্র	-11310
তলী	-11311
োসিস	-11312
▁tre	-11313
▁নরম	-11314
▁team	-11315
▁ক্লাবে	-11316
▁happened	-11317
▁নির্যাতনের	-11318
স্তর	-11319
▁হিব	-11320
▁বাসা	-11321
▁অনিয়	-11322
adition	-11323
▁আপনারা	-11324
omen	-11325
▁মেই	-11326
vious	-11327
▁view	-11328
ক্রাম	-11329
সঙ্গীত	-11330
▁সিটির	-11331
▁কুষ্টি	-11332
▁Coll	-11333
▁অদ্ভুত	-11334
বার্গের	-11335
▁উইকেটে	-11336
▁আমিরাতের	-11337
▁পিকচার	-11338
▁প্রবর্তিত	-11339
▁Sw	-11340
সাগর	-11341
▁মতই	-11342
▁আত্মার	-11343
▁খাওযা়র	-11344
iti	-11345
শুর	-11346
১৯৯৮	-11347
▁দাউ	-11348
ব্বিশ	-11349
ভিযা়	-11350
▁উদ্যো	-11351
গুরু	-11352
১৯৯৬	-11353
▁স্র	-11354
▁অমৃত	-11355
▁result	-11356
▁মির্জা	-11357
▁develop	-11358
▁চিত্রগ্রহণ	-11359
▁প্রচেষ্টার	-11360
▁বন্যপ্রাণী	-11361
cyc	-11362
▁heard	-11363
▁বারের	-11364
▁বৃত্তি	-11365
▁স্ক্রিন	-11366
BC	-11367
▁৭৪	-11368
▁ইসর	-11369
াইডের	-11370
▁Blog	-11371
▁কখনোই	-11372
▁নক্ষত্র	-11373
▁সাপেক্ষে	-11374
▁সাব্যস্ত	-11375
▁স্বাক্ষরিত	-11376
্জি	-11377
▁লৌ	-11378
just	-11379
ালয়ে	-11380
ৈর	-11381
ccess	-11382
▁১৯০৬	-11383
▁পাবনা	-11384
▁আলিযা়	-11385
▁চব্বিশ	-11386
াশ্ম	-11387
▁লিঙ্ক	-11388
▁prison	-11389
▁ভবিষ্যতে	-11390
▁সঠিকভাবে	-11391
াইর	-11392
eness	-11393
▁টিরও	-11394
জীবন	-11395
▁অনুদান	-11396
▁কার্যকলাপ	-11397
ুকি	-11398
মাইল	-11399
▁বর্জ্য	-11400
হাস	-11401
amed	-11402
▁ঘৃণ	-11403
▁ডিফ	-11404
লিঙ্গ	-11405
▁wife	-11406
▁words	-11407
▁জিতেছে	-11408
▁দর্শনীয়	-11409
মানে	-11410
▁হবি	-11411
াত্মা	-11412
▁পরিশোধ	-11413
িযা়নদের	-11414
▁শীতকালে	-11415
▁ডেনমার্ক	-11416
▁হিউম্যান	-11417
দাহ	-11418
▁বব	-11419
▁mis	-11420
▁ডাকনাম	-11421
▁বাহিনীকে	-11422
▁লিখেন	-11423
▁প্রকারের	-11424
▁অ্যান্ড্র	-11425
▁বিট	-11426
ন্ডের	-11427
▁৬২	-11428
াটের	-11429
ষ্টার	-11430
▁event	-11431
raz	-11432
▁হট	-11433
ালির	-11434
চেঞ্জ	-11435
▁রকেট	-11436
সম্প্র	-11437
▁ওযা়ট	-11438
▁দ্বিগ	-11439
▁এগুলির	-11440
▁article	-11441
▁ক্যান্ট	-11442
▁যানবাহন	-11443
▁ডেভেলপমেন্ট	-11444
▁উত্তরাধিকারী	-11445
টেইন	-11446
▁chang	-11447
▁ডিপ্ল	-11448
দাল	-11449
রিফ	-11450
pped	-11451
মুসলিম	-11452
▁America	-11453
▁someone	-11454
▁৫৭	-11455
▁যাদু	-11456
▁party	-11457
▁প্রধানমন্ত্রীর	-11458
ীয়দের	-11459
▁Europe	-11460
▁বিস্ফোরণ	-11461
▁আটলান্টিক	-11462
▁ধ্বংসাবশেষ	-11463
▁লাও	-11464
ভাগ্য	-11465
▁উন্মো	-11466
▁গণহত্যা	-11467
দিত	-11468
▁চিঠ	-11469
▁পেশা	-11470
▁আর্টি	-11471
▁প্রথাগত	-11472
▁নৃত্যশিল্পী	-11473
6,	-11474
গাম	-11475
▁bit	-11476
▁উদ্‌	-11477
▁ওয়েবসাইটে	-11478
▁রিফ	-11479
cript	-11480
▁স্বচ্ছ	-11481
▁ক্রিযা়কলাপ	-11482
irm	-11483
▁13	-11484
▁Sat	-11485
▁লাদ	-11486
▁বক্র	-11487
▁বাঁশ	-11488
▁alone	-11489
▁খেলাটি	-11490
পাস	-11491
most	-11492
াক্কা	-11493
▁পাগল	-11494
▁৬৭	-11495
▁মনি	-11496
▁times	-11497
▁অতীতে	-11498
▁ফোর্স	-11499
▁রিম	-11500
▁রাঙ্গ	-11501
▁Ox	-11502
▁যাদব	-11503
▁course	-11504
▁Good	-11505
▁Life	-11506
▁একমত	-11507
▁দেশটি	-11508
ভাষী	-11509
োমের	-11510
▁ইমে	-11511
▁ছোপ	-11512
▁বিছ	-11513
রায়ে	-11514
▁less	-11515
▁ট্রাফ	-11516
▁August	-11517
▁মহাসাগর	-11518
▁শীতকালীন	-11519
▁স্কটল্যান্ড	-11520
পুল	-11521
▁আলজের	-11522
▁writes	-11523
▁ইসমাইল	-11524
▁ঘণ্টার	-11525
▁প্যাকে	-11526
আজ	-11527
▁চলো	-11528
▁path	-11529
▁suff	-11530
oud	-11531
▁পিস	-11532
▁crit	-11533
েন্ডার	-11534
শ্রেষ্ঠ	-11535
▁সেন্সর	-11536
▁মাঝেমধ্যে	-11537
্টু	-11538
▁win	-11539
▁গৌরব	-11540
▁অনন্ত	-11541
▁হস্তান্তর	-11542
▁সনদ	-11543
▁সীত	-11544
ished	-11545
▁once	-11546
▁পোষণ	-11547
▁অ্যাথলে	-11548
▁বেঙ্গাল	-11549
▁মহাবিশ্বের	-11550
▁প্রেক্ষাপটে	-11551
▁কমই	-11552
▁gone	-11553
▁কিতাব	-11554
▁লঙ্ঘন	-11555
▁হাজির	-11556
▁মেট্রোপলিটন	-11557
থিত	-11558
▁দিগ	-11559
▁wish	-11560
িণী	-11561
▁খস	-11562
hood	-11563
সর্ব	-11564
bridge	-11565
▁প্রতিযোগিত	-11566
▁sk	-11567
▁After	-11568
▁সুন্দরী	-11569
▁আবদুর	-11570
▁ক্রমশ	-11571
▁লাহোর	-11572
▁নাদ	-11573
▁গর্ত	-11574
▁রবিন	-11575
▁বিলম্ব	-11576
▁বাহ্যিক	-11577
▁জাহাঙ্গীর	-11578
▁খ্রিষ্টপূর্ব	-11579
এব	-11580
tend	-11581
রাজ্য	-11582
গ্রাহক	-11583
▁ভক্তি	-11584
▁সেনান	-11585
▁চিত্রকর্ম	-11586
▁বুদ্ধিজীব	-11587
▁journalist	-11588
িজা	-11589
▁হজ	-11590
▁পুষ্টি	-11591
▁সাজানো	-11592
▁উদ্ধৃতি	-11593
lick	-11594
গ্রেড	-11595
র্জার	-11596
▁Instit	-11597
ুঁত	-11598
▁করান	-11599
▁কনসার	-11600
▁সাথেও	-11601
াউদ্দিন	-11602
▁living	-11603
▁বাদামী	-11604
▁মামলার	-11605
▁বিবেকান	-11606
▁এযা়রলাই	-11607
▁পরিশ	-11608
মার্কিন	-11609
▁কোরীয়	-11610
কিং	-11611
▁কেশ	-11612
▁সেব	-11613
ভূক্ত	-11614
▁বাকী	-11615
▁Verily	-11616
▁যুবরাজ	-11617
▁শতাধিক	-11618
▁ম্যাজিস্ট	-11619
▁কামিল	-11620
▁ফিলিপাইন	-11621
▁প্রামাণ্য	-11622
▁সমান্তরাল	-11623
ray	-11624
াশা	-11625
▁প্রম	-11626
▁আপনাদের	-11627
▁স্মার্ট	-11628
মোর	-11629
্যাজ	-11630
▁ডাব	-11631
প্রবাহ	-11632
▁করানো	-11633
▁ওয়েলসের	-11634
▁টুর্নামেন্টে	-11635
রীর	-11636
্তো	-11637
ners	-11638
▁অমিত	-11639
▁প্রতিস্থাপিত	-11640
▁ডেট	-11641
▁পাঠক	-11642
▁Official	-11643
▁অ্যানিমে	-11644
্রাম	-11645
▁ভাস্কর	-11646
▁security	-11647
▁town	-11648
▁হাজী	-11649
▁ফ্লোরি	-11650
▁আম্পাযা়র	-11651
▁শৌ	-11652
▁doc	-11653
▁শোন	-11654
▁পাতলা	-11655
উইক	-11656
লিং	-11657
▁Ac	-11658
বিধা	-11659
খাস্ত	-11660
▁Surely	-11661
▁টুইটারে	-11662
ুকা	-11663
▁৬৩	-11664
▁উমর	-11665
▁বড়ো	-11666
▁বইটির	-11667
▁উপস্থাপনা	-11668
ত্তন	-11669
▁listen	-11670
▁bar	-11671
▁উদ্দীপ	-11672
▁language	-11673
▁ভালোবাসা	-11674
অফ	-11675
শৈল	-11676
▁week	-11677
soever	-11678
ka	-11679
irt	-11680
োসা	-11681
▁tweet	-11682
▁দূতাবাস	-11683
▁সর্বকালের	-11684
7,	-11685
▁থমাস	-11686
▁৬৬	-11687
য়িং	-11688
▁এসিড	-11689
▁whole	-11690
▁countries	-11691
▁ভবিষ্যতের	-11692
ract	-11693
▁রুব	-11694
elling	-11695
▁আশ্রম	-11696
▁ব্লগে	-11697
▁চৌধুরীর	-11698
গেজ	-11699
▁দম	-11700
বিটি	-11701
াইডার	-11702
েন্টস	-11703
াগারের	-11704
▁wanted	-11705
▁জেলাটি	-11706
▁মহাসাগরীয়	-11707
ঝে	-11708
▁Of	-11709
▁Ger	-11710
▁okay	-11711
▁উঠেছিল	-11712
▁গাড়ির	-11713
▁রক্তের	-11714
াতক	-11715
▁ঈদ	-11716
emen	-11717
অক্স	-11718
রায়	-11719
াবতী	-11720
▁mark	-11721
▁মেলে	-11722
▁সাক্ষাত	-11723
▁শিক্ষার্থীরা	-11724
ক্রিযা়	-11725
▁বোলিংয়ে	-11726
ফান	-11727
▁ঝুল	-11728
দায়িক	-11729
▁পূজার	-11730
বীণ	-11731
▁press	-11732
▁using	-11733
▁সেবার	-11734
▁আলোচিত	-11735
▁অ্যাডাম	-11736
▁following	-11737
▁উপত্যকায়	-11738
োপক	-11739
asure	-11740
▁অব্দ	-11741
▁বৎসর	-11742
▁ইয়েমেন	-11743
ঞ্চিত	-11744
ীয়মান	-11745
▁আব্দুল্লাহ	-11746
িগো	-11747
্রিপ	-11748
▁ইম্প	-11749
▁চালান	-11750
▁দিতেন	-11751
▁ভূমধ্য	-11752
ঘরের	-11753
▁ট্রান	-11754
▁কোর্টের	-11755
▁সিংহাসনে	-11756
go	-11757
ney	-11758
▁আরা	-11759
▁ভদ্র	-11760
▁মিউনি	-11761
▁বারো	-11762
▁প্রভাবে	-11763
▁অধিভুক্ত	-11764
▁স্বরাষ্ট্র	-11765
▁উল্লেখযোগ্যভাবে	-11766
uh	-11767
ech	-11768
text	-11769
▁দুঃখিত	-11770
▁সাউন্ড	-11771
▁ধর্মগ্রন্থ	-11772
ior	-11773
▁বহুম	-11774
▁আচার্য	-11775
▁ডক্টরেট	-11776
▁সহিংসতার	-11777
ald	-11778
▁trust	-11779
▁রয়েল	-11780
▁শ্বেত	-11781
▁তিনবার	-11782
▁কর্মচার	-11783
▁খ্রীষ্ট	-11784
▁সৈন্যরা	-11785
ief	-11786
▁ডানা	-11787
ctions	-11788
▁বাচ্চাদের	-11789
ামাল	-11790
ারোপ	-11791
▁তলা	-11792
▁অভিশ	-11793
েন্সির	-11794
▁প্ল্যান	-11795
"|	-11796
urg	-11797
সিএ	-11798
▁বাতাস	-11799
▁শান্তির	-11800
▁যোগদানের	-11801
▁লুট	-11802
াবসান	-11803
▁এগুলোর	-11804
্যক	-11805
▁স্রো	-11806
▁ম্যাপ	-11807
▁প্রেক্ষিতে	-11808
▁doub	-11809
▁close	-11810
▁মাঝখানে	-11811
আইটি	-11812
বরের	-11813
▁ভৌত	-11814
▁সচেতনতা	-11815
িওর	-11816
ctor	-11817
▁মরণ	-11818
▁মেরিল	-11819
▁রাস্তাটি	-11820
por	-11821
▁লিভার	-11822
▁নিকটতম	-11823
▁পরিষেব	-11824
▁looking	-11825
মস	-11826
ান্তি	-11827
▁লামা	-11828
▁getting	-11829
▁সক্ষমতা	-11830
▁প্রজেক্ট	-11831
ches	-11832
এমএস	-11833
▁ভূপ	-11834
▁বার্ব	-11835
▁মৃতদেহ	-11836
▁ল্যাঙ্কাশ	-11837
▁সিঙ্গাপুরের	-11838
▁হও	-11839
▁প্রসার	-11840
▁সার্ভার	-11841
▁যন্ত্রের	-11842
বাদে	-11843
▁বিএ	-11844
কুডা়	-11845
▁স্নে	-11846
▁ওসমান	-11847
▁নিবন্ধন	-11848
▁মোস্তফা	-11849
ধিকার	-11850
▁গোপনীয়	-11851
ডন	-11852
সিম	-11853
ales	-11854
▁ডিন	-11855
▁লাফ	-11856
▁ফেলার	-11857
োডিযা়ম	-11858
▁রক্ষণশীল	-11859
gr	-11860
পেন	-11861
চাঁদ	-11862
াড়ী	-11863
োড়শ	-11864
▁ফাজ	-11865
▁fall	-11866
মন্দির	-11867
▁পরবর্ত	-11868
▁ঘূর্ণিঝড়	-11869
uff	-11870
াতু	-11871
▁med	-11872
▁tor	-11873
▁নাল	-11874
▁পরিস্থিতির	-11875
ار	-11876
▁খোল	-11877
▁মাদক	-11878
▁কর্মের	-11879
সকল	-11880
▁৭৩	-11881
▁ওদের	-11882
▁ভর্ত	-11883
▁স্যা	-11884
▁আগামী	-11885
▁শ্রীক	-11886
▁অধিবাসী	-11887
7)	-11888
দীন	-11889
▁কুব	-11890
▁রঙ্গ	-11891
▁রেসল	-11892
▁সাড়ে	-11893
▁নিম্নে	-11894
▁শরণার্থী	-11895
▁শ্রমিকদের	-11896
থিক	-11897
▁মুহম্মদ	-11898
মুর	-11899
▁ভুগ	-11900
ciful	-11901
▁পাচার	-11902
▁Public	-11903
▁Islamic	-11904
▁অঙ্গরাজ্যের	-11905
▁194	-11906
▁ওমর	-11907
▁নীর	-11908
▁ফুস	-11909
▁সালতান	-11910
▁পরিবহনের	-11911
▁মস্তিষ্কের	-11912
ম্বে	-11913
▁trying	-11914
▁মহাপরি	-11915
▁সূত্রপাত	-11916
াস্তব	-11917
▁মিলন	-11918
িযা়নো	-11919
▁টেবিল	-11920
▁রুদ্র	-11921
ন্ত্রিত	-11922
আমেরিকান	-11923
▁Lo	-11924
ajor	-11925
োল্ড	-11926
িস্বর	-11927
▁side	-11928
▁strong	-11929
▁প্রাঙ্গ	-11930
▁সংগৃহীত	-11931
▁interest	-11932
▁দ্রাঘিমাংশ	-11933
বৃহৎ	-11934
▁হরম	-11935
▁enter	-11936
▁চান্দ	-11937
▁million	-11938
▁ব্যাংকিং	-11939
▁তাপমাত্রায়	-11940
জ্জনক	-11941
▁উজবেক	-11942
▁চেহারা	-11943
▁ধর্মতত্ত্ব	-11944
▁কার্যক্রমের	-11945
▁সিগ	-11946
▁বেঁধে	-11947
▁Journal	-11948
▁ধর্মনিরপেক্ষ	-11949
AT	-11950
ين	-11951
▁শিলা	-11952
▁মুন্স	-11953
▁বিকিরণ	-11954
▁several	-11955
▁স্বায়ত্তশাসিত	-11956
রক্ষিত	-11957
যাত্রার	-11958
▁celebr	-11959
▁সংযোজন	-11960
▁ভবিষ্যদ্ব	-11961
▁ইং	-11962
বাদি	-11963
▁দাতব্য	-11964
▁রেজিস্ট	-11965
▁স্থাপত্যের	-11966
▁%1	-11967
▁ফিশ	-11968
িযা়ক	-11969
▁কখনই	-11970
▁লেনদ	-11971
▁১৯০১	-11972
▁express	-11973
▁published	-11974
▁বুধ	-11975
▁শাহর	-11976
ওযা়র্	-11977
▁আসন্ন	-11978
▁commit	-11979
cause	-11980
▁আসরে	-11981
▁তাৎপর্য	-11982
মতে	-11983
আরবি	-11984
াশয়	-11985
▁Pre	-11986
▁শিপ	-11987
▁গির্জা	-11988
▁পুরোনো	-11989
▁problem	-11990
▁রেলপথের	-11991
য়ক	-11992
▁ফিট	-11993
▁শনি	-11994
▁West	-11995
ান্বিত	-11996
▁কারিগ	-11997
▁বৈদ্য	-11998
▁অনুসার	-11999
▁হুসাইন	-12000
▁সংস্করণের	-12001
আইএ	-12002
ৃদ্ধি	-12003
স্টাইন	-12004
ফ্রে	-12005
▁অসহ	-12006
attle	-12007
▁লেডি	-12008
▁বার্ক	-12009
▁appoint	-12010
▁অবলম্বন	-12011
▁গ্যাসের	-12012
▁বিষাক্ত	-12013
বলিত	-12014
▁অটোমান	-12015
▁নিখুঁত	-12016
▁একাদশের	-12017
ns	-12018
▁১৯০৭	-12019
▁ভয়েসেস	-12020
▁পাণ্ডুলিপি	-12021
াটো	-12022
▁২৫০	-12023
▁দাঁত	-12024
▁image	-12025
▁ইনস্ট	-12026
▁তালুক	-12027
▁Chinese	-12028
পুত	-12029
ূনতম	-12030
▁এনক	-12031
▁রোগীর	-12032
▁চাঁদের	-12033
▁মারাঠি	-12034
সল্যান্ড	-12035
▁মহাকর্ষ	-12036
▁হিন্দুধর্মের	-12037
ami	-12038
▁৬৯	-12039
েকশন	-12040
idden	-12041
▁উপাসনা	-12042
▁ঐতিহ্যগত	-12043
▁সেন্টিমিটার	-12044
নদী	-12045
র্গ্যাল	-12046
▁religion	-12047
কারক	-12048
▁স্যান	-12049
▁বস্ত্র	-12050
বহন	-12051
▁বক	-12052
▁ফারুক	-12053
▁জীবাশ্ম	-12054
urre	-12055
▁লিম	-12056
বিত্ত	-12057
▁grow	-12058
▁daugh	-12059
▁short	-12060
▁আসনটি	-12061
▁descri	-12062
▁কয়েকবার	-12063
ফস	-12064
ued	-12065
গীর	-12066
▁চৈ	-12067
্যর্থ	-12068
▁pati	-12069
▁ব্রিটিশরা	-12070
১৯৯৩	-12071
▁বাউ	-12072
স্টেট	-12073
▁দ্রবণ	-12074
▁স্নায়ু	-12075
লিশ	-12076
▁৬৮	-12077
▁পাগ	-12078
▁port	-12079
▁পারব	-12080
▁drink	-12081
▁পরিবারকে	-12082
▁প্রতিযোগী	-12083
▁উইকিপিডিযা়	-12084
▁নীত	-12085
▁শৈশ	-12086
▁ইউরো	-12087
▁প্রভু	-12088
9)	-12089
১৯৯৪	-12090
▁job	-12091
▁এসি	-12092
▁পালক	-12093
▁১৯০৯	-12094
▁small	-12095
▁ধ্বনি	-12096
▁making	-12097
▁origin	-12098
▁সেক্রে	-12099
▁প্রথমদিকে	-12100
▁ইসরায়েলের	-12101
▁সহযোগিতায়	-12102
11	-12103
urt	-12104
াতেন	-12105
▁পেলে	-12106
▁কাতাল	-12107
▁আমদানি	-12108
▁ন্যান	-12109
যোগাযোগ	-12110
ীজ	-12111
্মা	-12112
চ্ছু	-12113
নারি	-12114
▁জিল	-12115
▁পেই	-12116
▁পরিপ্রে	-12117
▁প্রচণ্ড	-12118
▁নিয়মিতভাবে	-12119
▁লার	-12120
ুটিয়ে	-12121
▁মুদ্রণ	-12122
খি	-12123
low	-12124
▁Mah	-12125
▁আনে	-12126
cyclop	-12127
▁April	-12128
▁কথোপক	-12129
wh	-12130
প্তি	-12131
▁Del	-12132
▁জর্	-12133
▁ডকুম	-12134
▁হাউজ	-12135
▁জলপাই	-12136
▁ডিস্ক	-12137
▁অন্যরা	-12138
▁ফার্স্ট	-12139
▁বাস্কেট	-12140
▁guidance	-12141
কেশ	-12142
োরাস	-12143
চারাল	-12144
▁প্রাগ	-12145
জেস	-12146
পাত্র	-12147
▁later	-12148
▁গ্লাস	-12149
▁জাকার	-12150
▁শিশুশ	-12151
▁শিল্পকর্ম	-12152
▁৭৬	-12153
টুকু	-12154
১৯৯৫	-12155
▁মহি	-12156
▁মুস	-12157
▁জয়ন	-12158
▁আনুগত	-12159
▁বাঁধা	-12160
▁সুন্ন	-12161
▁বার্লিন	-12162
▁৭৮	-12163
▁pict	-12164
▁ভাইর	-12165
রাউন্ড	-12166
▁জমিতে	-12167
▁Science	-12168
▁পাঞ্জাবি	-12169
ায়ত	-12170
▁বামহ	-12171
▁along	-12172
▁গুজরাত	-12173
▁বাড়তে	-12174
▁চু	-12175
▁ত্রাণ	-12176
▁angels	-12177
▁কাহিনি	-12178
▁প্রতিস	-12179
▁প্রেমে	-12180
▁কাশ্মীরের	-12181
▁পরিকল্পিত	-12182
লিটি	-12183
ought	-12184
▁2014	-12185
▁কোপা	-12186
▁বিমানবন্দরের	-12187
▁flo	-12188
▁ওঠা	-12189
▁মিক	-12190
ricket	-12191
▁নম্বরে	-12192
▁পরস্পর	-12193
▁অ্যাক্সেস	-12194
▁ইন্সটিটিউট	-12195
্লু	-12196
▁পী	-12197
oman	-12198
আমরা	-12199
াঞ্জ	-12200
▁রচয়	-12201
▁নামেই	-12202
▁নিজাম	-12203
▁ভূগর্ভস্থ	-12204
ires	-12205
াতুল	-12206
▁বোস	-12207
▁লোড	-12208
তাড়ি	-12209
▁Know	-12210
▁অস্থির	-12211
ify	-12212
▁Great	-12213
▁months	-12214
▁ব্যবহারকারীর	-12215
cl	-12216
চিতে	-12217
ন্না	-12218
▁মিশে	-12219
▁State	-12220
▁ক্লার্ক	-12221
▁দৃষ্টিকোণ	-12222
▁ব্রিটেনের	-12223
▁৮ম	-12224
aste	-12225
▁195	-12226
▁guy	-12227
জীবনী	-12228
▁দেহে	-12229
lected	-12230
▁himself	-12231
▁Lit	-12232
টার্ন	-12233
▁স্মরণে	-12234
▁whether	-12235
জায়	-12236
▁enj	-12237
▁অভ্যাস	-12238
প্রক	-12239
▁কভার	-12240
▁ইযা়হ	-12241
▁তিনিও	-12242
▁সন্তু	-12243
▁সেলিম	-12244
▁জার্মানিতে	-12245
ারো	-12246
▁none	-12247
▁ষোড়শ	-12248
▁হিসেব	-12249
▁ছাত্রী	-12250
▁প্রযোজিত	-12251
▁পর্বতমালা	-12252
▁ব্যাকটেরিযা়	-12253
bey	-12254
মুল	-12255
াজে	-12256
▁গণের	-12257
▁অন্তঃ	-12258
▁having	-12259
▁ওলন্দাজ	-12260
▁সম্মানসূচক	-12261
emy	-12262
▁ভোজ	-12263
যা়লম	-12264
▁জরুরী	-12265
▁Israel	-12266
▁মামলায়	-12267
▁business	-12268
▁সম্প্রচারিত	-12269
জাদ	-12270
াগা	-12271
▁রথ	-12272
▁বকর	-12273
▁bene	-12274
▁আব্দুর	-12275
▁চলাকালে	-12276
এসএস	-12277
▁বেহ	-12278
▁2015	-12279
▁সারি	-12280
▁ইতোমধ্যে	-12281
▁অভিজ্ঞতার	-12282
িযা়হ	-12283
▁গর্ব	-12284
▁শিখে	-12285
▁শুটিং	-12286
▁Oxford	-12287
▁আয়তনের	-12288
▁উপত্যকার	-12289
▁ভারতবর্ষ	-12290
▁অ্যাসোসিয়েশনের	-12291
hem	-12292
ots	-12293
▁above	-12294
▁আচ্ছা	-12295
▁ক্রমে	-12296
▁পারফর	-12297
▁বিনতে	-12298
িস্তম্ভ	-12299
▁বাসায়	-12300
▁অ্যান্ট	-12301
▁পছন্দের	-12302
▁বাসিন্দাদের	-12303
▁চলচ্চিত্রটিতে	-12304
্হ	-12305
kind	-12306
মর্য	-12307
▁ভেল	-12308
▁বিপণ	-12309
▁গড	-12310
lict	-12311
▁তিল	-12312
▁দাদা	-12313
▁সেলস	-12314
▁City	-12315
▁কাঁচা	-12316
বার্ষিক	-12317
▁States	-12318
▁থাইল্যান্ডের	-12319
▁cou	-12320
▁শরৎ	-12321
▁important	-12322
8,	-12323
▁গন	-12324
▁ডেক	-12325
▁পাও	-12326
▁সিপ	-12327
▁avail	-12328
▁আজীবন	-12329
▁মেদিন	-12330
▁কানাডীয়	-12331
▁সুস্পষ্ট	-12332
▁অ্যাঞ্জেলে	-12333
▁৭১	-12334
▁Sch	-12335
▁الم	-12336
▁আয়ু	-12337
▁কনফেড	-12338
▁পেশায়	-12339
▁ট্রেনের	-12340
▁একাডেমির	-12341
▁আইল্যান্ড	-12342
ভী	-12343
ভূম	-12344
▁Law	-12345
▁ছাদ	-12346
▁Sing	-12347
▁ডিজাই	-12348
▁পুকুর	-12349
▁অন্ধকার	-12350
▁পেরেছিলেন	-12351
iddle	-12352
▁রুটি	-12353
▁Image	-12354
▁সমাহিত	-12355
▁ন্যূনতম	-12356
▁আত্মসমর্পণ	-12357
শট	-12358
১৯৯২	-12359
▁মোত	-12360
▁আর্য	-12361
▁উদ্ধৃত	-12362
▁লিনাক্স	-12363
▁ঠোঁ	-12364
▁দুর্যোগ	-12365
▁মহাসাগরের	-12366
▁walk	-12367
▁খাতুন	-12368
▁ট্যাব	-12369
▁শুকনো	-12370
▁মহারাজা	-12371
▁কুষ্টিযা়	-12372
মিও	-12373
▁Ca	-12374
নশীল	-12375
▁ফোট	-12376
▁ডেকে	-12377
▁হাসপাতালের	-12378
rict	-12379
▁মহা	-12380
▁আলেম	-12381
▁চাচ্	-12382
▁পারো	-12383
▁শঙ্ক	-12384
▁১৮৯০	-12385
▁স্লোভ	-12386
িযা়নের	-12387
▁প্রশিক্ষণের	-12388
শু	-12389
সাস	-12390
▁রাধ	-12391
▁বিগত	-12392
▁খামার	-12393
▁সরস্ব	-12394
▁আচরণের	-12395
▁কৌশলগত	-12396
▁বিপজ্জনক	-12397
▁শিল্পীদের	-12398
In	-12399
▁বধ	-12400
▁টনি	-12401
সেন্ট	-12402
▁foot	-12403
▁claim	-12404
▁works	-12405
▁এডুকে	-12406
▁নির্মাণে	-12407
চীন	-12408
uture	-12409
কলাপের	-12410
▁টেম্প	-12411
▁সালাহ	-12412
▁উভয়েই	-12413
▁সেক্টর	-12414
▁প্রথমবার	-12415
▁ধারাবাহিকভাবে	-12416
▁ইয়ং	-12417
▁দামে	-12418
▁promise	-12419
▁মহারাষ্ট্রের	-12420
িনিউ	-12421
▁অতএব	-12422
▁পঞ্জ	-12423
▁আযা়রল্যান্ডের	-12424
াইশ	-12425
ient	-12426
▁বসন	-12427
▁ইন্ট	-12428
illiam	-12429
▁হেলিক	-12430
▁মহামার	-12431
ইই	-12432
▁jo	-12433
▁৬১	-12434
▁কুন	-12435
▁খণ্ডে	-12436
▁আঘাতের	-12437
▁জিতেছেন	-12438
▁বাণিজ্যের	-12439
▁•	-12440
▁শান	-12441
▁সেসব	-12442
স্বাস্থ	-12443
▁ভূমিকার	-12444
▁এসোসিয়ে	-12445
েশ্বরী	-12446
▁বিদেশি	-12447
▁দেওযা়ন	-12448
▁গহ	-12449
্যস্ত	-12450
চিত্রে	-12451
mission	-12452
▁লাগানো	-12453
▁সংস্পর্শে	-12454
▁মুহাম্মাদের	-12455
▁বহির	-12456
▁কনভেন	-12457
▁কনিষ্ঠ	-12458
▁সাইকেল	-12459
▁লাগিয়ে	-12460
▁ইস্টার্ন	-12461
▁জ্বালানি	-12462
▁প্রবেশাধিকার	-12463
0)	-12464
▁নই	-12465
orge	-12466
জ্ঞা	-12467
িলিং	-12468
▁Oct	-12469
▁এতো	-12470
▁বুন	-12471
rench	-12472
নির্মিত	-12473
▁এসেছেন	-12474
▁ঠান্ডা	-12475
▁সড়কের	-12476
োই	-12477
vir	-12478
▁ইকোন	-12479
▁উপাধ	-12480
▁প্লেট	-12481
▁লেখিকা	-12482
▁hum	-12483
▁মজা	-12484
▁রচন	-12485
াক্রম	-12486
▁জুরি	-12487
▁ভিতর	-12488
▁কৃষ্ণের	-12489
▁অসামান্য	-12490
▁এরিক	-12491
▁বিনা	-12492
▁মণ্ড	-12493
▁অ্যালক	-12494
▁রাইফেল	-12495
▁কারিগরি	-12496
▁সর্বজনীন	-12497
▁রেজিমেন্ট	-12498
▁অলিম্পিকের	-12499
▁তাডা়তাড়ি	-12500
গুলিও	-12501
▁শস্য	-12502
▁দলটির	-12503
▁সিডনি	-12504
▁ডোমেইন	-12505
▁সিনেমার	-12506
▁কেমব্রিজ	-12507
▁ক্রোয়েশ	-12508
▁তদ	-12509
ising	-12510
বিবাহ	-12511
▁July	-12512
▁News	-12513
▁পিছিয়ে	-12514
▁কোরিযা়ন	-12515
▁div	-12516
বিচার	-12517
▁reason	-12518
বর্ধ	-12519
▁তেম	-12520
▁Books	-12521
▁গণতন্ত্র	-12522
▁সংবেদনশীল	-12523
ক্যের	-12524
▁বইয়ে	-12525
▁Africa	-12526
▁সাইপ্র	-12527
▁ঠাকুরের	-12528
▁ক্ষেত্রেও	-12529
▁চ্যানেলের	-12530
▁চ্যাম্পিয়নস	-12531
ID	-12532
▁মগ	-12533
▁রন	-12534
িরহাট	-12535
▁host	-12536
▁জনকে	-12537
▁দৌড়	-12538
▁বণিক	-12539
ization	-12540
▁প্রতাপ	-12541
▁tou	-12542
▁বিশদ	-12543
▁পারবো	-12544
▁যুগ্ম	-12545
▁associ	-12546
▁ত্রিনি	-12547
▁পর্বতের	-12548
▁মহকুমার	-12549
▁অভযা়রণ্য	-12550
সাহ	-12551
ধুনিক	-12552
▁হিরো	-12553
▁Russian	-12554
▁working	-12555
▁বাস্তবতা	-12556
▁বৈশিষ্ট্যের	-12557
গাছ	-12558
▁এফসি	-12559
▁মৌলভ	-12560
▁যজ্ঞ	-12561
াসাহিত	-12562
▁অ্যাংল	-12563
▁তালেবান	-12564
টেইনমেন্ট	-12565
▁পুনর্গঠন	-12566
▁দেখিয়েছেন	-12567
▁স্তন্যপায়ী	-12568
োটিক	-12569
▁জলদ	-12570
▁করুণ	-12571
▁বাগদ	-12572
▁আলেকজ	-12573
▁মার্ভ	-12574
▁ইসলামে	-12575
▁উপসর্গ	-12576
▁নদীটির	-12577
ুমিন	-12578
▁সুড়	-12579
▁১৯০২	-12580
▁ইরাকি	-12581
▁টাঙ্গাইল	-12582
▁ওম	-12583
▁কুপ	-12584
▁কুড়ি	-12585
▁অর্গান	-12586
▁একজনের	-12587
▁বছরেরও	-12588
▁সিটিতে	-12589
va	-12590
চর্	-12591
▁আঙ	-12592
পুরী	-12593
পাশের	-12594
▁সিডি	-12595
▁পার্কে	-12596
▁পুরাণে	-12597
▁অ্যাকাড	-12598
কেন্দ্রিক	-12599
▁Libr	-12600
▁ফেনী	-12601
▁ঘোষণার	-12602
▁unbelie	-12603
▁করেছিলো	-12604
▁Ali	-12605
▁৬০০	-12606
▁ম্যান্ড	-12607
▁believed	-12608
▁পদার্থবিজ্ঞানে	-12609
-19	-12610
aka	-12611
▁ইকু	-12612
▁শিম	-12613
▁ঝুঁক	-12614
▁মাধব	-12615
▁শাহের	-12616
▁সুগন্ধ	-12617
▁ব্রাযা়ন	-12618
▁শ্রেণীবদ্ধ	-12619
পক	-12620
ৃক	-12621
aid	-12622
▁ভোটা	-12623
▁appro	-12624
▁record	-12625
▁মাস্টার্স	-12626
ুথ	-12627
bru	-12628
্তে	-12629
▁Ret	-12630
▁bes	-12631
▁জাজ	-12632
▁astr	-12633
▁makes	-12634
সিস	-12635
▁গুঁ	-12636
ified	-12637
▁ধাপে	-12638
▁নবীন	-12639
▁মায়	-12640
▁১৮৯৯	-12641
▁নির্ভ	-12642
▁taking	-12643
▁অদৃশ্য	-12644
▁সহকর্মী	-12645
▁দূরবর্তী	-12646
ইম	-12647
add	-12648
াবিত	-12649
ক্ষিতে	-12650
▁mount	-12651
▁রোডের	-12652
▁শিলালিপি	-12653
bel	-12654
েসি	-12655
▁লখন	-12656
▁lives	-12657
▁হায়দার	-12658
▁শ্রীম	-12659
▁মুদ্রিত	-12660
▁বজ্র	-12661
▁বিধি	-12662
▁ইউটিউব	-12663
▁ব্যবসার	-12664
▁সার্টিফ	-12665
▁ব্যাটিংয়ে	-12666
র্দা	-12667
▁মাঠের	-12668
▁স্যাল	-12669
yr	-12670
টেল	-12671
▁Mo	-12672
come	-12673
▁ইনক	-12674
▁অপমান	-12675
▁পাননি	-12676
▁অস্কার	-12677
▁control	-12678
▁পদার্থবিজ্ঞানী	-12679
োহর	-12680
▁100	-12681
orrow	-12682
াসীরা	-12683
▁আবৃত	-12684
▁আলিম	-12685
▁দলিল	-12686
▁মুসা	-12687
▁check	-12688
▁দুজনে	-12689
▁ড্রাইভ	-12690
▁আলোচনায়	-12691
অপ	-12692
াজনক	-12693
▁উপদেশ	-12694
▁চওডা়	-12695
▁ধর্মঘ	-12696
▁প্রবীণ	-12697
▁অনুচ্ছেদ	-12698
▁গণপ্রজাত	-12699
▁মালিকানা	-12700
▁নিম্নোক্ত	-12701
▁পারফরম্যান	-12702
▁air	-12703
▁পরো	-12704
▁knew	-12705
▁গাইড	-12706
▁সহ্য	-12707
▁১৯০৩	-12708
▁everyone	-12709
▁yourself	-12710
ইউরোপ	-12711
▁East	-12712
▁জবাব	-12713
▁ডুবে	-12714
▁চাইলে	-12715
▁উমাইযা়	-12716
▁মেডিক্যাল	-12717
▁খন্ড	-12718
▁বেইজিং	-12719
▁উপরন্তু	-12720
▁বাহিনীতে	-12721
▁হায়দ্রাবাদ	-12722
র্দি	-12723
ীক্ষ	-12724
▁আসো	-12725
ামাটি	-12726
▁নগ্ন	-12727
▁ফুটে	-12728
▁১১টি	-12729
▁১৯০৪	-12730
▁কিছুর	-12731
▁রিভার	-12732
▁ডিভিশন	-12733
▁এলাকাটি	-12734
▁সংক্রাম	-12735
ফুট	-12736
বিউ	-12737
▁ওয়েন	-12738
▁রকমের	-12739
▁পর্যটক	-12740
ার্থীদের	-12741
▁ভিটামিন	-12742
ব্যা	-12743
োপাল	-12744
▁গোর	-12745
▁আসাদ	-12746
▁যোদ্ধ	-12747
▁প্রতিরোধের	-12748
▁সুইজারল্যান্ড	-12749
airs	-12750
যুগের	-12751
িউডের	-12752
▁টেনে	-12753
▁তেহর	-12754
▁আক্রমণে	-12755
▁৭৭	-12756
▁wond	-12757
এমএ	-12758
ভিতে	-12759
াচলের	-12760
ference	-12761
▁আংশিকভাবে	-12762
▁সংবাদপত্রের	-12763
▁ban	-12764
▁bless	-12765
▁যেমনঃ	-12766
▁reported	-12767
▁বিধানসভায়	-12768
মানা	-12769
য়েত	-12770
ঞ্চার	-12771
সঙ্গে	-12772
▁Prof	-12773
cember	-12774
▁বিরাজ	-12775
▁announ	-12776
▁অপরদিকে	-12777
▁দেহাবসান	-12778
▁কোহ	-12779
▁জানার	-12780
▁সিদ্ধান্তে	-12781
▁অর্থনীতিবিদ	-12782
lex	-12783
োটের	-12784
▁ঝড়	-12785
▁অভিভাব	-12786
▁আবাসস্থল	-12787
▁বিমানবন্দরটি	-12788
leep	-12789
▁সিঁ	-12790
ample	-12791
▁তখনও	-12792
▁সৈকত	-12793
▁block	-12794
▁মুকুট	-12795
▁প্রগতি	-12796
▁গণমাধ্যম	-12797
লু	-12798
ফেট	-12799
▁এলে	-12800
▁কনক	-12801
▁মিউজিযা়ম	-12802
▁ইউক্রেনীয়	-12803
▁ডের	-12804
▁তুম	-12805
ান্দা	-12806
▁ডাইন	-12807
▁পদের	-12808
ration	-12809
▁বলছেন	-12810
▁মেহের	-12811
▁access	-12812
▁সেনানিব	-12813
▁আয়োজনের	-12814
▁প্রয়োজনে	-12815
lu	-12816
▁ঘটান	-12817
▁অভিনেত্র	-12818
▁বন্ধুদের	-12819
rap	-12820
omin	-12821
▁গুর	-12822
▁পুরু	-12823
▁January	-12824
▁পরিপ্রেক্ষিতে	-12825
ণা	-12826
rag	-12827
▁Er	-12828
▁এথ	-12829
▁Dem	-12830
▁দেখি	-12831
▁Human	-12832
▁ডেইলি	-12833
▁তিউনিস	-12834
▁বেদান্ত	-12835
▁কক্সবাজার	-12836
জক	-12837
rate	-12838
▁পেত	-12839
▁মোড়	-12840
▁sorry	-12841
▁কথায়	-12842
▁সংঘাত	-12843
▁সেসময়	-12844
বিদ্যায়	-12845
▁fal	-12846
▁ফোর্	-12847
▁ভোটে	-12848
▁দখলের	-12849
▁পালনের	-12850
▁সাহসিক	-12851
▁প্রকল্পে	-12852
▁Cambridge	-12853
ex	-12854
bed	-12855
ফ্রি	-12856
োগ্ল	-12857
▁Sir	-12858
ন্দিরা	-12859
▁পাড়ি	-12860
▁হাযা়	-12861
ূন্য	-12862
▁সমুদ	-12863
▁সেক্ট	-12864
▁Encyclop	-12865
▁চিত্রনাট্যকার	-12866
ঘি	-12867
▁আজম	-12868
স্কোর	-12869
onment	-12870
▁share	-12871
▁নওযা়	-12872
িস্বরূপ	-12873
▁সমর্থনে	-12874
-0	-12875
ফাজ	-12876
েতা	-12877
▁App	-12878
▁শিন	-12879
▁ট্যাগ	-12880
▁সেক্স	-12881
▁সেদিন	-12882
মিডিযা়	-12883
▁হার্ভার্ড	-12884
▁আলু	-12885
▁বেলা	-12886
িডিযা়	-12887
▁First	-12888
▁বিলাস	-12889
▁প্রসঙ্গ	-12890
▁দক্ষিণের	-12891
ask	-12892
▁mov	-12893
▁মন্ড	-12894
▁রজার	-12895
▁সন্দ	-12896
▁hours	-12897
▁প্রাই	-12898
▁বহির্	-12899
▁reports	-12900
▁সন্ধ্যা	-12901
▁অনুশীলনের	-12902
urd	-12903
▁যশ	-12904
দিকের	-12905
▁শুমারি	-12906
▁পোল্যান্ড	-12907
▁সম্মেলনের	-12908
▁এন্টারটেইনমেন্ট	-12909
))	-12910
হাজ	-12911
ংয়ের	-12912
ওযা়ট	-12913
▁answ	-12914
▁আদান	-12915
▁রোগীদের	-12916
তৃত	-12917
থেকে	-12918
▁Ant	-12919
▁Saudi	-12920
▁আগমনের	-12921
▁যেভাবে	-12922
▁রামায়ণ	-12923
রহ	-12924
লক	-12925
ভিক	-12926
▁লিউ	-12927
▁disp	-12928
▁সারণ	-12929
াগুলিকে	-12930
▁expect	-12931
▁খেললেও	-12932
▁বুদ্ধের	-12933
▁পুনর্জন্ম	-12934
▁সন্ন্যাসী	-12935
net	-12936
ogn	-12937
শাদ	-12938
▁বিরক্ত	-12939
▁অষ্টাদশ	-12940
জাই	-12941
▁টুল	-12942
idence	-12943
াপূর্ণ	-12944
▁beaut	-12945
▁নাটকীয়	-12946
▁গ্রন্থটি	-12947
▁ডেমোক্রে	-12948
CO	-12949
ৈখিক	-12950
▁eng	-12951
▁হিপ	-12952
োডক্স	-12953
▁ব্যান্ডের	-12954
▁মুক্তিযুদ্ধে	-12955
ঙা	-12956
দানে	-12957
▁থ্রি	-12958
▁মুযা়	-12959
▁সুইডিশ	-12960
▁লেখকদের	-12961
▁সর্বত্র	-12962
kh	-12963
▁টিক	-12964
▁ফরে	-12965
নায়ক	-12966
▁কাস্ট	-12967
▁inside	-12968
▁তিব্বতী	-12969
▁দেওবন্দ	-12970
▁সমাধানের	-12971
গেট	-12972
▁এডি	-12973
▁লুস	-12974
মূর্তি	-12975
▁users	-12976
▁জেরুজ	-12977
▁বোনের	-12978
▁রেলের	-12979
▁গল্পটি	-12980
▁চিন্তাধ	-12981
ছিস	-12982
▁কাঞ্চ	-12983
▁গার্ল	-12984
▁জন্মে	-12985
▁ফয়সাল	-12986
▁প্রয়োগের	-12987
8)	-12988
ام	-12989
মালার	-12990
▁সাঈদ	-12991
▁ডেস্ক	-12992
▁দ্বিগুণ	-12993
▁বিজ্ঞানে	-12994
▁disbelieve	-12995
▁স্মৃতিস্তম্ভ	-12996
ops	-12997
▁জির	-12998
িল্লি	-12999
ালিযা়	-13000
▁আহসান	-13001
▁হুগলি	-13002
▁হ্যান	-13003
▁অধিকতর	-13004
▁ঠিকানা	-13005
▁অ্যাক্ট	-13006
▁মিশ্রিত	-13007
▁দেশগুলির	-13008
াশন	-13009
ুমা	-13010
▁Art	-13011
9,	-13012
▁গম	-13013
▁চত	-13014
াইলে	-13015
সাহিত	-13016
▁ভেক্টর	-13017
▁ইভেন্টে	-13018
▁উপেক্ষা	-13019
▁সরবরাহের	-13020
▁যন্ত্রপাতি	-13021
▁আক্রমণাত্মক	-13022
▁পরা	-13023
▁রাউ	-13024
▁June	-13025
▁করাচি	-13026
▁গতিতে	-13027
▁সাক্ষ্য	-13028
▁প্রত্যাবর্তন	-13029
ery	-13030
▁পরিল	-13031
▁অন্যের	-13032
▁দায়ের	-13033
▁মানদণ্ড	-13034
▁বিশ্বজুড়ে	-13035
▁আবশ্য	-13036
▁সেতুর	-13037
▁গ্রাহক	-13038
াগী	-13039
গঠিত	-13040
১৯৯১	-13041
▁occ	-13042
▁ঝিন	-13043
বান্ধ	-13044
▁2013	-13045
▁১৮৯৬	-13046
▁প্রাইম	-13047
▁হারায়	-13048
hers	-13049
ব্রত	-13050
▁Gener	-13051
▁কালের	-13052
▁(18	-13053
▁আরাম	-13054
বাহিনীর	-13055
▁একটিমাত্র	-13056
▁ইফ	-13057
▁Act	-13058
ধ্বনি	-13059
▁দুবাই	-13060
▁within	-13061
▁গেমসের	-13062
▁ছোটগল্প	-13063
▁বিস্ময়	-13064
▁অনুষ্ঠানটি	-13065
▁1,	-13066
▁নিষ্প	-13067
▁ওযা়র্ডের	-13068
▁নিষ্ক্রিয়	-13069
▁স্বাস্থ্যের	-13070
সেক	-13071
▁দীন	-13072
▁মহেশ	-13073
ায়মান	-13074
▁মালযা়লম	-13075
▁অসংরক্ষিত	-13076
তাহ	-13077
োমার	-13078
ES	-13079
চৌ	-13080
▁জুব	-13081
চিকিৎ	-13082
▁পরিষদে	-13083
▁এজেন্সি	-13084
▁ডকুমেন্ট	-13085
▁প্রচেষ্টায়	-13086
head	-13087
▁দাফ	-13088
▁রিও	-13089
▁উচিৎ	-13090
▁রঙিন	-13091
▁জীবের	-13092
▁বিধ্ব	-13093
▁বর্গমাইল	-13094
▁মাধ্যমেই	-13095
হাদ	-13096
▁নেপথ	-13097
▁সাইন	-13098
▁estab	-13099
▁ক্রুসে	-13100
▁জন্মদিন	-13101
▁প্রতিভা	-13102
▁তুলেছিলেন	-13103
▁প্রত্নতত্ত্ব	-13104
ফোর	-13105
▁তলায়	-13106
▁সাহসী	-13107
▁সিকিম	-13108
▁photos	-13109
▁threat	-13110
ম্ত	-13111
▁Asia	-13112
▁হিমাচল	-13113
▁শাসকদের	-13114
▁পুনরুজ্জ	-13115
▁ধর্মান্তরিত	-13116
▁নায়	-13117
▁ফেলেন	-13118
▁ভাঙ্গ	-13119
▁মার্স	-13120
▁পাচ্ছে	-13121
সম্মত	-13122
ীক্ষণ	-13123
▁হামলায়	-13124
▁কনফারেন্স	-13125
aves	-13126
▁থিম	-13127
াদর্শ	-13128
▁স্তো	-13129
▁দুর্ভ	-13130
▁বানান	-13131
▁অন্তর্ব	-13132
▁এড়িয়ে	-13133
▁ডেস	-13134
তিযা়	-13135
▁অর্প	-13136
▁কন্ঠ	-13137
ources	-13138
▁react	-13139
▁সংঘর্ষের	-13140
▁ক্রান্তীয়	-13141
টান	-13142
িউস	-13143
রিযা়	-13144
▁অপরাধী	-13145
▁পরিভাষ	-13146
▁পারতেন	-13147
▁পূর্বেই	-13148
▁national	-13149
ee	-13150
ত্রি	-13151
োত্তম	-13152
▁five	-13153
▁কিংস	-13154
▁হতেন	-13155
▁হিব্রু	-13156
▁William	-13157
▁এমনভাবে	-13158
▁দূরত্বে	-13159
▁ড্যানিয়েল	-13160
▁চুন	-13161
▁প্ৰ	-13162
where	-13163
▁মস্কো	-13164
▁পরাজয়	-13165
▁ক্যারোল	-13166
▁ট্রাম্প	-13167
কথা	-13168
টারের	-13169
▁ডিম্ব	-13170
▁সভ্যতা	-13171
▁comment	-13172
১৯৯০	-13173
▁Take	-13174
▁বাক্স	-13175
▁উপসাগর	-13176
▁প্যারা	-13177
▁সালমান	-13178
▁হিমবাহ	-13179
▁প্রশ্নের	-13180
।.	-13181
pin	-13182
▁৭৯	-13183
্লাদ	-13184
▁চিং	-13185
▁গণপরি	-13186
▁গার্লস	-13187
▁পার্বতী	-13188
▁উত্তরসূরি	-13189
▁পরিলক্ষিত	-13190
ন্নে	-13191
মারা	-13192
িসৌধ	-13193
কিন্ত	-13194
▁দীর্ঘস্থায়ী	-13195
্নান	-13196
▁গঠনে	-13197
▁ধরেন	-13198
াক্ষিক	-13199
াপাডা়	-13200
▁across	-13201
▁কুস্তিগ	-13202
▁থিয়েটারে	-13203
▁ধর্মাবলম্ব	-13204
বসতি	-13205
▁due	-13206
▁ঋতু	-13207
ৃতিতে	-13208
▁film	-13209
▁বলবে	-13210
val	-13211
বিএন	-13212
ালাভ	-13213
▁কুরু	-13214
▁ছডা়	-13215
▁North	-13216
▁ওযা়ক	-13217
▁কুইন্	-13218
িত্যক্ত	-13219
▁নির্গত	-13220
▁প্রণয়	-13221
▁Because	-13222
▁হাইওয়ে	-13223
pr	-13224
জেট	-13225
▁রও	-13226
▁ফেম	-13227
▁শায়	-13228
▁thous	-13229
▁অধুনা	-13230
▁fucking	-13231
▁পার্লাম	-13232
▁স্মরণীয়	-13233
▁খসডা়	-13234
ফাইনালে	-13235
▁ঘটিয়ে	-13236
▁স্টোরি	-13237
▁অ্যালান	-13238
ki	-13239
িশ্চ	-13240
াচুসে	-13241
▁এএফসি	-13242
▁নুরুল	-13243
▁স্টিভ	-13244
▁এক্সচেঞ্জ	-13245
▁Mod	-13246
ইয়ের	-13247
▁দিবে	-13248
▁ফলের	-13249
▁আহমাদ	-13250
▁ইরানে	-13251
▁অভিবাসন	-13252
▁অবসরপ্রাপ্ত	-13253
▁ডিপার্টমেন্ট	-13254
lor	-13255
জুল	-13256
বারি	-13257
▁isn	-13258
▁কুশ	-13259
▁মেরু	-13260
▁বিভাজ	-13261
▁success	-13262
াডি	-13263
▁Last	-13264
▁king	-13265
▁মেইল	-13266
সভাপতি	-13267
▁নকশার	-13268
ptember	-13269
▁অদ্বৈত	-13270
▁পর্যবেক্ষ	-13271
era	-13272
▁ওস	-13273
জিতে	-13274
▁var	-13275
বেলের	-13276
▁ক্ষতির	-13277
▁উত্তোলন	-13278
▁প্রযোজন	-13279
▁situation	-13280
▁ইয়েমেনের	-13281
ুড়	-13282
▁Dh	-13283
▁মথ	-13284
হার্য	-13285
▁Associ	-13286
▁পাতায়	-13287
▁প্যারিসে	-13288
মিস	-13289
▁বণ	-13290
োনিক	-13291
▁কারও	-13292
ground	-13293
▁দিলেন	-13294
▁বরখাস্ত	-13295
▁স্টিফেন	-13296
▁তাপমাত্রার	-13297
▁ঋগ	-13298
▁জাব	-13299
▁বদল	-13300
▁class	-13301
▁মেমোরিযা়ল	-13302
omes	-13303
▁Hind	-13304
▁চাচা	-13305
▁দাবা	-13306
▁পাকা	-13307
▁লিটল	-13308
মাত্রা	-13309
▁কুতুব	-13310
▁যমুনা	-13311
▁চৌম্বক	-13312
▁সেনাদের	-13313
▁ব্যক্তিব	-13314
▁লগ	-13315
ডিসি	-13316
▁নিও	-13317
াইটের	-13318
স্টেশন	-13319
▁proper	-13320
▁ফ্রেঞ্চ	-13321
▁রাজাদের	-13322
▁পণ্ডিতদের	-13323
গ্রে	-13324
▁anim	-13325
▁উইকি	-13326
▁পুতুল	-13327
▁প্লিজ	-13328
▁সভাপত	-13329
ুব্ধ	-13330
▁cut	-13331
▁কন্ট	-13332
▁সর্প	-13333
▁দাঁডা়	-13334
▁সম্মতি	-13335
▁মাত্রায়	-13336
▁According	-13337
”,	-13338
adi	-13339
বুব	-13340
▁2.	-13341
▁messe	-13342
▁নির্দেশে	-13343
▁প্রবাহের	-13344
rog	-13345
হেড	-13346
িবাহ	-13347
▁পরই	-13348
▁ছদ্ম	-13349
▁সাথেই	-13350
মেযা়দী	-13351
▁এডুকেশন	-13352
ogle	-13353
১৯৮৯	-13354
▁ইযা়ক	-13355
▁প্রোফাইল	-13356
▁মনস্ত	-13357
▁নাইট্র	-13358
▁মহাসড়	-13359
▁পরিদর্শ	-13360
পাকিস্তান	-13361
▁রোমান্টিক	-13362
▁নির্দেশিকা	-13363
21	-13364
▁কোট	-13365
▁ঢাক	-13366
▁শাব	-13367
▁ফক্স	-13368
▁চুম্ব	-13369
াপেক্ষা	-13370
ological	-13371
▁উন্নতির	-13372
▁উৎক্ষেপণ	-13373
▁ওডিআইয়ে	-13374
load	-13375
▁দ্গ	-13376
স্তাদ	-13377
▁রোগী	-13378
▁torment	-13379
▁স্থায়ীভাবে	-13380
খাত	-13381
নাস	-13382
▁রব	-13383
্লোর	-13384
▁Sam	-13385
চেটিযা়	-13386
▁গভীরতা	-13387
▁হাসিনা	-13388
▁পেয়েছি	-13389
▁আমল	-13390
তোযা়	-13391
▁front	-13392
▁মক্কা	-13393
▁সংগঠক	-13394
▁নাস্তিক	-13395
▁মালদ্বীপ	-13396
▁রেস্তোরা	-13397
▁ইউক্রেনের	-13398
▁বাস্কেটবল	-13399
▁ব্যবহারিক	-13400
আব	-13401
।’’	-13402
ival	-13403
টাইম	-13404
▁তাব	-13405
▁জনসন	-13406
▁মুফতি	-13407
▁লেখকের	-13408
▁December	-13409
▁মাদ্রাসায়	-13410
St	-13411
lied	-13412
ায়ণের	-13413
▁break	-13414
▁অঙ্কন	-13415
▁বিপর্যয়	-13416
▁যাত্রীদের	-13417
▁সার্বজনীন	-13418
োগো	-13419
োজাহ	-13420
▁game	-13421
▁idea	-13422
▁দখলে	-13423
bruary	-13424
প্তরের	-13425
▁ভুটান	-13426
চ্ছেদের	-13427
▁চতুর্দ	-13428
▁II	-13429
▁বোঝার	-13430
▁হাফিজ	-13431
ব্যবস্থা	-13432
▁neither	-13433
▁ইকুয়েড	-13434
▁মিস্টার	-13435
▁সোডিযা়ম	-13436
ball	-13437
lear	-13438
েশনস	-13439
▁পাম	-13440
▁বুদ	-13441
▁গেলেও	-13442
▁মহারাজ	-13443
▁পাহাড়ি	-13444
▁মুসলমানরা	-13445
▁৮৮	-13446
পুরা	-13447
ardens	-13448
▁শুদ্ধ	-13449
▁মাধ্যমের	-13450
▁পর্যটকদের	-13451
▁ইঞ্জিনিযা়র	-13452
urs	-13453
োলের	-13454
১৯৮৮	-13455
য়রের	-13456
▁Nove	-13457
▁ক্যাব	-13458
▁কথাসাহিত	-13459
▁চেয়েছিল	-13460
▁প্লাস্টিক	-13461
▁cr	-13462
▁খড়	-13463
▁জেড	-13464
▁বন্ড	-13465
▁ছুটির	-13466
নির্বাচ	-13467
▁করেছিলাম	-13468
▁পর্বতমালার	-13469
রাচর	-13470
alism	-13471
িকারক	-13472
▁পদোন্ন	-13473
▁দীর্ঘতম	-13474
▁৮৪	-13475
aliz	-13476
tics	-13477
▁যুবক	-13478
▁স্পেশ	-13479
▁mankind	-13480
▁ভালভাবে	-13481
▁কানাডিযা়ন	-13482
▁ম্যাজিস্ট্রেট	-13483
অথ	-13484
পট	-13485
aby	-13486
▁ওক	-13487
▁লাউ	-13488
▁ভুক্ত	-13489
▁গ্রীষ্মে	-13490
▁ডিপ্লোমা	-13491
▁প্রোগ্রামের	-13492
তেই	-13493
cing	-13494
vere	-13495
▁begin	-13496
▁চেতনা	-13497
▁রচয়িতা	-13498
▁ভন	-13499
▁Abd	-13500
▁নিখোঁ	-13501
▁ইস্পাত	-13502
▁সেনারা	-13503
▁হুমকির	-13504
▁মাদরাসা	-13505
▁সর্বভারতীয়	-13506
ঝো	-13507
যোগে	-13508
▁মাশ	-13509
▁থাকো	-13510
নন্দিন	-13511
▁ভ্রাত	-13512
▁লরেন্স	-13513
▁টেক্সটাইল	-13514
▁কর্মকর্তারা	-13515
▁শয	-13516
▁vill	-13517
▁একধরনের	-13518
▁প্রকাশ্যে	-13519
▁রসায়নবিদ	-13520
▁ম্যাসাচুসে	-13521
▁রেই	-13522
জাহান	-13523
▁মাইক	-13524
▁became	-13525
▁অজ্ঞাত	-13526
▁সাময়িকী	-13527
্লিশ	-13528
▁গরু	-13529
▁২০শ	-13530
দৃষ্টি	-13531
▁কুয়েত	-13532
▁গার্ডেন	-13533
▁মেডিসিন	-13534
▁Institute	-13535
বিধি	-13536
১৯৮৫	-13537
▁sun	-13538
▁ফরম	-13539
▁লায়	-13540
▁করেন৷	-13541
▁গ্রীন	-13542
▁লাইনটি	-13543
▁উল্লেখিত	-13544
▁জামালপুর	-13545
▁revel	-13546
▁সময়ই	-13547
▁স্বভাব	-13548
▁সেনগুপ্ত	-13549
▁পরিত্যক্ত	-13550
শব্দ	-13551
▁সভার	-13552
▁হিজরি	-13553
EE	-13554
▁চুপ	-13555
▁পিট	-13556
▁guys	-13557
▁নিবেদিত	-13558
▁মেগা	-13559
▁প্রীতি	-13560
▁দেশটিতে	-13561
ube	-13562
▁Mag	-13563
▁বনে	-13564
▁এভাবেই	-13565
▁Minister	-13566
▁অস্তিত্বের	-13567
▁বিমানবন্দরে	-13568
▁ভবিষ্যদ্বাণী	-13569
▁25	-13570
▁৮১	-13571
▁dam	-13572
▁deal	-13573
▁১৮৯৫	-13574
▁দার্জ	-13575
▁ম্যাড	-13576
▁ফলাফলের	-13577
রিজ	-13578
▁১৫ই	-13579
▁line	-13580
▁লালন	-13581
▁সুদান	-13582
েনিযা়ম	-13583
▁সিরিজটি	-13584
▁সর্বাপেক্ষা	-13585
▁Mc	-13586
▁mus	-13587
▁বাণী	-13588
▁sound	-13589
▁প্ররো	-13590
▁প্রস্তর	-13591
▁দুর্ঘটনা	-13592
▁অর্থোডক্স	-13593
▁সমালোচনার	-13594
▁কার্যকারিতা	-13595
আক	-13596
▁পরও	-13597
▁আখতার	-13598
▁হাদীস	-13599
▁আলেক্স	-13600
▁জামাযা়	-13601
▁একচেটিযা়	-13602
▁জোরপূর্বক	-13603
▁মহাজাগতিক	-13604
▁ম্যানেজারের	-13605
▁হলের	-13606
▁পার্ট	-13607
▁experi	-13608
▁স্থানটি	-13609
▁পুড়িয়ে	-13610
▁মূল্যবোধ	-13611
▁সন্তানদের	-13612
lev	-13613
off	-13614
র্নি	-13615
▁ঢুক	-13616
▁dream	-13617
▁উর্বর	-13618
▁প্রণালী	-13619
▁আত্মজীবনী	-13620
▁প্রদানকারী	-13621
enn	-13622
ols	-13623
▁fast	-13624
▁গৌড়	-13625
▁জৈবিক	-13626
▁স্প্রি	-13627
▁ইন্দিরা	-13628
▁কর্মীরা	-13629
▁ট্রেনিং	-13630
▁দৈনন্দিন	-13631
▁মসজিদটির	-13632
▁টেলিভিশনের	-13633
▁ব্যক্তিগতভাবে	-13634
▁৮০০	-13635
▁Even	-13636
▁ত্রয়	-13637
ustrali	-13638
▁আয়োজক	-13639
▁দেখাতে	-13640
▁কানাডায়	-13641
▁সীমান্তের	-13642
▁ভিয়েতনামের	-13643
▁ইনস্টিটিউটের	-13644
▁ক্ষমতাস	-13645
▁নৃত্যের	-13646
▁অর্থায়ন	-13647
টল্যান্ডের	-13648
▁শৃ	-13649
বারক	-13650
▁ব্রুক	-13651
▁গান্ধীর	-13652
▁শিরোনামের	-13653
▁বিজ্ঞানীরা	-13654
▁মহাপরিচালক	-13655
▁গণপ্রজাতন্ত্রী	-13656
uel	-13657
োগত	-13658
প্রত	-13659
▁sum	-13660
▁আগা	-13661
▁কফি	-13662
▁বাট	-13663
▁সাহা	-13664
দ্বিতীয়	-13665
ilt	-13666
রাত	-13667
▁বুখ	-13668
▁দাডা়	-13669
▁ফাজিল	-13670
▁চ্যাটার	-13671
▁মাদ্রিদ	-13672
▁disbelievers	-13673
CC	-13674
বোন	-13675
▁৮৩	-13676
▁অনুক	-13677
▁এসেছি	-13678
▁অভিধান	-13679
▁আর্কাইভ	-13680
▁সিদ্ধান্তের	-13681
ঙ্খ	-13682
▁অথচ	-13683
▁মেগ	-13684
▁astray	-13685
▁parent	-13686
▁ধ্রুবক	-13687
▁পঞ্চাশ	-13688
▁স্ট্রে	-13689
▁whoever	-13690
োক্ক	-13691
▁Tur	-13692
epend	-13693
▁issue	-13694
▁জ্যামাই	-13695
▁international	-13696
য়ি	-13697
▁কুইন	-13698
▁রেঞ্জ	-13699
▁পৃষ্ঠের	-13700
▁শিক্ষাব	-13701
▁ঞ	-13702
ওএস	-13703
েইল	-13704
▁বুঝে	-13705
▁অভিষেকের	-13706
empt	-13707
▁জিব	-13708
গুড়ি	-13709
উল্লাহ	-13710
ন্দকার	-13711
▁treat	-13712
▁এন্টি	-13713
▁পরগনা	-13714
▁মধ্যম	-13715
▁reject	-13716
▁রচনায়	-13717
▁দারিদ্র্য	-13718
▁সাম্প্রদায়িক	-13719
14	-13720
ালগ	-13721
্কি	-13722
▁hit	-13723
▁ধাঁ	-13724
▁Budd	-13725
িশিষ্ট	-13726
▁শার্ল	-13727
▁কাতারের	-13728
▁কারাগার	-13729
▁নেদারল্যান্ডস	-13730
নাদ	-13731
▁৯ম	-13732
▁yes	-13733
▁উড্ড	-13734
▁রেজা	-13735
▁জলপ্র	-13736
▁সিকিউ	-13737
▁ভবিষ্যত	-13738
▁নিচেরসার	-13739
▁ধারাবাহিকের	-13740
sc	-13741
▁জেট	-13742
▁বন্দরের	-13743
▁আজারবাইজান	-13744
গমন	-13745
ঙের	-13746
পিন	-13747
▁৮২	-13748
োরেট	-13749
▁পাইপ	-13750
▁জায়ে	-13751
▁পটুযা়	-13752
▁লেবাননের	-13753
▁according	-13754
▁পত্রিকাটি	-13755
▁বেঙ্গালুরু	-13756
▁Tell	-13757
▁French	-13758
▁মিলিয়নের	-13759
▁উত্তরপ্রদেশ	-13760
▁সিই	-13761
▁পনের	-13762
▁অধিদপ্তর	-13763
▁পরিমাপের	-13764
▁বার্সেলোনা	-13765
▁ব্যবহারকারীরা	-13766
▁°	-13767
opy	-13768
পিং	-13769
কামী	-13770
▁মতি	-13771
▁সকলেই	-13772
▁১০ম	-13773
▁উত্প	-13774
▁১৮৯৮	-13775
▁guide	-13776
▁major	-13777
▁অনুবাদক	-13778
▁military	-13779
ুতোষ	-13780
▁চিৎ	-13781
▁অনার	-13782
▁দাউদ	-13783
▁সিগন	-13784
▁দ্বিত	-13785
▁former	-13786
▁নিখোঁজ	-13787
▁ব্যুরো	-13788
কলার	-13789
বেলা	-13790
▁দুল	-13791
▁ভাট	-13792
▁দায়ে	-13793
▁সভাপতিত্ব	-13794
▁সম্পত্তির	-13795
লিস	-13796
াভি	-13797
▁তারই	-13798
▁বছরই	-13799
▁protests	-13800
▁জিম্বাবুয়ের	-13801
ীহ	-13802
▁সাহস	-13803
▁নাচের	-13804
▁লোহার	-13805
▁পরোক্ষ	-13806
▁বাতাসের	-13807
ফো	-13808
▁tw	-13809
▁৯৫	-13810
মিশন	-13811
▁খাতে	-13812
▁চণ্ড	-13813
▁প্রি	-13814
কনিষ্ঠ	-13815
▁নেত্র	-13816
▁November	-13817
▁বৃহস্পতি	-13818
▁অনুপ্রবেশ	-13819
▁ফেডারেশনের	-13820
ilos	-13821
পুরাণ	-13822
▁body	-13823
াত্রিক	-13824
▁ক্যাচ	-13825
▁বিক্রে	-13826
▁চেম্বার	-13827
▁প্রজাপতি	-13828
par	-13829
▁af	-13830
▁ডট	-13831
েলায়	-13832
্টায়	-13833
▁Mich	-13834
▁ধারে	-13835
▁ফাঁস	-13836
▁রশ্মি	-13837
▁remind	-13838
▁অনুকরণ	-13839
▁However	-13840
▁আমাদেরকে	-13841
▁50	-13842
▁মেইন	-13843
▁সুসং	-13844
▁কারাব	-13845
▁ব্যবহারে	-13846
▁প্রতিবাদে	-13847
▁প্রান্তিক	-13848
▁উপস্থিতিতে	-13849
▁)।	-13850
back	-13851
ানিক	-13852
▁১৮৯৭	-13853
প্রচার	-13854
▁সংবলিত	-13855
▁হ্যায়	-13856
▁লিথুযা়ন	-13857
ua	-13858
রাব	-13859
▁নজ	-13860
▁Kar	-13861
▁দৌল	-13862
▁কেনে	-13863
▁ড্রাই	-13864
▁নারীবাদ	-13865
▁স্টুযা়	-13866
▁পরিবেশিত	-13867
াকর	-13868
▁ভূত	-13869
ভারের	-13870
োঁযা়	-13871
ুরিযা়	-13872
ultural	-13873
▁September	-13874
ps	-13875
Com	-13876
াকৃতি	-13877
▁fell	-13878
▁মুভি	-13879
▁যৌনতা	-13880
▁চালাতে	-13881
▁লডা়ইয়ের	-13882
সম্ভ	-13883
▁room	-13884
খাল	-13885
▁Net	-13886
▁val	-13887
▁করণ	-13888
▁বৈর	-13889
▁2010	-13890
▁Rober	-13891
▁সামন্ত	-13892
▁মেয়েকে	-13893
▁bi	-13894
দলের	-13895
্রিট	-13896
▁চলা	-13897
স্টোন	-13898
▁Palest	-13899
▁recent	-13900
▁talking	-13901
▁পৌঁছানোর	-13902
▁বায়ুমণ্ডল	-13903
▁ম্যাগাজিনের	-13904
▁স্কটল্যান্ডের	-13905
▁×	-13906
hern	-13907
▁civ	-13908
▁নিউর	-13909
▁invest	-13910
▁নির্বি	-13911
▁freedom	-13912
▁ইস্তাম্ব	-13913
▁প্রত্যেকটি	-13914
aza	-13915
১৯৮৬	-13916
▁sel	-13917
▁ঝাল	-13918
▁মেজ	-13919
য়েরা	-13920
▁অভাবে	-13921
▁বাল্য	-13922
াপ্তরিক	-13923
▁মামলুক	-13924
▁মিথস্ক	-13925
▁হাজারের	-13926
▁সাহায্যের	-13927
োবর	-13928
–19	-13929
ully	-13930
▁এরই	-13931
লারের	-13932
▁ওপরে	-13933
▁কালাম	-13934
▁ছিদ্র	-13935
▁program	-13936
▁February	-13937
▁চ্যানেলে	-13938
akh	-13939
বর্গ	-13940
▁deb	-13941
▁নেক	-13942
▁পর্দা	-13943
▁Studies	-13944
▁উচ্চতার	-13945
▁উদ্যোক্তা	-13946
▁সার্টিফিকেট	-13947
ype	-13948
▁ঢে	-13949
▁fem	-13950
▁মোড	-13951
মণ্ডল	-13952
মনীয়	-13953
▁পারত	-13954
ফ্রন্ট	-13955
▁গুজরা	-13956
▁শতকরা	-13957
▁টেকনিক	-13958
▁ব্যঞ্জন	-13959
▁সংমিশ্রণ	-13960
▁তত্ত্বাবধ	-13961
12	-13962
ges	-13963
▁sex	-13964
▁ছুঁ	-13965
▁জাক	-13966
▁খাজা	-13967
▁গ্যাব	-13968
তিহাসিক	-13969
▁উদ্‌যাপন	-13970
▁দাশগুপ্ত	-13971
▁তামিলনাড়ুর	-13972
ael	-13973
ল্দ	-13974
িফিক	-13975
▁গোপনে	-13976
▁বাজেট	-13977
▁econom	-13978
▁উপজাতির	-13979
▁আছ	-13980
▁রজ	-13981
irth	-13982
ালায়	-13983
▁ঐশ্বরিক	-13984
▁রাজত্বকালে	-13985
▁নির্ভরযোগ্য	-13986
▁প্রেক্ষাগৃহে	-13987
ية	-13988
অধ	-13989
জিল	-13990
play	-13991
▁See	-13992
▁কপির	-13993
▁রাশি	-13994
যাত্রী	-13995
▁অভিব্য	-13996
▁Iranian	-13997
▁জ্যোতিষ	-13998
▁Em	-13999
ডাউন	-14000
▁died	-14001
▁আরবে	-14002
▁সোজা	-14003
প্রসাদ	-14004
িয়েশন	-14005
▁হবিগঞ্জ	-14006
ভিগ	-14007
▁আবে	-14008
▁clos	-14009
▁হ্যাট	-14010
াসমূহের	-14011
▁সৃজনশীল	-14012
▁সর্ববৃহৎ	-14013
▁কিশোরগঞ্জ	-14014
বিস	-14015
োকল	-14016
▁ইঁ	-14017
▁mur	-14018
কিন্তু	-14019
্যাটি	-14020
▁oper	-14021
▁priv	-14022
▁ডিসি	-14023
ات	-14024
জাম	-14025
রাকে	-14026
▁লিজ	-14027
▁সারে	-14028
▁ready	-14029
▁অ্যাভ	-14030
▁লেখাপ	-14031
▁অনুভূত	-14032
▁পেট্রোল	-14033
▁বুদ্ধিম	-14034
▁মার্কেট	-14035
স্ফ	-14036
▁dark	-14037
▁দেড়	-14038
▁কায়ে	-14039
▁ফেরার	-14040
▁সচরাচর	-14041
▁কলম্বিযা়	-14042
হন	-14043
ান্ন	-14044
▁Mat	-14045
▁Ram	-14046
▁Mary	-14047
▁আস্তে	-14048
▁গ্যাং	-14049
▁পাহাড়ে	-14050
bit	-14051
রুম	-14052
▁Pa	-14053
▁১৮৯২	-14054
াকৃতির	-14055
▁guard	-14056
▁চৌদ্দ	-14057
▁প্লাট	-14058
▁search	-14059
▁British	-14060
▁complete	-14061
▁পুনরাবৃত্তি	-14062
বিট	-14063
iful	-14064
▁ঘৃণা	-14065
▁গাঙ্গ	-14066
▁সেক্রেটারি	-14067
▁০১	-14068
lock	-14069
▁এমি	-14070
▁const	-14071
▁বিচারে	-14072
▁ব্যানারে	-14073
▁মিলিমিটার	-14074
vironment	-14075
▁কর্মজীবনের	-14076
▁ফাউন্ডেশনের	-14077
▁বাণিজ্যিকভাবে	-14078
ঞ্ছ	-14079
থিল	-14080
▁Gh	-14081
▁মুভ	-14082
gress	-14083
▁শেকসপি	-14084
▁স্টিভেন	-14085
▁কর্মসূচির	-14086
▁স্বাস্থ্যসেবা	-14087
for	-14088
ৈরব	-14089
যোজিত	-14090
দায়ের	-14091
▁বাঙ্গ	-14092
▁পাঠায়	-14093
▁বঙ্গোপ	-14094
▁সংক্রমণের	-14095
▁অনুপ্রেরণা	-14096
▁বেলজিযা়মের	-14097
্মিক	-14098
▁(197	-14099
▁Many	-14100
▁phone	-14101
▁মুগ্ধ	-14102
▁স্টাইল	-14103
▁স্বাগত	-14104
▁অপরিহার্য	-14105
সক	-14106
টনে	-14107
▁24	-14108
▁ওভ	-14109
ites	-14110
▁বাঁক	-14111
▁court	-14112
▁ধর্ষণের	-14113
▁ইউনেস্কো	-14114
▁ক্ষয়ক্ষ	-14115
▁ব্যক্তিরা	-14116
bo	-14117
পুণ	-14118
ঙ্কে	-14119
▁রিভিউ	-14120
▁অনিশ্চ	-14121
▁জিজ্ঞেস	-14122
▁লিঙ্গের	-14123
▁সিংহাসন	-14124
▁উত্তেজনা	-14125
▁ভূমিকম্পের	-14126
দন	-14127
▁গী	-14128
▁পোষ	-14129
▁সিএন	-14130
্রিস্ট	-14131
▁মিসেস	-14132
▁পুত্রের	-14133
িবাদ	-14134
▁উইথ	-14135
▁prop	-14136
▁ঋগ্বে	-14137
▁পাবেন	-14138
▁future	-14139
▁থ্রিলার	-14140
▁সমালোচিত	-14141
▁সুরক্ষার	-14142
▁রেস্তোরাঁ	-14143
ামিড	-14144
▁চিপ	-14145
iding	-14146
শ্রেণী	-14147
▁আনসার	-14148
▁outside	-14149
▁special	-14150
▁ব্র্যাড	-14151
▁ব্যাটারি	-14152
▁সিনেমায়	-14153
▁interview	-14154
▁চট্টগ্রামে	-14155
এএফ	-14156
ওহর	-14157
▁1.	-14158
▁১৪টি	-14159
োল্ডার	-14160
▁blood	-14161
▁জিন্ন	-14162
▁মাংসের	-14163
▁October	-14164
▁কন্ট্রোল	-14165
▁ইন্টারফেস	-14166
▁মাদ্রাসাটি	-14167
rat	-14168
র্ণা	-14169
▁চোর	-14170
▁রাসেল	-14171
▁শৈলীর	-14172
▁students	-14173
▁শিযা়লদহ	-14174
▁পাশ্চাত্য	-14175
▁ঘনিষ্ঠভাবে	-14176
▁শান্তিপূর্ণ	-14177
▁সক্রিয়ভাবে	-14178
▁আয	-14179
ার্ধে	-14180
▁উদয়	-14181
▁যেখান	-14182
▁আকাঙ্ক্ষ	-14183
well	-14184
▁আঁক	-14185
▁Open	-14186
▁পর্দ	-14187
▁নামেন	-14188
▁শহরতল	-14189
▁মিলিটারি	-14190
▁UN	-14191
▁অকল	-14192
▁আশী	-14193
▁লাক	-14194
▁ship	-14195
▁ট্রাক	-14196
▁পিযা়	-14197
▁ফান্ড	-14198
▁দম্পতি	-14199
▁ক্যাডেট	-14200
▁গন্তব্য	-14201
▁ডাউনলোড	-14202
▁অ্যান্ড্রু	-14203
▁enc	-14204
▁লিভ	-14205
▁বালক	-14206
▁শিবির	-14207
ফাই	-14208
রকে	-14209
েটে	-14210
▁শক	-14211
১৯৮৭	-14212
▁নাতি	-14213
আমাদের	-14214
▁visit	-14215
▁হুযা়	-14216
▁leader	-14217
▁উপস্থাপিত	-14218
▁শর্ট	-14219
▁আর্মেনীয়	-14220
▁কেস	-14221
undred	-14222
▁অনূদিত	-14223
▁edition	-14224
▁মতাদর্শ	-14225
▁পরিষেবার	-14226
ীস	-14227
সেই	-14228
্বি	-14229
▁Je	-14230
▁ভাঁ	-14231
হাজার	-14232
rieved	-14233
▁সত্যিকারের	-14234
gu	-14235
▁সুইস	-14236
▁টেকসই	-14237
▁ত্রিম	-14238
▁নাগরিকত্ব	-14239
▁স্থানীয়ভাবে	-14240
▁মুক্তিযোদ্ধাদের	-14241
▁আসরের	-14242
▁Australi	-14243
▁ফটোগ্রাফ	-14244
▁সর্বকনিষ্ঠ	-14245
​​	-14246
▁\	-14247
ানস	-14248
িশা	-14249
ক্ষের	-14250
▁আলফা	-14251
▁ভবান	-14252
▁কোয়ে	-14253
▁ন্যাট	-14254
▁স্টোন	-14255
▁গণিতের	-14256
▁জয়পুর	-14257
▁মূল্যের	-14258
্সন	-14259
যদিও	-14260
▁বনা	-14261
▁forb	-14262
▁spread	-14263
▁ধারায়	-14264
▁পাঠদান	-14265
▁mention	-14266
▁popular	-14267
▁তুর্কমেন	-14268
।)	-14269
col	-14270
▁six	-14271
▁এসো	-14272
▁উপরি	-14273
▁সাধু	-14274
▁Times	-14275
▁অসম্প	-14276
▁দাঙ্গা	-14277
▁সমবায়	-14278
▁minutes	-14279
জিট	-14280
ডেম	-14281
শহর	-14282
▁ফন	-14283
ored	-14284
▁photo	-14285
▁নান্দ	-14286
▁লাগছে	-14287
▁নেপথ্য	-14288
▁ত্রিভুজ	-14289
▁স্পিকার	-14290
ব্জ	-14291
▁জং	-14292
▁ডো	-14293
▁মম	-14294
▁ক্রু	-14295
▁পন্ড	-14296
স্তরের	-14297
▁House	-14298
▁সমুদ্রপৃষ্ঠ	-14299
২০২০	-14300
▁চের	-14301
▁ঘেরা	-14302
▁মৌজা	-14303
▁reach	-14304
▁নগরীর	-14305
▁আর্সেন	-14306
▁ড্রাগন	-14307
▁প্রভাষ	-14308
▁বাইবেল	-14309
▁অনুলিপি	-14310
▁দাপ্তরিক	-14311
াগোর	-14312
▁Mad	-14313
▁ঘাস	-14314
▁নিচু	-14315
লাভজনক	-14316
▁গোস্ব	-14317
▁respect	-14318
▁উত্তরাঞ্চ	-14319
নিহিত	-14320
▁wants	-14321
▁এইচআই	-14322
▁গ্রেড	-14323
▁নীচের	-14324
▁বেশীর	-14325
▁effect	-14326
▁ছাযা়ছ	-14327
▁ডাযা়বে	-14328
িপার	-14329
▁পাড়ে	-14330
▁prayer	-14331
▁বন্যার	-14332
▁ব্যানার্জ	-14333
CH	-14334
হারে	-14335
▁ছিট	-14336
▁জোযা়	-14337
▁দূর্বল	-14338
▁উত্তপ্ত	-14339
▁জীববিজ্ঞান	-14340
রফ	-14341
শক	-14342
tle	-14343
ঙ্গি	-14344
জীয়	-14345
াইনে	-14346
▁Unt	-14347
▁করলাম	-14348
▁মনসুর	-14349
▁অর্জিত	-14350
▁পূর্বসূ	-14351
র্তী	-14352
হাউস	-14353
▁মর্	-14354
▁ছুটি	-14355
▁লাহর	-14356
সিযা়ম	-14357
▁নেতারা	-14358
▁রাজপুত	-14359
▁পার্কের	-14360
▁মিযা়নমারের	-14361
োমোটি	-14362
ically	-14363
▁পোডা়	-14364
▁রাগবি	-14365
▁গ্রুপে	-14366
▁মধ্যপ্রদেশ	-14367
▁সম্পর্কযুক্ত	-14368
ন্তন	-14369
▁ভাজা	-14370
▁পদমর্য	-14371
▁Library	-14372
▁yourselves	-14373
xic	-14374
াকো	-14375
ীবিত	-14376
▁lab	-14377
▁জনসম	-14378
▁উপপাদ	-14379
স্বাধীন	-14380
▁create	-14381
▁লেখায়	-14382
▁ধ্বংসের	-14383
▁পূর্বাভ	-14384
▁প্রেরিত	-14385
▁নির্দেশক	-14386
▁অনুপস্থিত	-14387
▁সাংবাদিকতা	-14388
oly	-14389
কাটা	-14390
াহীন	-14391
▁নেশ	-14392
▁ছত্ত	-14393
▁গতিশীল	-14394
▁মুন্সী	-14395
▁অন্ধ্রপ্রদেশ	-14396
▁ك	-14397
▁বট	-14398
iles	-14399
▁মোগল	-14400
▁প্রাচ্য	-14401
▁দুর্দান্ত	-14402
ON	-14403
key	-14404
আনু	-14405
ঙ্কট	-14406
িউশন	-14407
▁শৈব	-14408
▁মৌখিক	-14409
▁appear	-14410
▁বেষ্টিত	-14411
▁Egyptian	-14412
▁লডা়ইয়ে	-14413
▁ফিলিপাইনের	-14414
▁নারায়ণগঞ্জ	-14415
পালন	-14416
▁অভিন্ন	-14417
▁পরিত্যাগ	-14418
▁বিশ্বকোষ	-14419
-3	-14420
▁করছ	-14421
চালিত	-14422
▁harm	-14423
▁ফোরাম	-14424
za	-14425
anna	-14426
্যাভ	-14427
▁Bah	-14428
▁এপি	-14429
▁ফকির	-14430
োরিযা়	-14431
▁George	-14432
▁খাদ্যের	-14433
▁অন্তর্নিহিত	-14434
ঁটে	-14435
টাউন	-14436
পালা	-14437
▁নকল	-14438
▁ফতে	-14439
▁সনি	-14440
▁সমতা	-14441
▁doubt	-14442
▁সাম্য	-14443
▁হাকিম	-14444
▁মিশনের	-14445
▁ল্যাবরেট	-14446
▁destroyed	-14447
▁মেক্সিকোর	-14448
▁যু	-14449
▁পাবলিশ	-14450
▁ভিডিওতে	-14451
▁শ্রেণিতে	-14452
▁মহাদেশীয়	-14453
োপ্ল	-14454
োফার	-14455
▁এমএ	-14456
িপিতে	-14457
াতাদের	-14458
▁কেরালার	-14459
▁particip	-14460
▁পরাজয়ের	-14461
▁উপস্থিতির	-14462
▁বছরগুলিতে	-14463
▁খেলোযা়ড়ি	-14464
াফি	-14465
্যাংশ	-14466
▁Port	-14467
▁চার্লি	-14468
▁তুলেছে	-14469
ন্‌	-14470
সীমা	-14471
১৯৮৪	-14472
raham	-14473
▁করিড	-14474
▁পিছু	-14475
▁১৮৮০	-14476
শক্তির	-14477
▁অ্যাপল	-14478
▁চামডা়	-14479
▁স্বদেশ	-14480
াবাদী	-14481
▁অন্ন	-14482
▁আসলেই	-14483
▁মণ্ডল	-14484
ruction	-14485
▁remain	-14486
▁বিশ্বযুদ্ধে	-14487
পঞ্চ	-14488
▁mass	-14489
▁করেছ	-14490
▁রফিক	-14491
▁ঘাটতি	-14492
▁অনার্স	-14493
urrection	-14494
▁পদোন্নতি	-14495
▁কম্পিউটারের	-14496
াংক	-14497
▁দাদ	-14498
▁পেস	-14499
▁বাচ	-14500
▁মেধ	-14501
▁আবেদ	-14502
▁পারভ	-14503
▁needs	-14504
▁অনুগ্রহ	-14505
▁স্পেশাল	-14506
▁unbelievers	-14507
Wh	-14508
রিও	-14509
গনের	-14510
▁সবই	-14511
স্টিক	-14512
▁বসুর	-14513
▁বেস্ট	-14514
▁Muslim	-14515
▁গোলাকার	-14516
▁হ্যারিস	-14517
স্বাস্থ্য	-14518
lid	-14519
▁Up	-14520
▁লাস	-14521
কন্যা	-14522
▁Time	-14523
▁উড়ি	-14524
▁ছন্দ	-14525
▁বেলুচ	-14526
lishing	-14527
▁তাইওযা়	-14528
▁যৌক্তিক	-14529
▁নির্বাসিত	-14530
ল্য	-14531
হাব	-14532
▁রাণ	-14533
▁১৩টি	-14534
▁ভাগের	-14535
▁চলাচলের	-14536
▁Association	-14537
এমএল	-14538
▁৭০০	-14539
▁ঘড়ি	-14540
ession	-14541
▁seems	-14542
▁সংগীতের	-14543
▁পিতামাতার	-14544
▁অ্যালবামের	-14545
AP	-14546
তিন	-14547
ফিযা়	-14548
▁সমার	-14549
▁দেখেছি	-14550
▁সুইডেনের	-14551
ডিএ	-14552
▁শোভা	-14553
▁কান্দ	-14554
▁তেমনি	-14555
সংস্কৃত	-14556
▁অন্যটি	-14557
▁ব্যাচেল	-14558
▁শিক্ষালাভ	-14559
▁প্রক্রিযা়টি	-14560
.”	-14561
▁৮৬	-14562
ভাজন	-14563
▁sky	-14564
▁চিফ	-14565
▁১৬টি	-14566
▁error	-14567
▁চার্চের	-14568
▁নির্মান	-14569
ৌকিক	-14570
▁জিড	-14571
▁হানি	-14572
▁ম্যার	-14573
▁German	-14574
▁সাক্ষী	-14575
▁সুলতানের	-14576
▁রিপাবলিকান	-14577
Th	-14578
চারে	-14579
▁etc	-14580
ক্তার	-14581
যানের	-14582
টেকনিক	-14583
নাকারী	-14584
▁speci	-14585
▁সেনের	-14586
▁তদন্তের	-14587
▁বৃষ্টির	-14588
▁ওযা়ল্টার	-14589
aly	-14590
ফুর	-14591
১৯৮০	-14592
▁লাম	-14593
▁হাতি	-14594
▁black	-14595
▁খোলার	-14596
▁মুরাদ	-14597
▁ফেলেছে	-14598
▁কর্মজীবনে	-14599
▁দার্জিলিং	-14600
▁লিমিটেডের	-14601
▁সম্প্রসারিত	-14602
▁আন্তর্জাতিকভাবে	-14603
َّ	-14604
unch	-14605
চিহ্ন	-14606
উদ্দীন	-14607
▁spend	-14608
▁ব্যাগ	-14609
▁জাতিগো	-14610
▁বার্বাড	-14611
▁সিলেটের	-14612
▁বিশ্বস্ত	-14613
।[	-14614
লেখা	-14615
▁Sub	-14616
▁কাছেই	-14617
▁জনগণকে	-14618
▁ডিজাইনার	-14619
▁পটভূমিতে	-14620
িশোর	-14621
▁Red	-14622
anish	-14623
প্টার	-14624
▁কাঠমান্ড	-14625
▁পর্নোগ্রাফিক	-14626
সায়	-14627
াপ্প	-14628
াল্ড	-14629
▁হাঁট	-14630
োস্লাভ	-14631
▁তারার	-14632
▁নিযা়	-14633
▁জিন্নাহ	-14634
▁শিক্ষায়	-14635
োক্স	-14636
▁বাথ	-14637
▁আয়রন	-14638
জেনারেল	-14639
োনিযা়র	-14640
▁regard	-14641
▁চতুর্দশ	-14642
▁ইয়র্কের	-14643
▁ইউরোপিযা়ন	-14644
15	-14645
erve	-14646
idae	-14647
▁ফাহ	-14648
▁safe	-14649
resent	-14650
cast	-14651
▁তফস	-14652
▁বাফ	-14653
▁দেখাশ	-14654
▁নাবিক	-14655
▁চক্রের	-14656
▁নেতৃত্বের	-14657
গৃহ	-14658
ম্ত্	-14659
▁San	-14660
▁ব্যাড	-14661
▁অবিভক্ত	-14662
▁সরস্বতী	-14663
▁কণ্ঠশিল্পী	-14664
▁মালদ্বীপের	-14665
Cl	-14666
▁في	-14667
▁নকশ	-14668
▁হেপ	-14669
জন্যে	-14670
▁held	-14671
▁ইউএন	-14672
▁বাদামি	-14673
▁হ্যাম্প	-14674
▁স্পষ্টভাবে	-14675
অথবা	-14676
নারায়ণ	-14677
▁অফিসের	-14678
▁পরমাণুর	-14679
▁৮৭	-14680
haps	-14681
টিসি	-14682
▁এলজি	-14683
▁ট্যুর	-14684
▁নিউট্রন	-14685
▁মূলধারার	-14686
্দো	-14687
▁লাশ	-14688
▁Center	-14689
chnology	-14690
▁ব্রাজিলীয়	-14691
থী	-14692
van	-14693
▁কিস	-14694
▁ডাট	-14695
ভাইরাস	-14696
▁নেপালে	-14697
ails	-14698
তিকর	-14699
ারসন	-14700
araoh	-14701
▁educ	-14702
▁উৎসের	-14703
▁জেরুস	-14704
▁মাস্ক	-14705
স্তানের	-14706
▁Google	-14707
▁সন্তোষ	-14708
▁ছেলেদের	-14709
হিক	-14710
▁Sm	-14711
বিড়	-14712
▁যিশ	-14713
▁লৌহ	-14714
িকাতে	-14715
▁ঢুকে	-14716
▁বললে	-14717
▁তেলের	-14718
artment	-14719
▁জর্ডান	-14720
▁মিডিযা়র	-14721
▁সামঞ্জস্যপূর্ণ	-14722
মাত	-14723
ৎসি	-14724
lims	-14725
ঙ্গু	-14726
▁ste	-14727
▁পিল	-14728
lying	-14729
▁মণিপ	-14730
▁পোলিশ	-14731
▁পুস্তক	-14732
▁হাইকোর্ট	-14733
▁মহাকাশযান	-14734
আরসি	-14735
▁193	-14736
▁fine	-14737
▁কচ্ছ	-14738
বিদ্যুৎ	-14739
▁speech	-14740
▁পটভূমি	-14741
▁পিরামিড	-14742
▁দেশগুলোর	-14743
বিদের	-14744
▁defe	-14745
▁করে৷	-14746
▁ফিফার	-14747
▁মাসুদ	-14748
▁দুর্গা	-14749
▁টার্মিন	-14750
▁tradition	-14751
▁Rich	-14752
estern	-14753
▁corru	-14754
▁বেডা়	-14755
প্রজাতি	-14756
▁রেসলিং	-14757
▁ভূমধ্যস	-14758
▁মহাত্মা	-14759
▁সাক্ষাৎকারে	-14760
বংশ	-14761
▁৯২	-14762
ghan	-14763
▁ঢেকে	-14764
▁লিওন	-14765
▁সমাদ	-14766
▁conne	-14767
▁চল্লিশ	-14768
▁চিন্তার	-14769
▁প্রভাষক	-14770
▁বহুমুখী	-14771
aily	-14772
িনয়	-14773
▁secret	-14774
▁ডেমোক্রেটিক	-14775
▁প্রেসিডেন্সি	-14776
ডির	-14777
▁লিল	-14778
▁উড়ে	-14779
▁এলাহ	-14780
▁প্রাসঙ্গিক	-14781
বড়	-14782
▁কও	-14783
ortun	-14784
স্কোপ	-14785
▁poor	-14786
▁আবরণ	-14787
▁আহমে	-14788
▁কালি	-14789
▁বিবি	-14790
▁১৮৯৩	-14791
ীবাজার	-14792
▁মহাদেব	-14793
▁পরিভাষা	-14794
▁অধিনায়কত্ব	-14795
▁জ্যোতির্বিজ্ঞান	-14796
ened	-14797
রিদম	-14798
▁Jud	-14799
▁key	-14800
▁obs	-14801
▁মদন	-14802
কান্ত	-14803
▁Other	-14804
▁ফিলিস্তিন	-14805
▁৯৯	-14806
▁​​	-14807
ging	-14808
প্যা	-14809
▁লুপ	-14810
াগডা়	-14811
▁১৫টি	-14812
নির্দেশ	-14813
▁দামেস্ক	-14814
▁বিচিত্র	-14815
▁বাডা়নোর	-14816
▁অ্যানিমেশন	-14817
▁und	-14818
াদেমি	-14819
াওযা়ত	-14820
▁প্রাপ	-14821
▁অলাভজনক	-14822
লেজ	-14823
aving	-14824
মানুষ	-14825
▁গাযা়	-14826
▁নিবাস	-14827
▁অগ্রণী	-14828
▁parents	-14829
▁গাজীপুর	-14830
▁দুর্গের	-14831
▁মোহাম্ম	-14832
▁Research	-14833
span	-14834
্রিন	-14835
ব্জাং	-14836
ার্জন	-14837
▁জহির	-14838
▁quick	-14839
▁যাবেন	-14840
▁সত্তা	-14841
▁এডা়তে	-14842
▁violence	-14843
▁জ্বালানী	-14844
▁অ্যান্ড্রয়েড	-14845
াচ্ছ	-14846
▁ক্রাই	-14847
▁wealth	-14848
▁সফলতার	-14849
ৌন	-14850
নিশ	-14851
ারণা	-14852
▁চন্দন	-14853
▁হুসেন	-14854
▁লিখেছে	-14855
▁কৃষকদের	-14856
▁মহামারীর	-14857
▁Hereafter	-14858
▁সুইজারল্যান্ডের	-14859
উস	-14860
asc	-14861
ানুর	-14862
▁ছাঁ	-14863
ফিগার	-14864
▁১৮৮৯	-14865
াণ্ডার	-14866
▁কাণ্ড	-14867
▁মার্ব	-14868
▁ল্যাপ	-14869
িবল	-14870
lled	-14871
আইপি	-14872
▁শৈল্প	-14873
▁সোর্স	-14874
▁almost	-14875
▁guided	-14876
▁জাহাজে	-14877
▁টেলিফোন	-14878
টোয়েন্টি	-14879
▁অত্যাচার	-14880
যিনি	-14881
▁half	-14882
▁খুজে	-14883
▁উপভাষ	-14884
ena	-14885
ৈতন্য	-14886
▁circ	-14887
▁লোককে	-14888
▁ground	-14889
▁মোতাবেক	-14890
▁যাতাযা়ত	-14891
মাহ	-14892
তপুর	-14893
▁exc	-14894
▁জাস	-14895
iling	-14896
বুর্গ	-14897
▁বাহু	-14898
▁মরিস	-14899
▁১৮৮৮	-14900
▁enjoy	-14901
▁কায়র	-14902
▁লেজার	-14903
▁ছাত্রলী	-14904
▁নিকোলাস	-14905
▁মহাসচিব	-14906
OR	-14907
know	-14908
▁আমর	-14909
▁ডার্ক	-14910
▁কারিগর	-14911
▁কর্ণাটকের	-14912
▁সায়েন্সেস	-14913
ঘন	-14914
ulf	-14915
্ঠে	-14916
▁TV	-14917
জয়ী	-14918
▁ক্লাউ	-14919
▁রাহুল	-14920
▁Pharaoh	-14921
▁process	-14922
▁মাযা়নমার	-14923
▁শিক্ষকদের	-14924
▁কল্পকাহিনী	-14925
cil	-14926
anks	-14927
▁আইজ	-14928
▁বলব	-14929
▁বিউ	-14930
▁Jose	-14931
▁বিশপ	-14932
▁ভ্রূ	-14933
এছাডা়	-14934
বার্গে	-14935
▁উপমহাদেশে	-14936
▁ব্যাসার্ধ	-14937
▁স্বাধীনভাবে	-14938
ুনী	-14939
▁৭ই	-14940
ভূতি	-14941
বার্ন	-14942
▁স্টে	-14943
▁কোচের	-14944
▁নিষ্ঠ	-14945
iveness	-14946
▁সিদ্দিকী	-14947
▁প্রশিক্ষক	-14948
ম্	-14949
োদশ	-14950
োদা	-14951
▁নট	-14952
▁বনু	-14953
▁শুল	-14954
▁Mart	-14955
▁সমঝো	-14956
িয়েটিভ	-14957
▁health	-14958
▁একজনকে	-14959
▁আলফ্রেড	-14960
▁বাস্তবে	-14961
▁document	-14962
▁প্রতিরক্ষ	-14963
বাণ	-14964
রেক	-14965
রেস	-14966
লাস	-14967
▁web	-14968
াইটিস	-14969
▁কর্ড	-14970
▁ট্রফ	-14971
▁তর্ক	-14972
▁তেলেঙ্গ	-14973
▁জেরুজালেম	-14974
▁টক	-14975
▁সেচ	-14976
টার্স	-14977
পিয়ে	-14978
▁cast	-14979
▁এরূপ	-14980
▁হেলেন	-14981
▁অভিষিক্ত	-14982
▁সিকিউরিটি	-14983
cle	-14984
▁Ben	-14985
▁১৯শ	-14986
িস্তা	-14987
▁দারুণ	-14988
▁myself	-14989
▁টাইগার	-14990
▁লেখালে	-14991
▁সত্যজিৎ	-14992
▁প্রতিফলন	-14993
▁মহাদেশের	-14994
▁লোকোমোটি	-14995
▁ভূতাত্ত্বিক	-14996
এফএ	-14997
াগি	-14998
ব্রে	-14999
ining	-15000
▁High	-15001
▁প্রহ	-15002
▁যাচ্ছেন	-15003
ims	-15004
▁Az	-15005
পাইন	-15006
ুদেব	-15007
older	-15008
তিযা়র	-15009
▁ওভারে	-15010
▁পেপার	-15011
ination	-15012
▁এদেরকে	-15013
▁বঞ্চিত	-15014
▁members	-15015
▁পার্টিতে	-15016
▁নিউজিল্যান্ডীয়	-15017
চুর	-15018
▁ভীম	-15019
▁উগ্র	-15020
নির্ভর	-15021
▁মৌজার	-15022
▁অন্বেষ	-15023
▁উপকূলের	-15024
▁Merciful	-15025
▁দোল	-15026
arian	-15027
▁পশুর	-15028
▁জঙ্গল	-15029
সম্পর্কিত	-15030
▁possible	-15031
▁সঙ্গীতজ্ঞ	-15032
জগ	-15033
▁من	-15034
ঘাটা	-15035
▁গডা়	-15036
▁example	-15037
▁প্রতিমন্ত্রী	-15038
বুন	-15039
▁age	-15040
▁vot	-15041
▁কণার	-15042
▁রোডে	-15043
▁ফ্রিক	-15044
▁মান্দ	-15045
▁সাগরে	-15046
▁অ্যাঙ্গ	-15047
60	-15048
াটল	-15049
১৯৮২	-15050
▁বলেই	-15051
▁সিযা়	-15052
▁পায়নি	-15053
▁বাঁকুডা়	-15054
দ্‌	-15055
ngth	-15056
uses	-15057
▁lie	-15058
▁বদর	-15059
▁area	-15060
▁প্রল	-15061
▁সাধক	-15062
▁ড্রাম	-15063
▁প্রচ্ছ	-15064
▁ডিফেন্স	-15065
▁ফেসবুকে	-15066
▁মার্ভেল	-15067
▁উন্নয়নশীল	-15068
▁গৃহযুদ্ধের	-15069
১৯৭০	-15070
▁Rec	-15071
▁নেল	-15072
fully	-15073
▁চলার	-15074
▁বিভব	-15075
▁উডা়ন	-15076
▁শাড়ি	-15077
▁জাপানী	-15078
▁মার্কে	-15079
▁সিরাজগঞ্জ	-15080
▁হেলিকপ্টার	-15081
▁পশ্চিমবঙ্গে	-15082
ুজীব	-15083
▁কেই	-15084
▁বলল	-15085
▁১৮৯৪	-15086
▁উপভাষা	-15087
▁দলগুলো	-15088
▁daughter	-15089
▁মাইক্রোসফট	-15090
▁ح	-15091
িউম	-15092
alif	-15093
▁ইস্যু	-15094
খ্রিস্ট	-15095
▁Russia	-15096
▁region	-15097
▁সমুদ্রে	-15098
ামিক	-15099
▁রেফ	-15100
বৃন্দ	-15101
▁2007	-15102
▁road	-15103
▁elect	-15104
▁গোলটি	-15105
▁পুস্ত	-15106
▁groups	-15107
▁পতিতাব	-15108
▁তাৎক্ষণ	-15109
▁activists	-15110
▁Any	-15111
▁Tod	-15112
▁১৬ই	-15113
▁মহাশ	-15114
▁ব্লকে	-15115
▁সাইক্ল	-15116
রাউন্ডার	-15117
▁Cricket	-15118
▁ক্ষতিকর	-15119
▁মেট্রিক	-15120
▁বিশেষায়িত	-15121
ওদ	-15122
পোর	-15123
ীতিক	-15124
ুয়েট	-15125
▁sold	-15126
▁মজার	-15127
▁স্টোর	-15128
▁মডেলের	-15129
▁উৎপাদনে	-15130
▁জাহাজটি	-15131
▁প্যাকেজ	-15132
স্‌	-15133
একজন	-15134
▁২৫শে	-15135
▁ইয়েল	-15136
▁তালিব	-15137
▁বিধবা	-15138
▁স্টিল	-15139
▁ট্যাঙ্ক	-15140
▁সম্বোধন	-15141
▁অধ্যায়ে	-15142
▁বিবেকানন্দ	-15143
25	-15144
▁Ro	-15145
ভেদে	-15146
▁sil	-15147
্রেশন	-15148
▁আশ্চ	-15149
▁গুহা	-15150
▁অনানু	-15151
▁ডাকাত	-15152
▁অ্যালকোহ	-15153
▁ক্রিস্টি	-15154
▁মেদিনীপুর	-15155
▁স্যামুয়েল	-15156
▁কর্মকাণ্ডের	-15157
AC	-15158
adio	-15159
▁Move	-15160
▁Show	-15161
▁ক্রমান	-15162
▁ডোনাল্ড	-15163
▁বিচ্ছেদ	-15164
▁সমাধিস্থ	-15165
▁সেলসিযা়স	-15166
ached	-15167
▁More	-15168
▁pers	-15169
esters	-15170
▁অপেরা	-15171
▁পেশাগত	-15172
▁শিশুরা	-15173
▁ক্রেডিট	-15174
▁বুদ্ধিজীবী	-15175
olk	-15176
▁কংক	-15177
▁গিনি	-15178
▁Their	-15179
▁ভোল্ট	-15180
▁মেটাল	-15181
▁answer	-15182
▁refuge	-15183
▁গানটির	-15184
▁শৈল্পিক	-15185
▁অস্ত্রোপ	-15186
▁বিবেচনায়	-15187
িগ্ন	-15188
▁2006	-15189
▁data	-15190
▁false	-15191
▁নরসিং	-15192
▁ম্যাথ	-15193
▁গির্জার	-15194
▁মরুভূমি	-15195
▁aw	-15196
োসিন	-15197
▁Ang	-15198
▁ওরি	-15199
▁এঞ্জ	-15200
▁দাফন	-15201
▁মরিচ	-15202
▁grant	-15203
▁পাম্প	-15204
হাওযা়র	-15205
▁সপ্তদশ	-15206
▁সময়েই	-15207
▁perform	-15208
▁পেরিয়ে	-15209
▁citizens	-15210
▁নরেন্দ্র	-15211
▁পর্তুগাল	-15212
দূর	-15213
ilar	-15214
▁Dis	-15215
▁eff	-15216
▁মক্কার	-15217
স্ক্রিয়	-15218
▁ব্যবধান	-15219
▁চরিত্রটি	-15220
▁arg	-15221
▁tar	-15222
▁wasn	-15223
▁মোটা	-15224
বিশ্বাস	-15225
▁ভালবাসা	-15226
▁দেশগুলিতে	-15227
▁নাট্যধর্মী	-15228
▁পদার্থবিজ্ঞানের	-15229
দেবী	-15230
বেরি	-15231
▁der	-15232
▁যীশ	-15233
মিরাল	-15234
▁prep	-15235
▁স্বতঃ	-15236
▁নিবদ্ধ	-15237
▁মধ্যেও	-15238
▁সঞ্চয়	-15239
▁অ্যাংলো	-15240
▁দিয়েছি	-15241
ares	-15242
বিএম	-15243
▁লতি	-15244
▁পর্ষ	-15245
▁মুনা	-15246
▁বিশ্রাম	-15247
▁পলিটেকনিক	-15248
াবির	-15249
ৈতৃক	-15250
বিদ্ধ	-15251
্বরের	-15252
▁easy	-15253
▁পুনে	-15254
▁বদলি	-15255
igital	-15256
ণ্ডলের	-15257
▁heaven	-15258
▁সত্ত্ব	-15259
▁সিলভার	-15260
▁নিশ্চয়ই	-15261
▁Information	-15262
▁কর্মসংস্থান	-15263
▁জাতীয়তাবাদ	-15264
ৌর	-15265
মুহ	-15266
▁বীমা	-15267
▁টিকিট	-15268
▁বাড়ী	-15269
▁ব্যাটাল	-15270
▁নিজেদেরকে	-15271
▁দুর্ঘটনায়	-15272
NA	-15273
োসর	-15274
▁গণভ	-15275
▁চাট	-15276
▁সেভ	-15277
▁হানা	-15278
▁গেলেন	-15279
▁সেমিন	-15280
▁বিশ্লেষ	-15281
▁ভুটানের	-15282
▁মক্কায়	-15283
▁সম্পূর্ণভাবে	-15284
▁তত্ত্বাবধায়ক	-15285
13	-15286
ডু	-15287
onstr	-15288
▁পিতৃ	-15289
▁বিলি	-15290
▁পারফরম্যান্স	-15291
▁বাস্তবায়নের	-15292
▁লোভ	-15293
▁যাবো	-15294
▁ফোর্ট	-15295
ুতন্ত্র	-15296
্যালয়ের	-15297
▁ইলেকট্রিক	-15298
▁তথ্যচিত্র	-15299
কাত	-15300
কুর	-15301
gest	-15302
মারী	-15303
র্মি	-15304
▁দুন	-15305
doers	-15306
▁মহিষ	-15307
▁জাতের	-15308
প্রাচীন	-15309
▁দর্শনে	-15310
ni	-15311
ibet	-15312
▁লিস	-15313
▁flow	-15314
▁দেওব	-15315
▁নওগাঁ	-15316
▁পদ্মা	-15317
▁হলিউড	-15318
▁action	-15319
▁দুর্ভিক্ষ	-15320
োকো	-15321
▁ডক	-15322
মারি	-15323
▁ডেথ	-15324
▁মাকে	-15325
▁সাতক্ষ	-15326
▁পশ্চিমের	-15327
▁টেলিযোগাযোগ	-15328
ون	-15329
ift	-15330
গেন	-15331
▁Pat	-15332
▁fre	-15333
▁সংকর	-15334
▁আবাসন	-15335
▁বারাণ	-15336
▁আগুনের	-15337
▁কার্যত	-15338
▁টিভিতে	-15339
▁ব্যাটিংয়ের	-15340
সংশ	-15341
▁Som	-15342
▁দূত	-15343
▁রহিম	-15344
▁দৃষ্ট	-15345
▁ভার্চ	-15346
▁Online	-15347
▁আইনসভা	-15348
▁সুড়ঙ্গ	-15349
▁ফেব্রুযা়রী	-15350
াপা	-15351
▁ফিড	-15352
itive	-15353
ন্টিং	-15354
▁অব্য	-15355
▁বল্ল	-15356
▁Women	-15357
▁based	-15358
▁sleep	-15359
▁বান্ধ	-15360
▁মার্কস	-15361
ura	-15362
১৯৭৫	-15363
▁Black	-15364
▁বিডা়ল	-15365
▁অত্যধিক	-15366
▁উদ্বিগ্ন	-15367
▁উপন্যাসটি	-15368
▁বিক্ষোভের	-15369
▁নিচেরসারিতে	-15370
lier	-15371
▁gra	-15372
কল্যা	-15373
▁ঈমান	-15374
▁chast	-15375
▁pract	-15376
▁রামের	-15377
▁সনাতন	-15378
▁respons	-15379
▁নির্বাহ	-15380
▁গভীরভাবে	-15381
▁মুখপাত্র	-15382
▁পটুযা়খালী	-15383
!!	-15384
wor	-15385
lies	-15386
বিষয়ক	-15387
▁ইউনিক	-15388
▁ত্রিনিদাদ	-15389
েমা	-15390
▁গোম	-15391
▁লোম	-15392
সিযা়	-15393
▁গৌরী	-15394
▁gives	-15395
▁ছদ্মন	-15396
▁পৈতৃক	-15397
▁শিকারী	-15398
▁অ্যালেন	-15399
▁আন্দ্রে	-15400
▁promised	-15401
▁পরবর্তিতে	-15402
▁ভারপ্রাপ্ত	-15403
▁কাব্যগ্রন্থ	-15404
▁di	-15405
▁কুচ	-15406
▁বার্গ	-15407
▁moment	-15408
▁শীর্ষক	-15409
▁অ্যাশেজ	-15410
▁দেখানোর	-15411
▁রেকর্ডিং	-15412
▁س	-15413
alt	-15414
টিকা	-15415
▁এম্প	-15416
▁গোটা	-15417
্যাঞ্চ	-15418
▁আকস্ম	-15419
▁ইন্ডাস্ট্রি	-15420
োণ	-15421
চরণ	-15422
তাশ	-15423
ম্বর	-15424
১৯৭২	-15425
ড়নের	-15426
▁2008	-15427
▁সদ্য	-15428
▁Found	-15429
▁posted	-15430
▁society	-15431
▁ভাষাভাষ	-15432
▁মধ্যস্থ	-15433
▁ভোটাধিকার	-15434
▁স্বীকৃতিস্বরূপ	-15435
শর	-15436
▁System	-15437
▁সমূহের	-15438
▁ফেস্টিভ	-15439
▁বসবাসের	-15440
আহ	-15441
ago	-15442
পাথ	-15443
▁Two	-15444
▁হয়না	-15445
▁ক্রোমোজ	-15446
▁দ্বীপটি	-15447
▁অস্ত্রের	-15448
▁SA	-15449
ঘাতী	-15450
▁Ste	-15451
▁কেক	-15452
ুদন্ড	-15453
▁আডা়	-15454
▁আমিও	-15455
▁জাম্ব	-15456
▁জোটের	-15457
▁উপনিষদের	-15458
োরো	-15459
anger	-15460
▁burn	-15461
▁ট্যাক	-15462
▁address	-15463
▁arrested	-15464
▁অভিনেত্রীর	-15465
vin	-15466
aker	-15467
eder	-15468
▁মিঠ	-15469
▁সমর	-15470
ারাভি	-15471
▁টেকনোল	-15472
▁company	-15473
▁পরিশ্রম	-15474
▁রসায়নে	-15475
▁স্টেডিযা়মের	-15476
▁ওব	-15477
▁সফ্ট	-15478
▁বন্ধুর	-15479
▁forgive	-15480
▁ক্রিস্টোফার	-15481
▁এলো	-15482
▁কেন্ট	-15483
▁চাষের	-15484
▁বুন্দে	-15485
▁হিমালয়	-15486
US	-15487
পর্ব	-15488
ুষিত	-15489
▁নেহের	-15490
▁পাঁচজন	-15491
▁মধ্যবিত্ত	-15492
▁কার্যনির্ব	-15493
▁till	-15494
▁ভয়েস	-15495
▁দলগুলোর	-15496
▁ত্রয়োদশ	-15497
▁available	-15498
▁ব্যয়বহুল	-15499
▁মিযা়নমার	-15500
▁আদমশুমারীর	-15501
সিড	-15502
বনের	-15503
▁সূচ	-15504
চলচ্চ	-15505
▁গ্রান	-15506
▁উইকেটের	-15507
▁পর্দায়	-15508
▁বাহরাইন	-15509
[...]
