{
  "version": "1.0",
  "truncation": null,
  "padding": null,
  "added_tokens": [
    {
      "id": 0,
      "content": "<|pad|>",
      "single_word": false,
      "lstrip": false,
      "rstrip": false,
      "normalized": false,
      "special": true
    },
    {
      "id": 1,
      "content": "<|unk|>",
      "single_word": false,
      "lstrip": false,
      "rstrip": false,
      "normalized": false,
      "special": true
    },
    {
      "id": 2,
      "content": "<|bos|>",
      "single_word": false,
      "lstrip": false,
      "rstrip": false,
      "normalized": false,
      "special": true
    },
    {
      "id": 3,
      "content": "<|eos|>",
      "single_word": false,
      "lstrip": false,
      "rstrip": false,
      "normalized": false,
      "special": true
    },
    {
      "id": 4,
      "content": "<|im_start|>",
      "single_word": false,
      "lstrip": false,
      "rstrip": false,
      "normalized": false,
      "special": true
    },
    {
      "id": 5,
      "content": "<|im_end|>",
      "single_word": false,
      "lstrip": false,
      "rstrip": false,
      "normalized": false,
      "special": true
    },
    {
      "id": 6,
      "content": "[TASK]",
      "single_word": false,
      "lstrip": false,
      "rstrip": false,
      "normalized": false,
      "special": true
    },
    {
      "id": 7,
      "content": "[FACT]",
      "single_word": false,
      "lstrip": false,
      "rstrip": false,
      "normalized": false,
      "special": true
    },
    {
      "id": 8,
      "content": "[RESULT]",
      "single_word": false,
      "lstrip": false,
      "rstrip": false,
      "normalized": false,
      "special": true
    },
    {
      "id": 9,
      "content": "[GOAL]",
      "single_word": false,
      "lstrip": false,
      "rstrip": false,
      "normalized": false,
      "special": true
    },
    {
      "id": 10,
      "content": "[HINT]",
      "single_word": false,
      "lstrip": false,
      "rstrip": false,
      "normalized": false,
      "special": true
    },
    {
      "id": 11,
      "content": "[CONSTRAINT]",
      "single_word": false,
      "lstrip": false,
      "rstrip": false,
      "normalized": false,
      "special": true
    },
    {
      "id": 12,
      "content": "[T]",
      "single_word": false,
      "lstrip": false,
      "rstrip": false,
      "normalized": false,
      "special": true
    },
    {
      "id": 13,
      "content": "[F]",
      "single_word": false,
      "lstrip": false,
      "rstrip": false,
      "normalized": false,
      "special": true
    },
    {
      "id": 14,
      "content": "[R]",
      "single_word": false,
      "lstrip": false,
      "rstrip": false,
      "normalized": false,
      "special": true
    },
    {
      "id": 15,
      "content": "[G]",
      "single_word": false,
      "lstrip": false,
      "rstrip": false,
      "normalized": false,
      "special": true
    },
    {
      "id": 16,
      "content": "[H]",
      "single_word": false,
      "lstrip": false,
      "rstrip": false,
      "normalized": false,
      "special": true
    },
    {
      "id": 17,
      "content": "[C]",
      "single_word": false,
      "lstrip": false,
      "rstrip": false,
      "normalized": false,
      "special": true
    }
  ],
  "normalizer": null,
  "pre_tokenizer": {
    "type": "ByteLevel",
    "add_prefix_space": false,
    "trim_offsets": true,
    "use_regex": true
  },
  "post_processor": {
    "type": "TemplateProcessing",
    "single": [
      {
        "Sequence": {
          "id": "A",
          "type_id": 0
        }
      }
    ],
    "pair": [
      {
        "Sequence": {
          "id": "A",
          "type_id": 0
        }
      },
      {
        "Sequence": {
          "id": "B",
          "type_id": 1
        }
      }
    ],
    "special_tokens": {}
  },
  "decoder": {
    "type": "ByteLevel",
    "add_prefix_space": true,
    "trim_offsets": true,
    "use_regex": true
  },
  "model": {
    "type": "BPE",
    "dropout": null,
    "unk_token": "<|unk|>",
    "continuing_subword_prefix": null,
    "end_of_word_suffix": null,
    "fuse_unk": false,
    "byte_fallback": false,
    "ignore_merges": false,
    "vocab": {
      "<|pad|>": 0,
      "<|unk|>": 1,
      "<|bos|>": 2,
      "<|eos|>": 3,
      "<|im_start|>": 4,
      "<|im_end|>": 5,
      "[TASK]": 6,
      "[FACT]": 7,
      "[RESULT]": 8,
      "[GOAL]": 9,
      "[HINT]": 10,
      "[CONSTRAINT]": 11,
      "[T]": 12,
      "[F]": 13,
      "[R]": 14,
      "[G]": 15,
      "[H]": 16,
      "[C]": 17,
      "!": 18,
      "\"": 19,
      "#": 20,
      "$": 21,
      "%": 22,
      "&": 23,
      "'": 24,
      "(": 25,
      ")": 26,
      "*": 27,
      "+": 28,
      ",": 29,
      "-": 30,
      ".": 31,
      "/": 32,
      "0": 33,
      "1": 34,
      "2": 35,
      "3": 36,
      "4": 37,
      "5": 38,
      "6": 39,
      "7": 40,
      "8": 41,
      "9": 42,
      ":": 43,
      ";": 44,
      "<": 45,
      "=": 46,
      ">": 47,
      "?": 48,
      "@": 49,
      "A": 50,
      "B": 51,
      "C": 52,
      "D": 53,
      "E": 54,
      "F": 55,
      "G": 56,
      "H": 57,
      "I": 58,
      "J": 59,
      "K": 60,
      "L": 61,
      "M": 62,
      "N": 63,
      "O": 64,
      "P": 65,
      "Q": 66,
      "R": 67,
      "S": 68,
      "T": 69,
      "U": 70,
      "V": 71,
      "W": 72,
      "X": 73,
      "Y": 74,
      "Z": 75,
      "[": 76,
      "\\": 77,
      "]": 78,
      "^": 79,
      "_": 80,
      "`": 81,
      "a": 82,
      "b": 83,
      "c": 84,
      "d": 85,
      "e": 86,
      "f": 87,
      "g": 88,
      "h": 89,
      "i": 90,
      "j": 91,
      "k": 92,
      "l": 93,
      "m": 94,
      "n": 95,
      "o": 96,
      "p": 97,
      "q": 98,
      "r": 99,
      "s": 100,
      "t": 101,
      "u": 102,
      "v": 103,
      "w": 104,
      "x": 105,
      "y": 106,
      "z": 107,
      "{": 108,
      "|": 109,
      "}": 110,
      "~": 111,
      "¡": 112,
      "¢": 113,
      "£": 114,
      "¤": 115,
      "¥": 116,
      "¦": 117,
      "§": 118,
      "¨": 119,
      "©": 120,
      "ª": 121,
      "«": 122,
      "¬": 123,
      "®": 124,
      "¯": 125,
      "°": 126,
      "±": 127,
      "²": 128,
      "³": 129,
      "´": 130,
      "µ": 131,
      "¶": 132,
      "·": 133,
      "¸": 134,
      "¹": 135,
      "º": 136,
      "»": 137,
      "¼": 138,
      "½": 139,
      "¾": 140,
      "¿": 141,
      "À": 142,
      "Á": 143,
      "Â": 144,
      "Ã": 145,
      "Ä": 146,
      "Å": 147,
      "Æ": 148,
      "Ç": 149,
      "È": 150,
      "É": 151,
      "Ê": 152,
      "Ë": 153,
      "Ì": 154,
      "Í": 155,
      "Î": 156,
      "Ï": 157,
      "Ð": 158,
      "Ñ": 159,
      "Ò": 160,
      "Ó": 161,
      "Ô": 162,
      "Õ": 163,
      "Ö": 164,
      "×": 165,
      "Ø": 166,
      "Ù": 167,
      "Ú": 168,
      "Û": 169,
      "Ü": 170,
      "Ý": 171,
      "Þ": 172,
      "ß": 173,
      "à": 174,
      "á": 175,
      "â": 176,
      "ã": 177,
      "ä": 178,
      "å": 179,
      "æ": 180,
      "ç": 181,
      "è": 182,
      "é": 183,
      "ê": 184,
      "ë": 185,
      "ì": 186,
      "í": 187,
      "î": 188,
      "ï": 189,
      "ð": 190,
      "ñ": 191,
      "ò": 192,
      "ó": 193,
      "ô": 194,
      "õ": 195,
      "ö": 196,
      "÷": 197,
      "ø": 198,
      "ù": 199,
      "ú": 200,
      "û": 201,
      "ü": 202,
      "ý": 203,
      "þ": 204,
      "ÿ": 205,
      "Ā": 206,
      "ā": 207,
      "Ă": 208,
      "ă": 209,
      "Ą": 210,
      "ą": 211,
      "Ć": 212,
      "ć": 213,
      "Ĉ": 214,
      "ĉ": 215,
      "Ċ": 216,
      "ċ": 217,
      "Č": 218,
      "č": 219,
      "Ď": 220,
      "ď": 221,
      "Đ": 222,
      "đ": 223,
      "Ē": 224,
      "ē": 225,
      "Ĕ": 226,
      "ĕ": 227,
      "Ė": 228,
      "ė": 229,
      "Ę": 230,
      "ę": 231,
      "Ě": 232,
      "ě": 233,
      "Ĝ": 234,
      "ĝ": 235,
      "Ğ": 236,
      "ğ": 237,
      "Ġ": 238,
      "ġ": 239,
      "Ģ": 240,
      "ģ": 241,
      "Ĥ": 242,
      "ĥ": 243,
      "Ħ": 244,
      "ħ": 245,
      "Ĩ": 246,
      "ĩ": 247,
      "Ī": 248,
      "ī": 249,
      "Ĭ": 250,
      "ĭ": 251,
      "Į": 252,
      "į": 253,
      "İ": 254,
      "ı": 255,
      "Ĳ": 256,
      "ĳ": 257,
      "Ĵ": 258,
      "ĵ": 259,
      "Ķ": 260,
      "ķ": 261,
      "ĸ": 262,
      "Ĺ": 263,
      "ĺ": 264,
      "Ļ": 265,
      "ļ": 266,
      "Ľ": 267,
      "ľ": 268,
      "Ŀ": 269,
      "ŀ": 270,
      "Ł": 271,
      "ł": 272,
      "Ń": 273,
      "à¦": 274,
      "à§": 275,
      "Ġà¦": 276,
      "à¦°": 277,
      "à§į": 278,
      "à¦¾": 279,
      "à¦¿": 280,
      "à§ĩ": 281,
      "à¦¯": 282,
      "à¦¤": 283,
      "à¦²": 284,
      "à¦®": 285,
      "à¦¨": 286,
      "à¦¬": 287,
      "Ġ=": 288,
      "Â²": 289,
      "à¦ķ": 290,
      "¥¤": 291,
      "à¥¤": 292,
      "Ġà¦¸": 293,
      "čĊ": 294,
      "Ġà¦ı": 295,
      "Ġ+": 296,
      "à¦Ĥ": 297,
      "à§ĭ": 298,
      "à§ģ": 299,
      "Ġà¦¹": 300,
      "à¦¼": 301,
      "Ġà¦ķ": 302,
      "à§Ĥ": 303,
      "à¦¸": 304,
      "à¦Ĺ": 305,
      "Ġà§": 306,
      "Ġb": 307,
      "à¦ª": 308,
      "Ġà¦¸à¦®": 309,
      "Ġà¦¬": 310,
      "Ġà¦ıà¦¬": 311,
      "à¦§": 312,
      "à¦¶": 313,
      "Ġà¦¹à¦²": 314,
      "à¦Ń": 315,
      "§à§": 316,
      "à¦ĸ": 317,
      "à¦Ł": 318,
      "à¦·": 319,
      "Ġà¦®": 320,
      "à¦¥": 321,
      "Ġ-": 322,
      "à§Ģ": 323,
      "Ġ2": 324,
      "à¦¦": 325,
      "Ġ(": 326,
      "Ġà¦ıà¦°": 327,
      "Ġà¦ķà¦°": 328,
      "Ġà¦ª": 329,
      "à¦£": 330,
      "Ġà¦²": 331,
      "Ġa": 332,
      "§à§¨": 333,
      "à¦«": 334,
      "à§ĥ": 335,
      "Ġà¦¤": 336,
      "à¦°à¦¯": 337,
      "Ġ1": 338,
      "Ġâ": 339,
      "Ġà¦¨": 340,
      "Â³": 341,
      "ÏĢ": 342,
      "Ġà¦¯": 343,
      "Ġ3": 344,
      "ĠP": 345,
      "à§§à§¨": 346,
      "à¦¾à¦Ĥ": 347,
      "Ġn": 348,
      "Ġr": 349,
      "Ġà¦ļ": 350,
      "Ġà§§à§": 351,
      "Ġà¦ħ": 352,
      "Ġà¦ī": 353,
      "Ġà¦Ń": 354,
      "ab": 355,
      "à¦ľ": 356,
      "ĠÏĢ": 357,
      "à¦ĩ": 358,
      "Ġà¦¦": 359,
      "à§İ": 360,
      "à¦¾:": 361,
      "Ġâī": 362,
      "ĠC": 363,
      "ĠI": 364,
      "Ġà¦¤à¦¥": 365,
      "à¦¹": 366,
      "à¦ļ": 367,
      "à¦¤à¦°": 368,
      "Ġà¦¹à¦¯": 369,
      "Ġà§§à§¦": 370,
      ")(": 371,
      "Ġ/": 372,
      "Ġ0": 373,
      "ĺà¦¨": 374,
      "Ġà¦§": 375,
      "Ġà¦°": 376,
      "Ġà¦ĺà¦¨": 377,
      "à¦°à¦¬": 378,
      "à¦¾.": 379,
      "à¦ķà¦°": 380,
      "Ġà¦¬à¦°": 381,
      "Ġà¦ªà¦°": 382,
      "Ġ7": 383,
      "ĠÃ": 384,
      "ĤĻ": 385,
      "à¦Ľ": 386,
      "à¦ł": 387,
      "à¦¼à§ĩ": 388,
      "Ġ4": 389,
      "Ġà¦¥": 390,
      "Ġà¦Ĩ": 391,
      "à¦°à¦®": 392,
      "à¦°à¦¥": 393,
      "à¦¾à¥¤": 394,
      "à¦²à¦ķ": 395,
      "Ġà¦ıà¦ķ": 396,
      "Ġà¦¹à¦°": 397,
      "à¦¸à¦°": 398,
      "Ġà¦¸à¦®à¦¯": 399,
      "Ġà¦¸à¦®à¦¸": 400,
      "à¦§à¦¨": 401,
      "à¦°à¦¥à¦®": 402,
      "Ġà§«": 403,
      "Ġà§¯": 404,
      "Ġà§Ń": 405,
      ")^": 406,
      "Sâ": 407,
      "rn": 408,
      "Ġc": 409,
      "Ġx": 410,
      "ĠSâ": 411,
      "ÏĢr": 412,
      "ĠÏĢr": 413,
      "ĠâīĪ": 414,
      "ĠÃĹ": 415,
      "ĠSâĤĻ": 416,
      "à§¦": 417,
      "à§§": 418,
      "à§©": 419,
      "à§ª": 420,
      "à§¬": 421,
      "à§ĩ,": 422,
      "Ġà¦¸à¦ł": 423,
      "Ġà¦ıà¦Ł": 424,
      "à§ĭà¥¤": 425,
      "Ġà¦ħà¦¨": 426,
      "Ġà¦īà¦¤": 427,
      "Ġ12": 428,
      "Ġ22": 429,
      "Ġà§§": 430,
      "Ġà§§à§¨": 431,
      "Ġà§§à§¯": 432,
      "Ġà§§à§¦à§¦": 433,
      "%à¥¤": 434,
      "Ġ5": 435,
      "ħà¦¨": 436,
      "à¦ĺ": 437,
      "à¦ħà¦¨": 438,
      "Ġà¦ľ": 439,
      "à¦°à¦«": 440,
      "à¦¯à¦¨": 441,
      "à¦¯à¦ķ": 442,
      "à¦¤à¦ķà¦°": 443,
      "à¦²à¦¨": 444,
      "à¦²à¦§à¦¨": 445,
      "à¦®à¦ķ": 446,
      "à¦¬à¦²": 447,
      "à¦¼à¥¤": 448,
      "à¦¸à¦²": 449,
      "à¦¸à¦®à¦ķ": 450,
      "à¦ªà¦°": 451,
      "à¦ªà¦ª": 452,
      "Ġà¦¸à¦®à¦·": 453,
      "Ġà¦¸à¦®à¦¹": 454,
      "à¦¶à¦¤à¦ķà¦°": 455,
      "à¦Ńà¦Ĺ": 456,
      "à¦·à¦¤": 457,
      "à¦·à¦£": 458,
      "Ġà¦®à¦§": 459,
      "à§Ģ:": 460,
      "à¦¦à¦ķ": 461,
      "Ġà¦ķà¦°à¦¤": 462,
      "à¦£à¦¯": 463,
      "Ġà¦²à¦®": 464,
      "ĠPrn": 465,
      "Ġà¦ļà¦ķ": 466,
      "Ġà¦ħà¦°": 467,
      "Ġà¦ħà¦¤": 468,
      "Ġà¦īà§İ": 469,
      "Ġà¦īà¦ªà¦ª": 470,
      "Ġà¦Ńà¦Ĺ": 471,
      "à¦ľà¦Ĺ": 472,
      "à¦ļà¦ķ": 473,
      "à¦ķà¦°à¦£": 474,
      "Ġà¦Ĩà¦¸à¦²": 475,
      "Ġà¦ıà¦ķà¦ĩ": 476,
      "Ġà¦¹à¦°à¦Ĺ": 477,
      "à¦¸à¦°à¦²": 478,
      "à¦°à¦«à¦²": 479,
      "Ġà¦¸à¦®à¦¹à¦°": 480,
      "Ġà¦īà§İà¦ª": 481,
      "12": 482,
      "ĠÂ": 483,
      "ĠâĤ": 484,
      "ĠâĪ": 485,
      "00": 486,
      "à¦ĵ": 487,
      "à¦Ļ": 488,
      "Ġà¦¶": 489,
      "à¦°à¦¶": 490,
      "à¦°à¦¦": 491,
      "à¦°à¦¹": 492,
      "à¦°à¦ĵ": 493,
      "à§ĩà¥¤": 494,
      "à¦¯à¦ª": 495,
      "à¦¯à¦Ł": 496,
      "à¦¤à¦ķ": 497,
      "à¦¤à¦Ń": 498,
      "à¦²à¦Ľ": 499,
      "à¦®à§İ": 500,
      "à¦¨à¦°": 501,
      "Ġà¦¸à¦°": 502,
      "Ġà¦ıà¦ĸ": 503,
      "Ġà¦ıà¦ĩ": 504,
      "à¦¼à§Ģ": 505,
      "Ġà¦¬à¦²": 506,
      "à¦¶à¦¨": 507,
      "à¦·à¦ķ": 508,
      "Ġà¦ķà¦°à¦¬": 509,
      "Ġà¦²à¦¸": 510,
      "Ġà¦ļà¦²à¦ķ": 511,
      "Ġà¦ļà¦®à§İ": 512,
      "à¦ĩà¦Ļ": 513,
      "Ġà¦Ĩà¦°à¦ĵ": 514,
      "Ġà¦ıà¦ķà¦Ł": 515,
      "à¦°à¦¦à¦¤": 516,
      "Ġà¦ļà¦²à¦ķà¦Ĺ": 517,
      "Ġà¦ļà¦®à§İà¦ķ": 518,
      "Ġ6": 519,
      "Ġ8": 520,
      "Ġ9": 521,
      "Ġ19": 522,
      "Ġà§¨": 523,
      "Ġà§©": 524,
      "Ġà§ª": 525,
      "Ġà§¬": 526,
      "Ġà§®": 527,
      "Prn": 528,
      "Ġ%": 529,
      "Ġy": 530,
      "ĠâĤĻ": 531,
      "Ġâī¤": 532,
      "Ġâī¥": 533,
      "Ġâīł": 534,
      "ĠÃ·": 535,
      "ĠÂ°": 536,
      "ĠÂ±": 537,
      "ĠâĤģ": 538,
      "ĠâĤĤ": 539,
      "ĠâĪĴ": 540,
      "ĠâĪļ": 541,
      "ĠâĤĻx": 542,
      "à§¨": 543,
      "à§«": 544,
      "à§®": 545,
      "à§¯": 546,
      "à§Ń": 547,
      "56": 548,
      "76": 549,
      "25": 550,
      "24": 551,
      "36": 552,
      "44": 553,
      "000": 554,
      "04": 555,
      "84": 556,
      "89": 557,
      "16": 558,
      "29": 559,
      "96": 560,
      "21": 561,
      "75": 562,
      "Ġ27": 563,
      "Ġ16": 564,
      "19": 565,
      "28": 566,
      "57": 567,
      "Ġ10": 568,
      "Ġ49": 569,
      "Ġ64": 570,
      "01": 571,
      "05": 572,
      "09": 573,
      "48": 574,
      "51": 575,
      "Ġ25": 576,
      "Ġ11": 577,
      "Ġ13": 578,
      "Ġ100": 579,
      "Ġ36": 580,
      "Ġ59": 581,
      "Ġ68": 582,
      "025": 583,
      "375": 584,
      "41": 585,
      "43": 586,
      "46": 587,
      "53": 588,
      "73": 589,
      "83": 590,
      "87": 591,
      "Ġ23": 592,
      "Ġ26": 593,
      "Ġ29": 594,
      "Ġ17": 595,
      "Ġ31": 596,
      "Ġ77": 597,
      "Ġ79": 598,
      "Ġ729": 599,
      "Ġ40": 600,
      "Ġ43": 601,
      "Ġ46": 602,
      "Ġ53": 603,
      "Ġ57": 604,
      "Ġ81": 605,
      "Ġ92": 606,
      "Ġ96": 607,
      "03": 608,
      "06": 609,
      "08": 610,
      "056": 611,
      "14": 612,
      "225": 613,
      "37": 614,
      "49": 615,
      "52": 616,
      "59": 617,
      "72": 618,
      "81": 619,
      "85": 620,
      "91": 621,
      "Ġ21": 622,
      "Ġ24": 623,
      "Ġ28": 624,
      "Ġ216": 625,
      "Ġ219": 626,
      "Ġ14": 627,
      "Ġ15": 628,
      "Ġ144": 629,
      "Ġ32": 630,
      "Ġ37": 631,
      "Ġ38": 632,
      "Ġ39": 633,
      "Ġ324": 634,
      "Ġ343": 635,
      "Ġà§§à§§": 636,
      "Ġà§§à§©": 637,
      "Ġà§§à§ª": 638,
      "Ġà§§à§«": 639,
      "Ġà§§à§¬": 640,
      "Ġà§§à§®": 641,
      "Ġà§§à§Ń": 642,
      "Ġ73": 643,
      "Ġ74": 644,
      "Ġ44": 645,
      "Ġ47": 646,
      "Ġà§«à§¦": 647,
      "Ġà§«à§§": 648,
      "Ġà§«à§©": 649,
      "Ġà§«à§ª": 650,
      "Ġà§«à§¬": 651,
      "Ġà§«à§¨": 652,
      "Ġà§«à§«": 653,
      "Ġà§«à§®": 654,
      "Ġà§«à§¯": 655,
      "Ġà§«à§Ń": 656,
      "Ġà§¯à§¦": 657,
      "Ġà§¯à§§": 658,
      "Ġà§¯à§©": 659,
      "Ġà§¯à§ª": 660,
      "Ġà§¯à§¬": 661,
      "Ġà§¯à§¨": 662,
      "Ġà§¯à§«": 663,
      "Ġà§¯à§®": 664,
      "Ġà§¯à§¯": 665,
      "Ġà§¯à§Ń": 666,
      "Ġà§Ńà§¦": 667,
      "Ġà§Ńà§§": 668,
      "Ġà§Ńà§©": 669,
      "Ġà§Ńà§ª": 670,
      "Ġà§Ńà§¬": 671,
      "Ġà§Ńà§¨": 672,
      "Ġà§Ńà§«": 673,
      "Ġà§Ńà§®": 674,
      "Ġà§Ńà§¯": 675,
      "Ġà§Ńà§Ń": 676,
      "Ġ125": 677,
      "Ġ51": 678,
      "Ġ54": 679,
      "Ġ56": 680,
      "Ġ512": 681,
      "125": 682,
      "Ġ60": 683,
      "Ġ65": 684,
      "Ġ67": 685,
      "Ġ83": 686,
      "Ġ86": 687,
      "Ġ88": 688,
      "Ġ91": 689,
      "Ġ94": 690,
      "Ġ97": 691,
      "Ġ98": 692,
      "Ġ196": 693,
      "Ġà§¨à§¦": 694,
      "Ġà§¨à§§": 695,
      "Ġà§¨à§©": 696,
      "Ġà§¨à§ª": 697,
      "Ġà§¨à§¬": 698,
      "Ġà§¨à§¨": 699,
      "Ġà§¨à§«": 700,
      "Ġà§¨à§®": 701,
      "Ġà§¨à§¯": 702,
      "Ġà§¨à§Ń": 703,
      "Ġà§©à§¦": 704,
      "Ġà§©à§§": 705,
      "Ġà§©à§©": 706,
      "Ġà§©à§ª": 707,
      "Ġà§©à§¬": 708,
      "Ġà§©à§¨": 709,
      "Ġà§©à§«": 710,
      "Ġà§©à§®": 711,
      "Ġà§©à§¯": 712,
      "Ġà§©à§Ń": 713,
      "Ġà§ªà§¦": 714,
      "Ġà§ªà§§": 715,
      "Ġà§ªà§©": 716,
      "Ġà§ªà§ª": 717,
      "Ġà§ªà§¬": 718,
      "Ġà§ªà§¨": 719,
      "Ġà§ªà§«": 720,
      "Ġà§ªà§®": 721,
      "Ġà§ªà§¯": 722,
      "Ġà§ªà§Ń": 723,
      "Ġà§¬à§¦": 724,
      "Ġà§¬à§§": 725,
      "Ġà§¬à§©": 726,
      "Ġà§¬à§ª": 727,
      "Ġà§¬à§¬": 728,
      "Ġà§¬à§¨": 729,
      "Ġà§¬à§«": 730,
      "Ġà§¬à§®": 731,
      "Ġà§¬à§¯": 732,
      "Ġà§¬à§Ń": 733,
      "Ġà§®à§¦": 734,
      "Ġà§®à§§": 735,
      "Ġà§®à§©": 736,
      "Ġà§®à§ª": 737,
      "Ġà§®à§¬": 738,
      "Ġà§®à§¨": 739,
      "Ġà§®à§«": 740,
      "Ġà§®à§®": 741,
      "Ġà§®à§¯": 742,
      "Ġà§®à§Ń": 743,
      "969": 744,
      "Ġ2500": 745,
      "Ġ10000": 746,
      "464": 747,
      "Ġ4096": 748,
      "07": 749,
      "029": 750,
      "13": 751,
      "17": 752,
      "144": 753,
      "23": 754,
      "26": 755,
      "27": 756,
      "224": 757,
      "31": 758,
      "32": 759,
      "38": 760,
      "304": 761,
      "319": 762,
      "357": 763,
      "303": 764,
      "45": 765,
      "47": 766,
      "496": 767,
      "509": 768,
      "507": 769,
      "61": 770,
      "68": 771,
      "69": 772,
      "656": 773,
      "648": 774,
      "6375": 775,
      "673": 776,
      "736": 777,
      "791": 778,
      "824": 779,
      "875": 780,
      "868": 781,
      "92": 782,
      "Ġ20": 783,
      "Ġ256": 784,
      "Ġ289": 785,
      "Ġ205": 786,
      "Ġ2025": 787,
      "Ġ243": 788,
      "Ġ287": 789,
      "Ġ18": 790,
      "Ġ156": 791,
      "Ġ176": 792,
      "Ġ136": 793,
      "Ġ1000": 794,
      "Ġ184": 795,
      "Ġ175": 796,
      "Ġ157": 797,
      "Ġ148": 798,
      "Ġ185": 799,
      "Ġ30": 800,
      "Ġ33": 801,
      "Ġ34": 802,
      "Ġ35": 803,
      "Ġ300": 804,
      "Ġ336": 805,
      "Ġ389": 806,
      "Ġ328": 807,
      "Ġ357": 808,
      "Ġ348": 809,
      "Ġ3025": 810,
      "Ġ3375": 811,
      "Ġ373": 812,
      "Ġ359": 813,
      "Ġ3969": 814,
      "Ġ70": 815,
      "Ġ71": 816,
      "Ġ72": 817,
      "Ġ75": 818,
      "Ġ76": 819,
      "Ġ78": 820,
      "Ġ756": 821,
      "Ġ704": 822,
      "Ġ784": 823,
      "Ġ753": 824,
      "Ġ7056": 825,
      "Ġ7225": 826,
      "Ġ41": 827,
      "Ġ42": 828,
      "Ġ45": 829,
      "Ġ48": 830,
      "Ġ400": 831,
      "Ġ456": 832,
      "Ġ476": 833,
      "Ġ484": 834,
      "Ġ421": 835,
      "Ġ428": 836,
      "Ġ405": 837,
      "Ġ441": 838,
      "Ġ4225": 839,
      "Ġ121": 840,
      "Ġ1225": 841,
      "Ġ1216": 842,
      "Ġ1296": 843,
      "Ġ225": 844,
      "Ġ2209": 845,
      "Ġ2269": 846,
      "Ġ50": 847,
      "Ġ52": 848,
      "Ġ55": 849,
      "Ġ58": 850,
      "Ġ576": 851,
      "Ġ504": 852,
      "Ġ529": 853,
      "Ġ548": 854,
      "Ġ551": 855,
      "Ġ583": 856,
      "Ġ506": 857,
      "12673": 858,
      "Ġ61": 859,
      "Ġ62": 860,
      "Ġ63": 861,
      "Ġ66": 862,
      "Ġ69": 863,
      "Ġ656": 864,
      "Ġ676": 865,
      "Ġ625": 866,
      "Ġ624": 867,
      "Ġ636": 868,
      "Ġ689": 869,
      "Ġ614": 870,
      "Ġ80": 871,
      "Ġ82": 872,
      "Ġ84": 873,
      "Ġ85": 874,
      "Ġ87": 875,
      "Ġ89": 876,
      "Ġ8000": 877,
      "Ġ804": 878,
      "Ġ884": 879,
      "Ġ828": 880,
      "Ġ857": 881,
      "Ġ851": 882,
      "Ġ841": 883,
      "Ġ8464": 884,
      "Ġ90": 885,
      "Ġ93": 886,
      "Ġ95": 887,
      "Ġ99": 888,
      "Ġ900": 889,
      "Ġ9025": 890,
      "Ġ941": 891,
      "Ġ973": 892,
      "Ġ912673": 893,
      "Ġ1936": 894,
      "Ġ1951": 895,
      "5616": 896,
      "763": 897,
      "768": 898,
      "7649": 899,
      "248": 900,
      "368": 901,
      "4432": 902,
      "8976": 903,
      "2144": 904,
      "Ġ2744": 905,
      "Ġ27000": 906,
      "Ġ2704": 907,
      "Ġ2746": 908,
      "Ġ169": 909,
      "Ġ1600": 910,
      "Ġ1681": 911,
      "Ġ166375": 912,
      "192": 913,
      "193": 914,
      "571": 915,
      "Ġ1024": 916,
      "Ġ1089": 917,
      "Ġ1038": 918,
      "Ġ10648": 919,
      "Ġ4900": 920,
      "Ġ4913": 921,
      "Ġ49303": 922,
      "Ġ6400": 923,
      "Ġ64000": 924,
      "017": 925,
      "0584": 926,
      "0592": 927,
      "Ġ1156": 928,
      "Ġ117649": 929,
      "Ġ110592": 930,
      "Ġ1326": 931,
      "Ġ1331": 932,
      "Ġ13824": 933,
      "Ġ361": 934,
      "Ġ3600": 935,
      "Ġ5929": 936,
      "Ġ5927": 937,
      "Ġ59319": 938,
      "Ġ6889": 939,
      "Ġ6814": 940,
      "Ġ6859": 941,
      "533": 942,
      "8328": 943,
      "877": 944,
      "Ġ2304": 945,
      "Ġ238328": 946,
      "Ġ2601": 947,
      "Ġ262144": 948,
      "Ġ2916": 949,
      "Ġ29791": 950,
      "Ġ1728": 951,
      "Ġ175616": 952,
      "Ġ3136": 953,
      "Ġ314432": 954,
      "Ġ7744": 955,
      "Ġ77868": 956,
      "Ġ7921": 957,
      "Ġ79507": 958,
      "Ġ729000": 959,
      "Ġ4356": 960,
      "Ġ438976": 961,
      "Ġ4624": 962,
      "Ġ46656": 963,
      "Ġ5329": 964,
      "Ġ53144": 965,
      "Ġ5776": 966,
      "Ġ5717": 967,
      "Ġ8100": 968,
      "Ġ9216": 969,
      "Ġ9261": 970,
      "Ġ961": 971,
      "Ġ9604": 972,
      "0608": 973,
      "088": 974,
      "379": 975,
      "8503": 976,
      "911": 977,
      "Ġ2116": 978,
      "Ġ2401": 979,
      "Ġ2809": 980,
      "Ġ216000": 981,
      "Ġ2197": 982,
      "Ġ21952": 983,
      "Ġ140608": 984,
      "Ġ1521": 985,
      "Ġ1444": 986,
      "Ġ32768": 987,
      "Ġ3721": 988,
      "Ġ3844": 989,
      "Ġ39304": 990,
      "Ġ3249": 991,
      "Ġ343000": 992,
      "Ġ7396": 993,
      "Ġ74088": 994,
      "Ġ4489": 995,
      "Ġ4745": 996,
      "Ġ125000": 997,
      "Ġ5184": 998,
      "Ġ5476": 999,
      "Ġ5625": 1000,
      "Ġ512000": 1001,
      "Ġ6084": 1002,
      "Ġ658503": 1003,
      "Ġ6724": 1004,
      "Ġ830584": 1005,
      "Ġ8649": 1006,
      "Ġ8836": 1007,
      "Ġ91125": 1008,
      "Ġ9409": 1009,
      "Ġ97029": 1010,
      "Ġ9801": 1011,
      "Ġ19683": 1012,
      "Ġ250047": 1013,
      "Ġ1000000": 1014,
      "Ġ205379": 1015,
      "Ġ24389": 1016,
      "Ġ287496": 1017,
      "Ġ15625": 1018,
      "Ġ1764": 1019,
      "Ġ1369": 1020,
      "Ġ1849": 1021,
      "Ġ17576": 1022,
      "Ġ157464": 1023,
      "Ġ148877": 1024,
      "Ġ185193": 1025,
      "Ġ300763": 1026,
      "Ġ3364": 1027,
      "Ġ389017": 1028,
      "Ġ328509": 1029,
      "Ġ357911": 1030,
      "Ġ3481": 1031,
      "Ġ373248": 1032,
      "Ġ35937": 1033,
      "Ġ7569": 1034,
      "Ġ704969": 1035,
      "Ġ753571": 1036,
      "Ġ456533": 1037,
      "Ġ4761": 1038,
      "Ġ421875": 1039,
      "Ġ42875": 1040,
      "Ġ405224": 1041,
      "Ġ12167": 1042,
      "Ġ226981": 1043,
      "Ġ5041": 1044,
      "Ġ54872": 1045,
      "Ġ551368": 1046,
      "Ġ5832": 1047,
      "Ġ50653": 1048,
      "Ġ6561": 1049,
      "Ġ6241": 1050,
      "Ġ636056": 1051,
      "Ġ68921": 1052,
      "Ġ614125": 1053,
      "Ġ804357": 1054,
      "Ġ884736": 1055,
      "Ġ8281": 1056,
      "Ġ857375": 1057,
      "Ġ85184": 1058,
      "Ġ941192": 1059,
      "Ġ97336": 1060,
      "Ġ195112": 1061,
      "Ġ274625": 1062,
      "Ġ103823": 1063,
      "Ġ493039": 1064,
      "Ġ132651": 1065,
      "Ġ592704": 1066,
      "Ġ681472": 1067,
      "Ġ778688": 1068,
      "Ġ531441": 1069,
      "Ġ571787": 1070,
      "Ġ474552": 1071,
      "Ġ970299": 1072
    },
    "merges": [
      [
        "à",
        "¦"
      ],
      [
        "à",
        "§"
      ],
      [
        "Ġ",
        "à¦"
      ],
      [
        "à¦",
        "°"
      ],
      [
        "à§",
        "į"
      ],
      [
        "à¦",
        "¾"
      ],
      [
        "à¦",
        "¿"
      ],
      [
        "à§",
        "ĩ"
      ],
      [
        "à¦",
        "¯"
      ],
      [
        "à¦",
        "¤"
      ],
      [
        "à¦",
        "²"
      ],
      [
        "à¦",
        "®"
      ],
      [
        "à¦",
        "¨"
      ],
      [
        "à¦",
        "¬"
      ],
      [
        "Ġ",
        "="
      ],
      [
        "Â",
        "²"
      ],
      [
        "à¦",
        "ķ"
      ],
      [
        "¥",
        "¤"
      ],
      [
        "à",
        "¥¤"
      ],
      [
        "Ġà¦",
        "¸"
      ],
      [
        "č",
        "Ċ"
      ],
      [
        "Ġà¦",
        "ı"
      ],
      [
        "Ġ",
        "+"
      ],
      [
        "à¦",
        "Ĥ"
      ],
      [
        "à§",
        "ĭ"
      ],
      [
        "à§",
        "ģ"
      ],
      [
        "Ġà¦",
        "¹"
      ],
      [
        "à¦",
        "¼"
      ],
      [
        "Ġà¦",
        "ķ"
      ],
      [
        "à§",
        "Ĥ"
      ],
      [
        "à¦",
        "¸"
      ],
      [
        "à¦",
        "Ĺ"
      ],
      [
        "Ġ",
        "à§"
      ],
      [
        "Ġ",
        "b"
      ],
      [
        "à¦",
        "ª"
      ],
      [
        "Ġà¦¸",
        "à¦®"
      ],
      [
        "Ġà¦",
        "¬"
      ],
      [
        "Ġà¦ı",
        "à¦¬"
      ],
      [
        "à¦",
        "§"
      ],
      [
        "à¦",
        "¶"
      ],
      [
        "Ġà¦¹",
        "à¦²"
      ],
      [
        "à¦",
        "Ń"
      ],
      [
        "§",
        "à§"
      ],
      [
        "à¦",
        "ĸ"
      ],
      [
        "à¦",
        "Ł"
      ],
      [
        "à¦",
        "·"
      ],
      [
        "Ġà¦",
        "®"
      ],
      [
        "à¦",
        "¥"
      ],
      [
        "Ġ",
        "-"
      ],
      [
        "à§",
        "Ģ"
      ],
      [
        "Ġ",
        "2"
      ],
      [
        "à¦",
        "¦"
      ],
      [
        "Ġ",
        "("
      ],
      [
        "Ġà¦ı",
        "à¦°"
      ],
      [
        "Ġà¦ķ",
        "à¦°"
      ],
      [
        "Ġà¦",
        "ª"
      ],
      [
        "à¦",
        "£"
      ],
      [
        "Ġà¦",
        "²"
      ],
      [
        "Ġ",
        "a"
      ],
      [
        "§à§",
        "¨"
      ],
      [
        "à¦",
        "«"
      ],
      [
        "à§",
        "ĥ"
      ],
      [
        "Ġà¦",
        "¤"
      ],
      [
        "à¦°",
        "à¦¯"
      ],
      [
        "Ġ",
        "1"
      ],
      [
        "Ġ",
        "â"
      ],
      [
        "Ġà¦",
        "¨"
      ],
      [
        "Â",
        "³"
      ],
      [
        "Ï",
        "Ģ"
      ],
      [
        "Ġà¦",
        "¯"
      ],
      [
        "Ġ",
        "3"
      ],
      [
        "Ġ",
        "P"
      ],
      [
        "à§",
        "§à§¨"
      ],
      [
        "à¦¾",
        "à¦Ĥ"
      ],
      [
        "Ġ",
        "n"
      ],
      [
        "Ġ",
        "r"
      ],
      [
        "Ġà¦",
        "ļ"
      ],
      [
        "Ġà§",
        "§à§"
      ],
      [
        "Ġà¦",
        "ħ"
      ],
      [
        "Ġà¦",
        "ī"
      ],
      [
        "Ġà¦",
        "Ń"
      ],
      [
        "a",
        "b"
      ],
      [
        "à¦",
        "ľ"
      ],
      [
        "Ġ",
        "ÏĢ"
      ],
      [
        "à¦",
        "ĩ"
      ],
      [
        "Ġà¦",
        "¦"
      ],
      [
        "à§",
        "İ"
      ],
      [
        "à¦¾",
        ":"
      ],
      [
        "Ġâ",
        "ī"
      ],
      [
        "Ġ",
        "C"
      ],
      [
        "Ġ",
        "I"
      ],
      [
        "Ġà¦¤",
        "à¦¥"
      ],
      [
        "à¦",
        "¹"
      ],
      [
        "à¦",
        "ļ"
      ],
      [
        "à¦¤",
        "à¦°"
      ],
      [
        "Ġà¦¹",
        "à¦¯"
      ],
      [
        "Ġà§§à§",
        "¦"
      ],
      [
        ")",
        "("
      ],
      [
        "Ġ",
        "/"
      ],
      [
        "Ġ",
        "0"
      ],
      [
        "ĺ",
        "à¦¨"
      ],
      [
        "Ġà¦",
        "§"
      ],
      [
        "Ġà¦",
        "°"
      ],
      [
        "Ġà¦",
        "ĺà¦¨"
      ],
      [
        "à¦°",
        "à¦¬"
      ],
      [
        "à¦¾",
        "."
      ],
      [
        "à¦ķ",
        "à¦°"
      ],
      [
        "Ġà¦¬",
        "à¦°"
      ],
      [
        "Ġà¦ª",
        "à¦°"
      ],
      [
        "Ġ",
        "7"
      ],
      [
        "Ġ",
        "Ã"
      ],
      [
        "Ĥ",
        "Ļ"
      ],
      [
        "à¦",
        "Ľ"
      ],
      [
        "à¦",
        "ł"
      ],
      [
        "à¦¼",
        "à§ĩ"
      ],
      [
        "Ġ",
        "4"
      ],
      [
        "Ġà¦",
        "¥"
      ],
      [
        "Ġà¦",
        "Ĩ"
      ],
      [
        "à¦°",
        "à¦®"
      ],
      [
        "à¦°",
        "à¦¥"
      ],
      [
        "à¦¾",
        "à¥¤"
      ],
      [
        "à¦²",
        "à¦ķ"
      ],
      [
        "Ġà¦ı",
        "à¦ķ"
      ],
      [
        "Ġà¦¹",
        "à¦°"
      ],
      [
        "à¦¸",
        "à¦°"
      ],
      [
        "Ġà¦¸à¦®",
        "à¦¯"
      ],
      [
        "Ġà¦¸à¦®",
        "à¦¸"
      ],
      [
        "à¦§",
        "à¦¨"
      ],
      [
        "à¦°à¦¥",
        "à¦®"
      ],
      [
        "Ġà§",
        "«"
      ],
      [
        "Ġà§",
        "¯"
      ],
      [
        "Ġà§",
        "Ń"
      ],
      [
        ")",
        "^"
      ],
      [
        "S",
        "â"
      ],
      [
        "r",
        "n"
      ],
      [
        "Ġ",
        "c"
      ],
      [
        "Ġ",
        "x"
      ],
      [
        "Ġ",
        "Sâ"
      ],
      [
        "ÏĢ",
        "r"
      ],
      [
        "ĠÏĢ",
        "r"
      ],
      [
        "Ġâī",
        "Ī"
      ],
      [
        "ĠÃ",
        "Ĺ"
      ],
      [
        "ĠSâ",
        "ĤĻ"
      ],
      [
        "à§",
        "¦"
      ],
      [
        "à§",
        "§"
      ],
      [
        "à§",
        "©"
      ],
      [
        "à§",
        "ª"
      ],
      [
        "à§",
        "¬"
      ],
      [
        "à§ĩ",
        ","
      ],
      [
        "Ġà¦¸",
        "à¦ł"
      ],
      [
        "Ġà¦ı",
        "à¦Ł"
      ],
      [
        "à§ĭ",
        "à¥¤"
      ],
      [
        "Ġà¦ħ",
        "à¦¨"
      ],
      [
        "Ġà¦ī",
        "à¦¤"
      ],
      [
        "Ġ1",
        "2"
      ],
      [
        "Ġ2",
        "2"
      ],
      [
        "Ġà§",
        "§"
      ],
      [
        "Ġà§",
        "§à§¨"
      ],
      [
        "Ġà§§à§",
        "¯"
      ],
      [
        "Ġà§§à§¦",
        "à§¦"
      ],
      [
        "%",
        "à¥¤"
      ],
      [
        "Ġ",
        "5"
      ],
      [
        "ħ",
        "à¦¨"
      ],
      [
        "à¦",
        "ĺ"
      ],
      [
        "à¦",
        "ħà¦¨"
      ],
      [
        "Ġà¦",
        "ľ"
      ],
      [
        "à¦°",
        "à¦«"
      ],
      [
        "à¦¯",
        "à¦¨"
      ],
      [
        "à¦¯",
        "à¦ķ"
      ],
      [
        "à¦¤",
        "à¦ķà¦°"
      ],
      [
        "à¦²",
        "à¦¨"
      ],
      [
        "à¦²",
        "à¦§à¦¨"
      ],
      [
        "à¦®",
        "à¦ķ"
      ],
      [
        "à¦¬",
        "à¦²"
      ],
      [
        "à¦¼",
        "à¥¤"
      ],
      [
        "à¦¸",
        "à¦²"
      ],
      [
        "à¦¸",
        "à¦®à¦ķ"
      ],
      [
        "à¦ª",
        "à¦°"
      ],
      [
        "à¦ª",
        "à¦ª"
      ],
      [
        "Ġà¦¸à¦®",
        "à¦·"
      ],
      [
        "Ġà¦¸à¦®",
        "à¦¹"
      ],
      [
        "à¦¶",
        "à¦¤à¦ķà¦°"
      ],
      [
        "à¦Ń",
        "à¦Ĺ"
      ],
      [
        "à¦·",
        "à¦¤"
      ],
      [
        "à¦·",
        "à¦£"
      ],
      [
        "Ġà¦®",
        "à¦§"
      ],
      [
        "à§Ģ",
        ":"
      ],
      [
        "à¦¦",
        "à¦ķ"
      ],
      [
        "Ġà¦ķà¦°",
        "à¦¤"
      ],
      [
        "à¦£",
        "à¦¯"
      ],
      [
        "Ġà¦²",
        "à¦®"
      ],
      [
        "ĠP",
        "rn"
      ],
      [
        "Ġà¦ļ",
        "à¦ķ"
      ],
      [
        "Ġà¦ħ",
        "à¦°"
      ],
      [
        "Ġà¦ħ",
        "à¦¤"
      ],
      [
        "Ġà¦ī",
        "à§İ"
      ],
      [
        "Ġà¦ī",
        "à¦ªà¦ª"
      ],
      [
        "Ġà¦Ń",
        "à¦Ĺ"
      ],
      [
        "à¦ľ",
        "à¦Ĺ"
      ],
      [
        "à¦ļ",
        "à¦ķ"
      ],
      [
        "à¦ķà¦°",
        "à¦£"
      ],
      [
        "Ġà¦Ĩ",
        "à¦¸à¦²"
      ],
      [
        "Ġà¦ıà¦ķ",
        "à¦ĩ"
      ],
      [
        "Ġà¦¹à¦°",
        "à¦Ĺ"
      ],
      [
        "à¦¸à¦°",
        "à¦²"
      ],
      [
        "à¦°à¦«",
        "à¦²"
      ],
      [
        "Ġà¦¸à¦®à¦¹",
        "à¦°"
      ],
      [
        "Ġà¦īà§İ",
        "à¦ª"
      ],
      [
        "1",
        "2"
      ],
      [
        "Ġ",
        "Â"
      ],
      [
        "Ġâ",
        "Ĥ"
      ],
      [
        "Ġâ",
        "Ī"
      ],
      [
        "0",
        "0"
      ],
      [
        "à¦",
        "ĵ"
      ],
      [
        "à¦",
        "Ļ"
      ],
      [
        "Ġà¦",
        "¶"
      ],
      [
        "à¦°",
        "à¦¶"
      ],
      [
        "à¦°",
        "à¦¦"
      ],
      [
        "à¦°",
        "à¦¹"
      ],
      [
        "à¦°",
        "à¦ĵ"
      ],
      [
        "à§ĩ",
        "à¥¤"
      ],
      [
        "à¦¯",
        "à¦ª"
      ],
      [
        "à¦¯",
        "à¦Ł"
      ],
      [
        "à¦¤",
        "à¦ķ"
      ],
      [
        "à¦¤",
        "à¦Ń"
      ],
      [
        "à¦²",
        "à¦Ľ"
      ],
      [
        "à¦®",
        "à§İ"
      ],
      [
        "à¦¨",
        "à¦°"
      ],
      [
        "Ġà¦¸",
        "à¦°"
      ],
      [
        "Ġà¦ı",
        "à¦ĸ"
      ],
      [
        "Ġà¦ı",
        "à¦ĩ"
      ],
      [
        "à¦¼",
        "à§Ģ"
      ],
      [
        "Ġà¦¬",
        "à¦²"
      ],
      [
        "à¦¶",
        "à¦¨"
      ],
      [
        "à¦·",
        "à¦ķ"
      ],
      [
        "Ġà¦ķà¦°",
        "à¦¬"
      ],
      [
        "Ġà¦²",
        "à¦¸"
      ],
      [
        "Ġà¦ļ",
        "à¦²à¦ķ"
      ],
      [
        "Ġà¦ļ",
        "à¦®à§İ"
      ],
      [
        "à¦ĩ",
        "à¦Ļ"
      ],
      [
        "Ġà¦Ĩ",
        "à¦°à¦ĵ"
      ],
      [
        "Ġà¦ıà¦ķ",
        "à¦Ł"
      ],
      [
        "à¦°à¦¦",
        "à¦¤"
      ],
      [
        "Ġà¦ļà¦²à¦ķ",
        "à¦Ĺ"
      ],
      [
        "Ġà¦ļà¦®à§İ",
        "à¦ķ"
      ],
      [
        "Ġ",
        "6"
      ],
      [
        "Ġ",
        "8"
      ],
      [
        "Ġ",
        "9"
      ],
      [
        "Ġ1",
        "9"
      ],
      [
        "Ġà§",
        "¨"
      ],
      [
        "Ġà§",
        "©"
      ],
      [
        "Ġà§",
        "ª"
      ],
      [
        "Ġà§",
        "¬"
      ],
      [
        "Ġà§",
        "®"
      ],
      [
        "P",
        "rn"
      ],
      [
        "Ġ",
        "%"
      ],
      [
        "Ġ",
        "y"
      ],
      [
        "Ġâ",
        "ĤĻ"
      ],
      [
        "Ġâī",
        "¤"
      ],
      [
        "Ġâī",
        "¥"
      ],
      [
        "Ġâī",
        "ł"
      ],
      [
        "ĠÃ",
        "·"
      ],
      [
        "ĠÂ",
        "°"
      ],
      [
        "ĠÂ",
        "±"
      ],
      [
        "ĠâĤ",
        "ģ"
      ],
      [
        "ĠâĤ",
        "Ĥ"
      ],
      [
        "ĠâĪ",
        "Ĵ"
      ],
      [
        "ĠâĪ",
        "ļ"
      ],
      [
        "ĠâĤĻ",
        "x"
      ],
      [
        "à§",
        "¨"
      ],
      [
        "à§",
        "«"
      ],
      [
        "à§",
        "®"
      ],
      [
        "à§",
        "¯"
      ],
      [
        "à§",
        "Ń"
      ],
      [
        "5",
        "6"
      ],
      [
        "7",
        "6"
      ],
      [
        "2",
        "5"
      ],
      [
        "2",
        "4"
      ],
      [
        "3",
        "6"
      ],
      [
        "4",
        "4"
      ],
      [
        "00",
        "0"
      ],
      [
        "0",
        "4"
      ],
      [
        "8",
        "4"
      ],
      [
        "8",
        "9"
      ],
      [
        "1",
        "6"
      ],
      [
        "2",
        "9"
      ],
      [
        "9",
        "6"
      ],
      [
        "2",
        "1"
      ],
      [
        "7",
        "5"
      ],
      [
        "Ġ2",
        "7"
      ],
      [
        "Ġ1",
        "6"
      ],
      [
        "1",
        "9"
      ],
      [
        "2",
        "8"
      ],
      [
        "5",
        "7"
      ],
      [
        "Ġ1",
        "0"
      ],
      [
        "Ġ4",
        "9"
      ],
      [
        "Ġ6",
        "4"
      ],
      [
        "0",
        "1"
      ],
      [
        "0",
        "5"
      ],
      [
        "0",
        "9"
      ],
      [
        "4",
        "8"
      ],
      [
        "5",
        "1"
      ],
      [
        "Ġ2",
        "5"
      ],
      [
        "Ġ1",
        "1"
      ],
      [
        "Ġ1",
        "3"
      ],
      [
        "Ġ1",
        "00"
      ],
      [
        "Ġ3",
        "6"
      ],
      [
        "Ġ5",
        "9"
      ],
      [
        "Ġ6",
        "8"
      ],
      [
        "0",
        "25"
      ],
      [
        "3",
        "75"
      ],
      [
        "4",
        "1"
      ],
      [
        "4",
        "3"
      ],
      [
        "4",
        "6"
      ],
      [
        "5",
        "3"
      ],
      [
        "7",
        "3"
      ],
      [
        "8",
        "3"
      ],
      [
        "8",
        "7"
      ],
      [
        "Ġ2",
        "3"
      ],
      [
        "Ġ2",
        "6"
      ],
      [
        "Ġ2",
        "9"
      ],
      [
        "Ġ1",
        "7"
      ],
      [
        "Ġ3",
        "1"
      ],
      [
        "Ġ7",
        "7"
      ],
      [
        "Ġ7",
        "9"
      ],
      [
        "Ġ7",
        "29"
      ],
      [
        "Ġ4",
        "0"
      ],
      [
        "Ġ4",
        "3"
      ],
      [
        "Ġ4",
        "6"
      ],
      [
        "Ġ5",
        "3"
      ],
      [
        "Ġ5",
        "7"
      ],
      [
        "Ġ8",
        "1"
      ],
      [
        "Ġ9",
        "2"
      ],
      [
        "Ġ9",
        "6"
      ],
      [
        "0",
        "3"
      ],
      [
        "0",
        "6"
      ],
      [
        "0",
        "8"
      ],
      [
        "0",
        "56"
      ],
      [
        "1",
        "4"
      ],
      [
        "2",
        "25"
      ],
      [
        "3",
        "7"
      ],
      [
        "4",
        "9"
      ],
      [
        "5",
        "2"
      ],
      [
        "5",
        "9"
      ],
      [
        "7",
        "2"
      ],
      [
        "8",
        "1"
      ],
      [
        "8",
        "5"
      ],
      [
        "9",
        "1"
      ],
      [
        "Ġ2",
        "1"
      ],
      [
        "Ġ2",
        "4"
      ],
      [
        "Ġ2",
        "8"
      ],
      [
        "Ġ2",
        "16"
      ],
      [
        "Ġ2",
        "19"
      ],
      [
        "Ġ1",
        "4"
      ],
      [
        "Ġ1",
        "5"
      ],
      [
        "Ġ1",
        "44"
      ],
      [
        "Ġ3",
        "2"
      ],
      [
        "Ġ3",
        "7"
      ],
      [
        "Ġ3",
        "8"
      ],
      [
        "Ġ3",
        "9"
      ],
      [
        "Ġ3",
        "24"
      ],
      [
        "Ġ3",
        "43"
      ],
      [
        "Ġà§§à§",
        "§"
      ],
      [
        "Ġà§§à§",
        "©"
      ],
      [
        "Ġà§§à§",
        "ª"
      ],
      [
        "Ġà§§à§",
        "«"
      ],
      [
        "Ġà§§à§",
        "¬"
      ],
      [
        "Ġà§§à§",
        "®"
      ],
      [
        "Ġà§§à§",
        "Ń"
      ],
      [
        "Ġ7",
        "3"
      ],
      [
        "Ġ7",
        "4"
      ],
      [
        "Ġ4",
        "4"
      ],
      [
        "Ġ4",
        "7"
      ],
      [
        "Ġà§«",
        "à§¦"
      ],
      [
        "Ġà§«",
        "à§§"
      ],
      [
        "Ġà§«",
        "à§©"
      ],
      [
        "Ġà§«",
        "à§ª"
      ],
      [
        "Ġà§«",
        "à§¬"
      ],
      [
        "Ġà§«",
        "à§¨"
      ],
      [
        "Ġà§«",
        "à§«"
      ],
      [
        "Ġà§«",
        "à§®"
      ],
      [
        "Ġà§«",
        "à§¯"
      ],
      [
        "Ġà§«",
        "à§Ń"
      ],
      [
        "Ġà§¯",
        "à§¦"
      ],
      [
        "Ġà§¯",
        "à§§"
      ],
      [
        "Ġà§¯",
        "à§©"
      ],
      [
        "Ġà§¯",
        "à§ª"
      ],
      [
        "Ġà§¯",
        "à§¬"
      ],
      [
        "Ġà§¯",
        "à§¨"
      ],
      [
        "Ġà§¯",
        "à§«"
      ],
      [
        "Ġà§¯",
        "à§®"
      ],
      [
        "Ġà§¯",
        "à§¯"
      ],
      [
        "Ġà§¯",
        "à§Ń"
      ],
      [
        "Ġà§Ń",
        "à§¦"
      ],
      [
        "Ġà§Ń",
        "à§§"
      ],
      [
        "Ġà§Ń",
        "à§©"
      ],
      [
        "Ġà§Ń",
        "à§ª"
      ],
      [
        "Ġà§Ń",
        "à§¬"
      ],
      [
        "Ġà§Ń",
        "à§¨"
      ],
      [
        "Ġà§Ń",
        "à§«"
      ],
      [
        "Ġà§Ń",
        "à§®"
      ],
      [
        "Ġà§Ń",
        "à§¯"
      ],
      [
        "Ġà§Ń",
        "à§Ń"
      ],
      [
        "Ġ12",
        "5"
      ],
      [
        "Ġ5",
        "1"
      ],
      [
        "Ġ5",
        "4"
      ],
      [
        "Ġ5",
        "6"
      ],
      [
        "Ġ5",
        "12"
      ],
      [
        "12",
        "5"
      ],
      [
        "Ġ6",
        "0"
      ],
      [
        "Ġ6",
        "5"
      ],
      [
        "Ġ6",
        "7"
      ],
      [
        "Ġ8",
        "3"
      ],
      [
        "Ġ8",
        "6"
      ],
      [
        "Ġ8",
        "8"
      ],
      [
        "Ġ9",
        "1"
      ],
      [
        "Ġ9",
        "4"
      ],
      [
        "Ġ9",
        "7"
      ],
      [
        "Ġ9",
        "8"
      ],
      [
        "Ġ19",
        "6"
      ],
      [
        "Ġà§¨",
        "à§¦"
      ],
      [
        "Ġà§¨",
        "à§§"
      ],
      [
        "Ġà§¨",
        "à§©"
      ],
      [
        "Ġà§¨",
        "à§ª"
      ],
      [
        "Ġà§¨",
        "à§¬"
      ],
      [
        "Ġà§¨",
        "à§¨"
      ],
      [
        "Ġà§¨",
        "à§«"
      ],
      [
        "Ġà§¨",
        "à§®"
      ],
      [
        "Ġà§¨",
        "à§¯"
      ],
      [
        "Ġà§¨",
        "à§Ń"
      ],
      [
        "Ġà§©",
        "à§¦"
      ],
      [
        "Ġà§©",
        "à§§"
      ],
      [
        "Ġà§©",
        "à§©"
      ],
      [
        "Ġà§©",
        "à§ª"
      ],
      [
        "Ġà§©",
        "à§¬"
      ],
      [
        "Ġà§©",
        "à§¨"
      ],
      [
        "Ġà§©",
        "à§«"
      ],
      [
        "Ġà§©",
        "à§®"
      ],
      [
        "Ġà§©",
        "à§¯"
      ],
      [
        "Ġà§©",
        "à§Ń"
      ],
      [
        "Ġà§ª",
        "à§¦"
      ],
      [
        "Ġà§ª",
        "à§§"
      ],
      [
        "Ġà§ª",
        "à§©"
      ],
      [
        "Ġà§ª",
        "à§ª"
      ],
      [
        "Ġà§ª",
        "à§¬"
      ],
      [
        "Ġà§ª",
        "à§¨"
      ],
      [
        "Ġà§ª",
        "à§«"
      ],
      [
        "Ġà§ª",
        "à§®"
      ],
      [
        "Ġà§ª",
        "à§¯"
      ],
      [
        "Ġà§ª",
        "à§Ń"
      ],
      [
        "Ġà§¬",
        "à§¦"
      ],
      [
        "Ġà§¬",
        "à§§"
      ],
      [
        "Ġà§¬",
        "à§©"
      ],
      [
        "Ġà§¬",
        "à§ª"
      ],
      [
        "Ġà§¬",
        "à§¬"
      ],
      [
        "Ġà§¬",
        "à§¨"
      ],
      [
        "Ġà§¬",
        "à§«"
      ],
      [
        "Ġà§¬",
        "à§®"
      ],
      [
        "Ġà§¬",
        "à§¯"
      ],
      [
        "Ġà§¬",
        "à§Ń"
      ],
      [
        "Ġà§®",
        "à§¦"
      ],
      [
        "Ġà§®",
        "à§§"
      ],
      [
        "Ġà§®",
        "à§©"
      ],
      [
        "Ġà§®",
        "à§ª"
      ],
      [
        "Ġà§®",
        "à§¬"
      ],
      [
        "Ġà§®",
        "à§¨"
      ],
      [
        "Ġà§®",
        "à§«"
      ],
      [
        "Ġà§®",
        "à§®"
      ],
      [
        "Ġà§®",
        "à§¯"
      ],
      [
        "Ġà§®",
        "à§Ń"
      ],
      [
        "96",
        "9"
      ],
      [
        "Ġ25",
        "00"
      ],
      [
        "Ġ100",
        "00"
      ],
      [
        "46",
        "4"
      ],
      [
        "Ġ40",
        "96"
      ],
      [
        "0",
        "7"
      ],
      [
        "0",
        "29"
      ],
      [
        "1",
        "3"
      ],
      [
        "1",
        "7"
      ],
      [
        "1",
        "44"
      ],
      [
        "2",
        "3"
      ],
      [
        "2",
        "6"
      ],
      [
        "2",
        "7"
      ],
      [
        "2",
        "24"
      ],
      [
        "3",
        "1"
      ],
      [
        "3",
        "2"
      ],
      [
        "3",
        "8"
      ],
      [
        "3",
        "04"
      ],
      [
        "3",
        "19"
      ],
      [
        "3",
        "57"
      ],
      [
        "3",
        "03"
      ],
      [
        "4",
        "5"
      ],
      [
        "4",
        "7"
      ],
      [
        "4",
        "96"
      ],
      [
        "5",
        "09"
      ],
      [
        "5",
        "07"
      ],
      [
        "6",
        "1"
      ],
      [
        "6",
        "8"
      ],
      [
        "6",
        "9"
      ],
      [
        "6",
        "56"
      ],
      [
        "6",
        "48"
      ],
      [
        "6",
        "375"
      ],
      [
        "6",
        "73"
      ],
      [
        "7",
        "36"
      ],
      [
        "7",
        "91"
      ],
      [
        "8",
        "24"
      ],
      [
        "8",
        "75"
      ],
      [
        "8",
        "68"
      ],
      [
        "9",
        "2"
      ],
      [
        "Ġ2",
        "0"
      ],
      [
        "Ġ2",
        "56"
      ],
      [
        "Ġ2",
        "89"
      ],
      [
        "Ġ2",
        "05"
      ],
      [
        "Ġ2",
        "025"
      ],
      [
        "Ġ2",
        "43"
      ],
      [
        "Ġ2",
        "87"
      ],
      [
        "Ġ1",
        "8"
      ],
      [
        "Ġ1",
        "56"
      ],
      [
        "Ġ1",
        "76"
      ],
      [
        "Ġ1",
        "36"
      ],
      [
        "Ġ1",
        "000"
      ],
      [
        "Ġ1",
        "84"
      ],
      [
        "Ġ1",
        "75"
      ],
      [
        "Ġ1",
        "57"
      ],
      [
        "Ġ1",
        "48"
      ],
      [
        "Ġ1",
        "85"
      ],
      [
        "Ġ3",
        "0"
      ],
      [
        "Ġ3",
        "3"
      ],
      [
        "Ġ3",
        "4"
      ],
      [
        "Ġ3",
        "5"
      ],
      [
        "Ġ3",
        "00"
      ],
      [
        "Ġ3",
        "36"
      ],
      [
        "Ġ3",
        "89"
      ],
      [
        "Ġ3",
        "28"
      ],
      [
        "Ġ3",
        "57"
      ],
      [
        "Ġ3",
        "48"
      ],
      [
        "Ġ3",
        "025"
      ],
      [
        "Ġ3",
        "375"
      ],
      [
        "Ġ3",
        "73"
      ],
      [
        "Ġ3",
        "59"
      ],
      [
        "Ġ3",
        "969"
      ],
      [
        "Ġ7",
        "0"
      ],
      [
        "Ġ7",
        "1"
      ],
      [
        "Ġ7",
        "2"
      ],
      [
        "Ġ7",
        "5"
      ],
      [
        "Ġ7",
        "6"
      ],
      [
        "Ġ7",
        "8"
      ],
      [
        "Ġ7",
        "56"
      ],
      [
        "Ġ7",
        "04"
      ],
      [
        "Ġ7",
        "84"
      ],
      [
        "Ġ7",
        "53"
      ],
      [
        "Ġ7",
        "056"
      ],
      [
        "Ġ7",
        "225"
      ],
      [
        "Ġ4",
        "1"
      ],
      [
        "Ġ4",
        "2"
      ],
      [
        "Ġ4",
        "5"
      ],
      [
        "Ġ4",
        "8"
      ],
      [
        "Ġ4",
        "00"
      ],
      [
        "Ġ4",
        "56"
      ],
      [
        "Ġ4",
        "76"
      ],
      [
        "Ġ4",
        "84"
      ],
      [
        "Ġ4",
        "21"
      ],
      [
        "Ġ4",
        "28"
      ],
      [
        "Ġ4",
        "05"
      ],
      [
        "Ġ4",
        "41"
      ],
      [
        "Ġ4",
        "225"
      ],
      [
        "Ġ12",
        "1"
      ],
      [
        "Ġ12",
        "25"
      ],
      [
        "Ġ12",
        "16"
      ],
      [
        "Ġ12",
        "96"
      ],
      [
        "Ġ22",
        "5"
      ],
      [
        "Ġ22",
        "09"
      ],
      [
        "Ġ22",
        "69"
      ],
      [
        "Ġ5",
        "0"
      ],
      [
        "Ġ5",
        "2"
      ],
      [
        "Ġ5",
        "5"
      ],
      [
        "Ġ5",
        "8"
      ],
      [
        "Ġ5",
        "76"
      ],
      [
        "Ġ5",
        "04"
      ],
      [
        "Ġ5",
        "29"
      ],
      [
        "Ġ5",
        "48"
      ],
      [
        "Ġ5",
        "51"
      ],
      [
        "Ġ5",
        "83"
      ],
      [
        "Ġ5",
        "06"
      ],
      [
        "12",
        "673"
      ],
      [
        "Ġ6",
        "1"
      ],
      [
        "Ġ6",
        "2"
      ],
      [
        "Ġ6",
        "3"
      ],
      [
        "Ġ6",
        "6"
      ],
      [
        "Ġ6",
        "9"
      ],
      [
        "Ġ6",
        "56"
      ],
      [
        "Ġ6",
        "76"
      ],
      [
        "Ġ6",
        "25"
      ],
      [
        "Ġ6",
        "24"
      ],
      [
        "Ġ6",
        "36"
      ],
      [
        "Ġ6",
        "89"
      ],
      [
        "Ġ6",
        "14"
      ],
      [
        "Ġ8",
        "0"
      ],
      [
        "Ġ8",
        "2"
      ],
      [
        "Ġ8",
        "4"
      ],
      [
        "Ġ8",
        "5"
      ],
      [
        "Ġ8",
        "7"
      ],
      [
        "Ġ8",
        "9"
      ],
      [
        "Ġ8",
        "000"
      ],
      [
        "Ġ8",
        "04"
      ],
      [
        "Ġ8",
        "84"
      ],
      [
        "Ġ8",
        "28"
      ],
      [
        "Ġ8",
        "57"
      ],
      [
        "Ġ8",
        "51"
      ],
      [
        "Ġ8",
        "41"
      ],
      [
        "Ġ8",
        "464"
      ],
      [
        "Ġ9",
        "0"
      ],
      [
        "Ġ9",
        "3"
      ],
      [
        "Ġ9",
        "5"
      ],
      [
        "Ġ9",
        "9"
      ],
      [
        "Ġ9",
        "00"
      ],
      [
        "Ġ9",
        "025"
      ],
      [
        "Ġ9",
        "41"
      ],
      [
        "Ġ9",
        "73"
      ],
      [
        "Ġ9",
        "12673"
      ],
      [
        "Ġ19",
        "36"
      ],
      [
        "Ġ19",
        "51"
      ],
      [
        "56",
        "16"
      ],
      [
        "76",
        "3"
      ],
      [
        "76",
        "8"
      ],
      [
        "76",
        "49"
      ],
      [
        "24",
        "8"
      ],
      [
        "36",
        "8"
      ],
      [
        "44",
        "32"
      ],
      [
        "89",
        "76"
      ],
      [
        "21",
        "44"
      ],
      [
        "Ġ27",
        "44"
      ],
      [
        "Ġ27",
        "000"
      ],
      [
        "Ġ27",
        "04"
      ],
      [
        "Ġ27",
        "46"
      ],
      [
        "Ġ16",
        "9"
      ],
      [
        "Ġ16",
        "00"
      ],
      [
        "Ġ16",
        "81"
      ],
      [
        "Ġ16",
        "6375"
      ],
      [
        "19",
        "2"
      ],
      [
        "19",
        "3"
      ],
      [
        "57",
        "1"
      ],
      [
        "Ġ10",
        "24"
      ],
      [
        "Ġ10",
        "89"
      ],
      [
        "Ġ10",
        "38"
      ],
      [
        "Ġ10",
        "648"
      ],
      [
        "Ġ49",
        "00"
      ],
      [
        "Ġ49",
        "13"
      ],
      [
        "Ġ49",
        "303"
      ],
      [
        "Ġ64",
        "00"
      ],
      [
        "Ġ64",
        "000"
      ],
      [
        "01",
        "7"
      ],
      [
        "05",
        "84"
      ],
      [
        "05",
        "92"
      ],
      [
        "Ġ11",
        "56"
      ],
      [
        "Ġ11",
        "7649"
      ],
      [
        "Ġ11",
        "0592"
      ],
      [
        "Ġ13",
        "26"
      ],
      [
        "Ġ13",
        "31"
      ],
      [
        "Ġ13",
        "824"
      ],
      [
        "Ġ36",
        "1"
      ],
      [
        "Ġ36",
        "00"
      ],
      [
        "Ġ59",
        "29"
      ],
      [
        "Ġ59",
        "27"
      ],
      [
        "Ġ59",
        "319"
      ],
      [
        "Ġ68",
        "89"
      ],
      [
        "Ġ68",
        "14"
      ],
      [
        "Ġ68",
        "59"
      ],
      [
        "53",
        "3"
      ],
      [
        "83",
        "28"
      ],
      [
        "87",
        "7"
      ],
      [
        "Ġ23",
        "04"
      ],
      [
        "Ġ23",
        "8328"
      ],
      [
        "Ġ26",
        "01"
      ],
      [
        "Ġ26",
        "2144"
      ],
      [
        "Ġ29",
        "16"
      ],
      [
        "Ġ29",
        "791"
      ],
      [
        "Ġ17",
        "28"
      ],
      [
        "Ġ17",
        "5616"
      ],
      [
        "Ġ31",
        "36"
      ],
      [
        "Ġ31",
        "4432"
      ],
      [
        "Ġ77",
        "44"
      ],
      [
        "Ġ77",
        "868"
      ],
      [
        "Ġ79",
        "21"
      ],
      [
        "Ġ79",
        "507"
      ],
      [
        "Ġ729",
        "000"
      ],
      [
        "Ġ43",
        "56"
      ],
      [
        "Ġ43",
        "8976"
      ],
      [
        "Ġ46",
        "24"
      ],
      [
        "Ġ46",
        "656"
      ],
      [
        "Ġ53",
        "29"
      ],
      [
        "Ġ53",
        "144"
      ],
      [
        "Ġ57",
        "76"
      ],
      [
        "Ġ57",
        "17"
      ],
      [
        "Ġ81",
        "00"
      ],
      [
        "Ġ92",
        "16"
      ],
      [
        "Ġ92",
        "61"
      ],
      [
        "Ġ96",
        "1"
      ],
      [
        "Ġ96",
        "04"
      ],
      [
        "06",
        "08"
      ],
      [
        "08",
        "8"
      ],
      [
        "37",
        "9"
      ],
      [
        "85",
        "03"
      ],
      [
        "91",
        "1"
      ],
      [
        "Ġ21",
        "16"
      ],
      [
        "Ġ24",
        "01"
      ],
      [
        "Ġ28",
        "09"
      ],
      [
        "Ġ216",
        "000"
      ],
      [
        "Ġ219",
        "7"
      ],
      [
        "Ġ219",
        "52"
      ],
      [
        "Ġ14",
        "0608"
      ],
      [
        "Ġ15",
        "21"
      ],
      [
        "Ġ144",
        "4"
      ],
      [
        "Ġ32",
        "768"
      ],
      [
        "Ġ37",
        "21"
      ],
      [
        "Ġ38",
        "44"
      ],
      [
        "Ġ39",
        "304"
      ],
      [
        "Ġ324",
        "9"
      ],
      [
        "Ġ343",
        "000"
      ],
      [
        "Ġ73",
        "96"
      ],
      [
        "Ġ74",
        "088"
      ],
      [
        "Ġ44",
        "89"
      ],
      [
        "Ġ47",
        "45"
      ],
      [
        "Ġ125",
        "000"
      ],
      [
        "Ġ51",
        "84"
      ],
      [
        "Ġ54",
        "76"
      ],
      [
        "Ġ56",
        "25"
      ],
      [
        "Ġ512",
        "000"
      ],
      [
        "Ġ60",
        "84"
      ],
      [
        "Ġ65",
        "8503"
      ],
      [
        "Ġ67",
        "24"
      ],
      [
        "Ġ83",
        "0584"
      ],
      [
        "Ġ86",
        "49"
      ],
      [
        "Ġ88",
        "36"
      ],
      [
        "Ġ91",
        "125"
      ],
      [
        "Ġ94",
        "09"
      ],
      [
        "Ġ97",
        "029"
      ],
      [
        "Ġ98",
        "01"
      ],
      [
        "Ġ196",
        "83"
      ],
      [
        "Ġ2500",
        "47"
      ],
      [
        "Ġ10000",
        "00"
      ],
      [
        "Ġ205",
        "379"
      ],
      [
        "Ġ243",
        "89"
      ],
      [
        "Ġ287",
        "496"
      ],
      [
        "Ġ156",
        "25"
      ],
      [
        "Ġ176",
        "4"
      ],
      [
        "Ġ136",
        "9"
      ],
      [
        "Ġ184",
        "9"
      ],
      [
        "Ġ175",
        "76"
      ],
      [
        "Ġ157",
        "464"
      ],
      [
        "Ġ148",
        "877"
      ],
      [
        "Ġ185",
        "193"
      ],
      [
        "Ġ300",
        "763"
      ],
      [
        "Ġ336",
        "4"
      ],
      [
        "Ġ389",
        "017"
      ],
      [
        "Ġ328",
        "509"
      ],
      [
        "Ġ357",
        "911"
      ],
      [
        "Ġ348",
        "1"
      ],
      [
        "Ġ373",
        "248"
      ],
      [
        "Ġ359",
        "37"
      ],
      [
        "Ġ756",
        "9"
      ],
      [
        "Ġ704",
        "969"
      ],
      [
        "Ġ753",
        "571"
      ],
      [
        "Ġ456",
        "533"
      ],
      [
        "Ġ476",
        "1"
      ],
      [
        "Ġ421",
        "875"
      ],
      [
        "Ġ428",
        "75"
      ],
      [
        "Ġ405",
        "224"
      ],
      [
        "Ġ1216",
        "7"
      ],
      [
        "Ġ2269",
        "81"
      ],
      [
        "Ġ504",
        "1"
      ],
      [
        "Ġ548",
        "72"
      ],
      [
        "Ġ551",
        "368"
      ],
      [
        "Ġ583",
        "2"
      ],
      [
        "Ġ506",
        "53"
      ],
      [
        "Ġ656",
        "1"
      ],
      [
        "Ġ624",
        "1"
      ],
      [
        "Ġ636",
        "056"
      ],
      [
        "Ġ689",
        "21"
      ],
      [
        "Ġ614",
        "125"
      ],
      [
        "Ġ804",
        "357"
      ],
      [
        "Ġ884",
        "736"
      ],
      [
        "Ġ828",
        "1"
      ],
      [
        "Ġ857",
        "375"
      ],
      [
        "Ġ851",
        "84"
      ],
      [
        "Ġ941",
        "192"
      ],
      [
        "Ġ973",
        "36"
      ],
      [
        "Ġ1951",
        "12"
      ],
      [
        "Ġ2746",
        "25"
      ],
      [
        "Ġ1038",
        "23"
      ],
      [
        "Ġ49303",
        "9"
      ],
      [
        "Ġ1326",
        "51"
      ],
      [
        "Ġ5927",
        "04"
      ],
      [
        "Ġ6814",
        "72"
      ],
      [
        "Ġ77868",
        "8"
      ],
      [
        "Ġ53144",
        "1"
      ],
      [
        "Ġ5717",
        "87"
      ],
      [
        "Ġ4745",
        "52"
      ],
      [
        "Ġ97029",
        "9"
      ]
    ]
  }
}